#version: 0.2
č Ċ
Ġ t
h e
i n
Ġ a
o n
Ġt he
Ġ s
t i
e r
Ġ =
e s
Ġ $
c o
Ġ o
ti on
r e
l l
d e
# #
= =
i s
o l
Ġ Ġ
Ġo f
a n
Ġ p
o r
Ġ f
l e
a t
a l
Ġ w
Ġ \
Ġ b
Ġ c
co de
Ġ +
u t
Ġa n
r a
ll m
e n
r o
Ġ 1
m p
u m
Ġ n
Ġ is
v e
Ġ in
Ġ m
Ġt o
i t
## #
Ġ d
Ġ e
Ġan d
e t
a r
Ġt h
e d
Ġ -
Ġ 2
in g
r i
Ġ S
q u
æ ¢
æ¢ ¦
æ¢¦ æ¢¦
o t
u s
u tion
ol ution
Ġ h
a s
Ġs y
0 0
< /
b er
u es
Ġ (
i r
a c
um ber
$ .
ra c
Ġ g
u n
o w
Ġf or
Ġ co
in t
a tion
c e
Ġ 3
Ġ Q
' s
ĠĠ ĠĠ
Ġ l
) ;
t h
s i
Ġ *
Ġw e
ues tion
== ==
ĠS olution
ĠQ uestion
o ut
==== =
Ġ x
s t
Ġa re
p ut
Ġn umber
f rac
Ġ i
ol ve
} {
out put
u l
mp y
Ġ$ \
Ġ re
an g
Ġth at
Ġsy mpy
* *
u r
T he
a b
in e
ĠĠ Ġ
m b
Ġ v
Ġ us
i g
æ¢¦æ¢¦ æ¢¦æ¢¦
Ġ y
) ,
en t
Ġ 4
Ġs olve
p r
b o
ro m
Ġp o
L et
i c
Ġc an
Ġa s
Ġe qu
Ġp ro
or t
e g
a y
i v
- -
in d
r t
mp ort
Ġ le
er s
Ġ 5
q rt
$ ,
b le
Ġ P
Ġ 0
m e
mb ol
bo x
Ġ on
Ġb e
c t
box ed
Ġin t
i l
Ġs p
e l
Ġ r
i f
Ġth is
Ġ de
Ġ A
Ġequ ation
u e
h t
) )
at e
i d
o m
s qrt
i m
ang le
s e
a g
Ġ 6
m at
Ġ E
c h
Ġv al
f rom
v er
mbol s
it h
Ġ C
Ġe x
Ġi mport
Ġb y
a ll
1 0
o f
e x
l es
Ġ /
p er
" ,
Ġ he
o ur
Ġh a
( "
} $
Ġw h
d ot
ra w
is t
( '
e q
i ll
W e
Ġus ing
æ¢¦æ¢¦æ¢¦æ¢¦ æ¢¦æ¢¦æ¢¦æ¢¦
ac h
) --
pr es
( (
Ġs e
ir c
f t
en d
es t
T h
Ġs t
ac t
un t
a d
' )
Ġt w
l y
Ġc on
Ġs i
a re
Ġw ith
t al
u b
ab el
y th
Ġha ve
Ġ it
ti ve
l o
} $.
Ġto tal
Ġsy mbols
ble m
) );
a k
c tion
Ġ1 0
Ġ I
Ġpro blem
Ġn e
ir st
Ġ B
an y
Ġint eg
Ġd o
Ġh as
)-- (
Ġ M
yth on
Ġ 8
Ġ D
Ġ 7
Ġtw o
Ġus e
Ġm any
t he
o re
f ine
Ġ H
an d
Ġs um
Ġe ach
s w
d raw
Ġ ro
Ġg et
ri g
a m
Ġ F
act or
ĠP ython
Ġf ind
t s
Ġ k
S o
t a
l abel
pr int
Ġa t
1 2
sw er
Ġt ri
Ġ The
ig it
Ġ &
^ {
Ġval ue
m a
ut e
Ġa ll
mp l
n g
olution s
Ġ [
k s
Ġpo int
u p
ĠĠĠĠ ĠĠĠ
Ġp er
Ġi f
c dot
Ġ N
Ġ 9
si on
W h
ot al
v al
c ul
ri x
mat h
ng th
Ġan swer
Ġd iv
al cul
Ġw ill
Wh at
Ġs o
\ ]
t otal
it y
Th us
Ġco mp
b f
p e
ti c
w e
p o
mpl if
Ġf rom
Ġf irst
Ġare a
re e
d i
p i
) $
. $
as e
r y
ig ht
l ine
ar s
en ce
(" $
f or
er m
ex t
Ġw he
rig ht
Ġ1 2
ang e
Ġ$ (
h o
ay s
Ġle t
Ġnumber s
d s
Ġs qu
u ch
c on
Ġ\ \
Ġp a
co s
it e
ic h
iv en
Ġ ra
i mport
$ ",
Ġpo si
m o
Ġne ed
alcul ate
e qu
Ġo r
i al
pres sion
n umber
Ġon e
Ġp l
s si
m on
Ġ code
un ction
, $
i es
p l
m es
s in
ĠE q
Ġs a
Ġtri angle
de n
math bf
Ġf actor
de d
Ġ z
2 0
æ¢¦æ¢¦æ¢¦æ¢¦æ¢¦æ¢¦æ¢¦æ¢¦ æ¢¦æ¢¦æ¢¦æ¢¦æ¢¦æ¢¦æ¢¦æ¢¦
Ġb o
c irc
Ġposi tive
T o
ar t
p h
Ġ R
\ [
ub s
ssi ble
d u
Ġp ri
Ġf unction
a x
Ġle ngth
Ġfor m
Ġwh ich
an ce
A B
p le
u g
mplif y
1 1
) ^
Ġth an
00 00
Ġf o
Ġd igit
eg in
z e
Ġ2 0
Ġsqu are
) :
Ġpo ssible
mat rix
if f
ag e
Ġthe re
{ \
ĠH ow
m ent
Ġthe n
1 5
ĠI f
Ġ1 00
ac k
s um
in ce
ol y
n um
Ġ What
b egin
d ay
Ġ qu
Ġm in
p p
Ġh ow
t o
Ġg iven
p ri
b ab
Ġl i
Ġan g
( -
Ġinteg er
as y
} .
ĠD e
y mbol
Ġ un
as t
bab il
ak e
Ġex pression
2 5
Ġd ist
Ġde fine
Ġth ree
Ġval ues
le ft
Ġm e
ur n
, -
9 9
Ġm at
) .
ul t
Ġinteg ers
ot s
s p
t ext
Ġc irc
the ta
c k
} \
ar g
ro w
p matrix
ĠĠĠĠ ĠĠĠĠ
Ġt erm
babil ity
Ġs h
ul ti
Ġc alculate
m all
ĠDe fine
Ġs he
_ {
Ġs qrt
Ġdiv is
Ġa l
) *
Ġs olution
an t
d er
s olutions
he r
on e
ti mes
Ġequation s
Ġ O
Ġl ine
] )
ĠS ymbol
s y
] ,
Ġ= =
$ $
n om
i e
Ġ T
ll ow
du ct
b ra
Ġb et
or s
Ġn ot
Ġ <
1 6
iff er
con d
Ġw r
Ġs uch
3 3
e ct
r int
equ ation
we en
f f
Ġr es
t urn
1 00
Ġ čĊ
Ġ #
Ġ1 5
o ver
ĠF ind
r es
Ġr ange
c es
Ġcomp ute
ig n
Ġpoint s
an s
Ġ j
Ġbet ween
po int
t er
Ġco st
) /
Ġh our
Ġpro bability
ar i
1 3
Ġ J
d d
Ġs olutions
n ow
in at
co st
p ro
Ġm ulti
Ġs mall
Ġ {
Ġequ al
Ġli bra
8 0
Ġre turn
id th
$ ?
un d
Ġsi de
1 4
the r
Ġn um
Ġco m
s olution
Ġre ma
Ġb ot
Ġsi mplify
i ce
Ġfo llow
Ġwhe re
Ġlibra ry
Ġc h
at er
us t
Ġd iffer
Ġl o
Ġang le
it s
Ġre al
Ġo ut
id es
Ġa mo
pres s
o k
Ġwh at
ft er
o d
he s
al ign
Ġamo unt
Ġb ase
or d
rac tion
u den
Ġ L
) **
e k
p a
s olve
^ \
g ra
5 0
Th is
6 0
Ġin c
3 0
o se
ation s
s ol
Ġcirc le
i p
g e
ic k
Ġpri me
u re
d igit
ti t
m in
Ġhe r
Ġpro duct
v ing
6 6
Ġy e
Ġh is
ari ab
Ġp oly
Ġa r
s ubs
) (
sy mbols
S ince
Ġc ho
ow n
2 4
ac e
B C
Ġs et
Ġ3 0
Ġv ariab
I n
f ore
Ġs ol
i ve
Ġwr ite
w idth
c y
Ġ "
Ġl arg
Ġm ore
Ġ G
Ġse cond
n e
( )
Ġ& =
Ġf e
im es
* }
Ġf raction
Ġg re
Ġdo es
t ri
Ġp rint
Ġwhe n
( [
Ġ up
æ¢¦æ¢¦æ¢¦æ¢¦æ¢¦æ¢¦æ¢¦æ¢¦æ¢¦æ¢¦æ¢¦æ¢¦æ¢¦æ¢¦æ¢¦æ¢¦ æ¢¦æ¢¦æ¢¦æ¢¦æ¢¦æ¢¦æ¢¦æ¢¦æ¢¦æ¢¦æ¢¦æ¢¦æ¢¦æ¢¦æ¢¦æ¢¦
The re
di us
n ot
de f
Ġdigit s
Ġdo ll
Ġint o
ind er
si ze
as s
e ff
co unt
Ġro ots
e m
Ġk now
Ġdist ance
Ġf our
ut es
ul ar
lo or
Ġcom mon
) $.
Ġd i
uden ts
** **
over line
pri ce
c le
Ġs ides
re d
I f
ers e
nom ial
ent s
Ġsa me
F ind
in ing
Ġ >
im um
Ġbot h
. .
o unt
et er
Ġ '
Ġv er
qu ad
ul d
Ġn p
f actor
ak es
Ġc ar
Ġt i
g s
v en
ti o
Ġd ay
1 7
' ,
s h
E q
in al
s o
{ (
on s
Ġt imes
Ġterm s
Ġy our
4 0
ation al
c ent
us e
Ġthe se
Ġdoll ars
Ġle ft
Ġg ra
1 8
ĠE x
are a
2 00
( \
i z
Ġw ays
e p
Ġthe m
Ġo ther
Ġex p
} }
lo g
Ġb u
es s
r ue
Ġd raw
Ġti me
Ġm uch
ti me
Ġpoly nomial
Ġvariab les
Ġhour s
al f
Ġw or
ol um
Ġ1 6
c a
am ount
cy cle
Ġ2 5
in om
Ġon ly
= (
in s
Ġit s
b l
line width
i ti
Ġ Let
Ġdiv i
o s
Ġfollow ing
Ġmat h
Ġ2 00
ve ct
o ple
Ġpa ir
Ġsmall est
Ġ We
olum e
Ġm ax
re n
Ġpa ra
} $,
val ue
Ġ1 1
Ġthe y
Ġ\ [
Ġra dius
mb in
r u
im al
g re
er e
C D
Ġn ow
Ġe q
\[ \
Ġp e
[ /
ir d
Ġ right
Ġde c
il es
ul a
ph a
Ġw as
et s
i ble
t an
a tive
Ġ5 0
re al
ag on
ar y
ver t
d ist
1 9
y s
i ed
o int
h our
Ġl ist
p en
f loor
} )
Ġres ult
tion s
ĠI n
Ġhe ight
Ġc ub
Ġ6 0
Ġ W
Ġ |
he ck
tri angle
all y
", (
7 5
ĠEx press
o mp
Ġ1 3
Ġmin utes
ch o
s f
ic i
Ġint er
Ġm ust
ubs tit
pa ir
00 0
ug ht
Ġun its
Ġco unt
ĠR ational
Ġthe ir
Ġst udents
) [
Ġp i
Ġde not
on g
o ks
$ \
}{ \
Ġor der
an ts
dot s
Ġ vect
le ngth
Ġcon st
Ġse qu
ar k
ug h
" )
Ġform ula
Ġc l
ĠS olve
ar d
Ġl ess
ti sf
b ol
ver age
Ġco ord
Ġm ake
Ġ2 4
Ġ4 0
e y
Ġco s
Ġrema inder
one y
t e
Ġa pp
al pha
Ġd id
Ġsa tisf
ri c
i on
Ġre pres
Ġh alf
eff ici
2 2
Ġqu ad
at ed
Ġlarg est
ar n
st em
Ġc ent
ĠC alculate
Ġal so
\ \
ment s
is h
Ġra tio
Ġwe ek
Ġle ast
Ġ( -
d iv
ĠĠĠĠ ĠĠĠĠĠĠĠ
t erm
Ġpe ople
Ġb l
a in
Ġre ct
Ġm oney
p t
i le
Ġt e
ag es
Ġbo x
Ġ1 4
N ow
omp ute
Ġa b
inat es
Ġt ake
iv es
Ġd ays
Ġdenot e
Ġ* *
Ġst art
Ġa d
Ġdiffer ent
Ġt ra
y e
Ġfactor s
Ġdivis ible
ĠH e
t en
at s
c d
Ġa fter
* (
Ġfe et
0000 0000
Ġre g
r ange
Ġo rig
at or
Ġ1 8
inat or
Ġcomp le
2 7
3 6
$", (
ver y
an e
Ġsequ ence
l ow
v es
Ġv olume
4 5
Ġs ho
a p
Ġm on
+ \
for m
A C
Ġmulti ple
ra y
Ġa dd
ra tic
a pp
ing s
ar row
Ġn o
Ġco mbin
F or
2 8
Ġs in
ang les
Ġan y
Ġgra ph
Ġqu es
ta in
Ġye ars
Ġso me
= \
ar es
Ġ %
ma x
Ġne w
gre es
bol a
ex pr
Ġse e
Ġd own
}. \]
erse ction
res ult
s ing
ĠP oint
Ġinc hes
9 0
bl ack
Ġb all
Ġpri ce
om et
Ġb ut
g et
Ġsy stem
c l
at es
circ le
Ġl abel
i ze
mplif ied
a mp
Ġver tic
mo d
si de
Ġrepres ent
t ing
. \]
} ,
ax is
im eter
Ġm o
Ġdiffer ence
Ġco effici
ar b
2 3
Ġdivi ded
Ġco l
^{ -
Ġg o
H ence
Ġh o
k e
Ġm iles
f ill
Ġtw ice
d o
le n
Ġc heck
d a
Ġ q
pri me
end s
Ġth ird
Ġo ver
Ġg ives
Ġe very
Ġcoord inates
dist ance
al s
di tion
Ġ en
^{ \
c m
Ġde f
ex pression
w o
in es
} }{
Ġmulti p
Ġde grees
Ġco r
ic es
Ġa verage
Ġro ot
s qu
we ek
Ġm id
Ġl ast
)* (
Ġme ans
ro ugh
Ġcent er
æ¢¦æ¢¦æ¢¦æ¢¦æ¢¦æ¢¦æ¢¦æ¢¦æ¢¦æ¢¦æ¢¦æ¢¦æ¢¦æ¢¦æ¢¦æ¢¦æ¢¦æ¢¦æ¢¦æ¢¦æ¢¦æ¢¦æ¢¦æ¢¦æ¢¦æ¢¦æ¢¦æ¢¦æ¢¦æ¢¦æ¢¦æ¢¦ æ¢¦æ¢¦æ¢¦æ¢¦æ¢¦æ¢¦æ¢¦æ¢¦æ¢¦æ¢¦æ¢¦æ¢¦æ¢¦æ¢¦æ¢¦æ¢¦æ¢¦æ¢¦æ¢¦æ¢¦æ¢¦æ¢¦æ¢¦æ¢¦æ¢¦æ¢¦æ¢¦æ¢¦æ¢¦æ¢¦æ¢¦æ¢¦
Ġ }
Ġre d
Ġ+ =
$ -
ll s
er o
point s
b e
Ġw ere
ĠS o
There fore
b y
Ġdec imal
Ġth rough
Ġde nom
** /
a me
c ri
**** **/
p s
, \
il d
Ġmon th
Ġrema ining
Ġ/ ******/
{ -
} .$
Ġang les
he re
f irst
` `
s s
ab le
inom ial
Ġmax imum
Ġques tion
Ġe ven
at est
l s
le ct
Ġquad ratic
Ġro w
et a
q quad
if t
) $,
arb les
Ġm od
ow er
Ġdivis ors
Ġp ie
Ġ K
c tive
re ct
at h
Ġw ant
Ġw o
val u
in ct
Ġc m
he n
Ġs ubstit
AB C
ra m
t y
at ing
t rac
) ]
Ġd is
am es
Ġ1 7
Ġex act
Ġcho ose
al ity
Ġl a
hour s
A r
un ds
as es
bo ve
H ow
ex p
Ġa bove
Ġpl ay
Ġo b
2 1
Ġbu y
U sing
re ate
c ks
/ (
Ġin v
Ġl ong
he d
Ġsqu ares
Ġgre atest
} }$.
in ed
c i
at rix
Ġvertic es
Ġmin imum
Ġneed s
text bf
Ġdist inct
er ator
Ġp ar
o u
Ġlength s
as ed
d ays
3 5
w ith
Ġdenom inator
ĠS he
3 2
The n
n d
or m
co l
Ġ100 0
4 4
ĠĠĠĠĠĠĠĠ ĠĠĠĠĠĠĠĠ
and om
A D
& =
u mpy
Ġwor k
Ġf ri
Ġfactor ial
Ġn on
Ġres pe
Ġ end
b ase
(( -
Ġwo uld
Ġ$ -
Ġex press
Ġp en
Ġs ince
Ġha d
Ġmat rix
Ġtri angles
w h
re ad
Ġm a
Ġye ar
lo pe
Ġo dd
mon ey
x y
} (
Ġ This
iti es
e ded
Ġorig inal
5 5
33 33
Ġcon vert
Ġt akes
F irst
Ġint ersection
et ers
Ġn umpy
Ġvect or
o p
Ġper imeter
Ġexact ly
ig h
Ġf ive
Ġsol ving
Ġs eg
Ġ1 9
ur ren
Ġ< =
d ir
b all
Ġo p
Ġs co
ol d
ĠP rint
ad s
il y
Ġf l
Ġsatisf y
pl ot
f ect
2 9
Ġe l
il s
a ir
ro ots
c al
) +
) =
val ues
i an
Ġcl ass
T rue
ar ray
Ġs ub
Ġr andom
Ġme as
ĠThe re
Ġbl ue
Ġcomple x
re ma
Ġo l
valu ate
ot her
a fter
1 80
iti al
Ġ1 80
o b
Ġlo g
-- --
cho ol
Ġbo oks
Ġa c
d frac
Ġc ase
tic k
Ġa x
row s
an k
Ġ V
squ are
ore m
se c
) }
Ġcar ds
factor s
ĠA B
p oly
Ġn ext
Ġrespe ctive
u de
up s
Ġcub e
a ve
Ġd ot
) .$
n s
7 0
Ġ3 6
Ġexp and
Ġin equ
Ġcombin ations
Ġsp e
66 66
b inom
Ġ9 0
" "
eg er
Ġp art
ĠThe n
an swer
get her
ac es
ĠC ompute
4 8
i mplify
Ġb inomial
eg a
is e
en er
Ġrect angle
Ġe le
w or
ok ies
2 6
ic ks
ĠA BC
Ġc alcul
y p
l a
he ight
o h
int er
Ġre l
si der
). .
e ks
Ġe arn
Ġrespective ly
it ten
l i
Ġst r
irc le
ater al
t ers
Ġm arbles
8 8
n er
Ġpara bola
.. .
ra int
Ġg ro
ol e
Ġco ll
t ex
( {
Ġpair s
Ġl ines
Ġa ge
b eta
Ġsubstit ute
mon th
d is
s es
Ġr un
m ber
Ġsho uld
ĠF or
7 7
100 0
Ġper fect
se cond
Ġsi x
Ġw ater
i de
Ġs er
Ġdivis or
Ġde term
trac t
Ġper cent
Ġp ay
) ),
6 4
d ing
Ġt en
n ing
p ar
ll el
Ġsh own
Ġfollow s
al se
Ġcoeffici ents
)) )
' t
ar ds
Ġpl ane
form ation
div is
urren t
eg ative
Ġle n
digit s
on t
Ġ( \
si mplified
ab c
e ll
Ġbo ught
99 99
un c
m m
Ġinc re
Ġ U
w r
Ġr est
st r
ĠM atrix
Ġ8 0
Ġa p
ig ure
i red
Ġb ag
Ġ$ |
AB CD
Ġ$ $
3 4
Ġ4 5
ot e
Ġreg ion
gra y
g on
o us
Ġg e
oh n
Ġmultip ly
in v
Ġsy mbol
it her
si mplify
Ġt ang
] {
m ut
Ġver tex
Ġ Y
Ġol d
Ġy ou
u ll
re ak
Ġh and
a v
app end
Ġinequ ality
b ot
Ġin formation
Ġ X
Ġsi mp
ut ing
omet ric
Ġdi agon
y l
g ree
we ight
} ,$
â Ģ
ĠE ach
sum e
l floor
= "
r floor
ers on
al k
i a
) \
Ġof f
ers ect
Ġapp les
Ġ To
Ġte am
om ain
Ġ2 7
pro duct
om ega
e ction
- \
Ġp ick
u tive
m s
t om
Ġgre en
Ġp ass
me tic
il ar
ĠB C
Ġvect ors
Ġcost s
Ġb ack
equ iv
el s
ang ular
Ġthe orem
Ġs chool
ith metic
Ġpa int
sp ent
in ate
ri d
a ded
Ġdivi de
ra tio
Ġse lect
Ġmid point
ca use
el y
ic t
Ġcon ta
st udents
} \]
Ġsmall er
per cent
Ġgre ater
mp t
Ġseg ment
ĠC on
) }\
ro ss
Ġs lope
Ġo ur
ak ing
ip s
3 7
Ġmeas ure
en ti
12 0
mb da
ve d
co r
Ġt ick
im ilar
9 6
Ġpara llel
ri es
Ġp re
sec utive
t ra
/ /
Ġpie ces
ye ar
Ġpo unds
C ompute
n ter
Ġ2 1
l ist
Ġit er
b ed
ĠA C
right arrow
Ġto gether
Ġs l
c c
bo oks
t wo
Ġar ithmetic
Ġg cd
= -
pro b
mpl ies
5 7
Ġbe low
Ġg ener
Ġint ersect
Ġz ero
Ġwh o
)/ (
Ġt ry
ut s
Ġpro per
tion al
] [
al es
Ġ12 0
s et
number s
Ġf igure
h s
Ġcon sider
pl ay
sh ift
Ġcol or
Ġtang ent
ro und
Ġm ed
if y
in k
ir ls
p mod
yth ag
Ġcon secutive
ĠS ince
Ġtra ve
sol d
} }$
G iven
Ġme an
ce pt
Ġst ore
Ġball s
ne w
\ %
Ġsp ent
Ġbox es
g cd
Ġro ll
} ^
pl ace
Ġma de
Ġar range
co eff
wor k
Ġb reak
Ġc reate
ar c
ip se
Ġsol d
15 0
Ġpl ot
Ġwh ose
** (
Ġwr itten
$ :
3 8
Ġre ad
f er
Ġe d
pl t
Ġus ed
Ġun it
4 9
ol ving
Ġp ages
Ġb ro
c hes
Ġwh ile
den om
Ġsh ow
s er
po se
Ġorder ed
Ġ `
p end
f o
co mes
Ġd ir
ar est
) }{
Ġel se
| \
i or
Ġ/ /
Ġd omain
Ġp ower
Ġspe ed
Ġdef ined
Ġ> =
po s
Ġinc l
un ces
3 9
Ġ2 8
Ġco okies
ic al
ĠO n
n a
Ġnum erator
Ġf loor
p on
g ru
amp le
c re
ang es
Ġf inal
w ay
Ġcon dition
Ġi den
d y
Ġne arest
s pe
Ġas sume
), $
Ġt r
Ġlet ters
mut ations
Ġd on
Ġg all
Ġinter val
Ġa g
d iff
æ¢¦æ¢¦æ¢¦æ¢¦æ¢¦æ¢¦æ¢¦æ¢¦æ¢¦æ¢¦æ¢¦æ¢¦æ¢¦æ¢¦æ¢¦æ¢¦æ¢¦æ¢¦æ¢¦æ¢¦æ¢¦æ¢¦æ¢¦æ¢¦æ¢¦æ¢¦æ¢¦æ¢¦æ¢¦æ¢¦æ¢¦æ¢¦æ¢¦æ¢¦æ¢¦æ¢¦æ¢¦æ¢¦æ¢¦æ¢¦æ¢¦æ¢¦æ¢¦æ¢¦æ¢¦æ¢¦æ¢¦æ¢¦æ¢¦æ¢¦æ¢¦æ¢¦æ¢¦æ¢¦æ¢¦æ¢¦æ¢¦æ¢¦æ¢¦æ¢¦æ¢¦æ¢¦æ¢¦æ¢¦ æ¢¦æ¢¦æ¢¦æ¢¦æ¢¦æ¢¦æ¢¦æ¢¦æ¢¦æ¢¦æ¢¦æ¢¦æ¢¦æ¢¦æ¢¦æ¢¦æ¢¦æ¢¦æ¢¦æ¢¦æ¢¦æ¢¦æ¢¦æ¢¦æ¢¦æ¢¦æ¢¦æ¢¦æ¢¦æ¢¦æ¢¦æ¢¦æ¢¦æ¢¦æ¢¦æ¢¦æ¢¦æ¢¦æ¢¦æ¢¦æ¢¦æ¢¦æ¢¦æ¢¦æ¢¦æ¢¦æ¢¦æ¢¦æ¢¦æ¢¦æ¢¦æ¢¦æ¢¦æ¢¦æ¢¦æ¢¦æ¢¦æ¢¦æ¢¦æ¢¦æ¢¦æ¢¦æ¢¦æ¢¦
Ġf act
ne eded
Ġst ep
b b
ag ram
Ġsatisf ies
Ġ[ ]
Ġlo ok
el f
b s
p m
Ġde gree
6 5
Ġsi mplified
Ġqu art
Ġ3 5
i el
u it
v i
ac ks
ce il
w ays
as k
ĠP ythag
Ġj ust
Ġwe ight
Ġbe cause
wr ite
r ate
un it
Ġf ill
Ġc lo
Ġre qu
eq n
d es
tic al
Ġbe fore
up pose
Ġser ies
6 7
Ġw idth
)--( -
gra ph
Ġc all
Ġvariab le
yp ot
Ġconst raint
Ġget s
rema ining
Ġexpress ed
t les
ĠA l
Ġre ce
gra f
Ġ3 2
mber s
Ġp ack
ra dius
ir ts
co ord
Ġcoeffici ent
Ġconta ins
pend ic
' ll
R ight
Ġc urrent
con ds
le d
f ace
iz ation
Ġdi am
Ġ4 8
f it
s mall
ĠN umber
n y
ild ren
ad d
Ġe g
Ġconst ant
ter n
ll ipse
Ġw ants
E F
ul ts
Ġcon tain
).. (
Ġcub ic
t eger
[ -
cdot s
Ġreg ular
Ġinv erse
Ġcon gru
Ġ2 3
a ra
Ġlarg er
Ġ$\ $
Ġfri ends
Ġcom m
Ġe at
Ġcirc les
t le
pendic ular
le q
ont size
min utes
e arn
Ġwh ite
ore an
factor ial
`` `
cent er
Ġ u
Ġcar d
= '
co mp
Ġwe eks
Ġmod ul
Ġw ay
ypot en
ro om
Ġdi agram
de l
Ġre f
u mp
cri bed
p or
C ircle
w here
ca le
ypoten use
} +\
Ġsi ze
Ġwh ole
o es
j ect
Ġorig in
ve c
Ġsh aded
ft y
Ġin itial
Ġrect angular
4 7
f e
Ġcor rect
Ġge ometric
Ġp ut
Ġd es
Ġro und
Ġre pe
in fty
iz z
co mbin
ol s
Ġs ur
le t
at ur
Ġt an
Ġhe x
Ġc yl
Ġp h
im ize
Ġex ample
Ġe ither
Ġco uld
air s
Ġsp end
Ġst and
F rom
+ (
Ġho use
Ġmultip les
en s
m ark
ti l
B D
over rightarrow
ĠP oly
b il
ab s
o id
Ġcon e
Ġan other
Right arrow
n o
Ġ .
S ymbol
ur ing
Ġf in
ĠC h
ro ot
Ġco ins
! =
f unc
Ġob tain
i qu
Ġc he
[ ]
il ateral
i x
gra m
Ġho me
Ġf ar
Ġr ate
at ch
Ġp ython
m eters
} ^{
l dots
c ils
Ġcon t
Ġb lo
Ġper pendicular
Ġli ke
Ġb ased
Ġe llipse
uden t
spe ed
Ġwor ds
' ),
le x
Ġmulti pl
ces s
Ġ- \
Ġthe ta
H ere
Ġh im
Ġ Thus
} =
8 7
Ġab out
Ġto p
e val
Ġd ice
iv a
Ġele ments
d iffer
s a
Ġm akes
ative ly
w ise
v olume
5 4
Ġbl ack
u c
s co
Ġ15 0
ĠPythag orean
cho ose
Ġe valuate
Ġeg gs
e at
Ġw in
Ġpri mes
Ġre mo
en ces
Ġfunction s
n p
S E
] .
4 2
3 00
u ble
Ġw alk
Ġg ame
in ary
5 6
g n
res pon
Ġ !=
Ġdiam eter
Ġi m
Ġlarg e
Ġequ ilateral
Ġn egative
dis count
a ult
R ational
ĠCon vert
Ġg ot
Ġhex agon
ti es
Ġp erson
z ero
} +
s ist
S implify
8 9
pe ople
p y
divis ors
A n
Ġp ow
Ġse par
ĠS um
ĠN ow
Ġapp ro
Ġcoll ect
Ġc ases
Ġsub tract
row n
Ġf aces
] ])
} ")
Ġ2 2
N E
th ird
t rue
Ġg irls
ye ars
i k
al ind
Ġbo ok
alind rom
Ġare as
Ġp izz
m er
omet ry
pe ct
bl ue
N W
Ġ5 00
Ġdeterm ine
iqu e
Ġinter est
Ġin s
Ġme mbers
ĠG iven
re a
Ġdis count
s en
7 2
Ġb ill
W hen
v ers
ĠC reate
ues day
len t
Ġtri p
Ġse conds
g er
Ġ2 6
di tions
ĠĠĠĠĠĠĠĠ ĠĠĠĠĠĠĠ
4 6
8 1
Ġrece ive
r and
Ġdo gs
I t
Ġro t
Ġsp here
Ġre write
D E
f ri
Ġ+ +
e ach
i re
Ġ ...
3 1
frac tion
m y
iv ative
Ġf ish
Ġfo und
w n
. )
co me
Ġsco re
Ġab s
m ulti
ĠR e
ur es
Ġcirc um
rac e
Ġc ut
Ġse ll
g es
Ġd er
Ġ7 0
Ġ4 00
u al
Ġplay ers
Ġcho sen
ed s
) ^{
Ġform ed
n orm
unit size
Ġ9 9
8 5
ault pen
f our
ĠS implify
Ġ$( -
pi e
app les
eval f
re es
f in
y per
ar ts
j ection
Ġtr ans
differ ence
Ġ\[ \
to p
Ġequ iva
c ed
Ġh ypotenuse
il k
}$ ?
Ġstart ing
ĠP ro
Ġfe w
to ols
tit y
Ġra di
ĠA r
Ġ3 00
pe z
Ġc enti
p ages
Ġg ames
p es
c ar
)** (
or ies
Ġd r
fer ence
Ar rows
Ġc e
Ġcomp ut
Ġline ar
Ġgall ons
o ti
P oint
Ġt est
Ġpar ti
ving s
h alf
_ _
co m
ĠS y
Ġrel atively
ur ch
Ġth ose
Ġ\ ]
Ġapp ly
ĠJ ohn
ssi bil
$$ \
Ġfraction s
ĠL ine
l arg
A E
Ġne eded
Ġmed ian
Ġequiva lent
Ġlet ter
Ġfour th
yper bola
ĠT rue
Ġdraw n
( ))
Ġcor respon
ĠE qu
is ect
Ġdiagon al
Ġ Z
11 11
Ġbu ys
r is
ĠB ob
Ġp y
an ded
Ġfri end
int ersection
S uppose
ph i
R e
Ġm ar
ĠC o
s l
con st
Ġm eters
ĠI t
}$ $
([ [
Ġs ing
Ġre c
Ġmodul o
b ag
ĠC D
Ġc ents
Ġo unces
pez oid
ĠW hen
Ġsy m
Ġbo ys
st ep
}\ |
Ġ ent
7 6
p art
Ġsl ices
ĠC heck
Ġbe ing
Ġpa per
as on
' :
Ġexp on
c ub
ĠG et
00000000 0000
f l
p ath
Ġgro up
B y
im it
Ġsum m
k now
12 5
h as
Ġwith out
Ġpoly gon
h line
Ġ7 5
iz ed
ubstit uting
Ġpa id
Ġl it
un ded
m id
Ġ Th
8 4
( .
P Q
ram id
e ver
g y
Ġcon ditions
Ġcenti meters
pp ing
Ġg ive
S olving
at her
sy mpy
ĠA n
as hed
E x
Ġax is
)$ ?
---- ----
st art
p ay
ak en
Ġad dition
amp s
col ate
Ġb us
are n
Ġco mb
\% $
ĠM on
E nter
ff e
Ġdo uble
Ġcho ices
Ġ ri
or y
Ġt rue
b u
â Ķ
c and
Ġper mutations
fill draw
vi ous
Ġmin ute
Ġ6 4
Ġcol um
Ġc re
Ġbro ther
ĠS et
Ġit em
n es
Ġins cribed
ĠA fter
d le
pro bability
ru ct
wh ite
l it
Ġth us
c imal
ĠIn teger
Ġra tional
o ons
combin ations
sol n
num erator
ur s
Ġar c
Ġcyl inder
Ġinter ior
Ġsh ort
Ġrepresent ation
low ers
a ves
N ote
sp ace
f ish
Ġra d
Ġ4 2
inter cept
ĠThere fore
Ġsing le
S W
,\ ,\
Ġstand ard
pa ra
ĠA nd
imilar ly
a il
Ġsur face
Ġpl ace
r m
th ree
pl us
Ġro om
t ed
Ġcongru ent
as h
3333 3333
99 9
Ġg ave
ĠN E
denom inator
z z
Ġget ting
4 3
ĠS W
ce les
A s
Ġo per
Ġd ri
5 2
Ġk il
cri min
por tion
y pe
ssibil ities
d own
bo ught
ri l
or ig
w s
crimin ant
Ġrandom ly
er os
Ġcan s
Ġc ars
ed nes
co t
Ġdo g
int eger
tic ks
Ġcub es
er y
ca p
Ġ$\ {
am ma
c akes
âĶ Ģ
Ġe mp
ball s
p ack
Ġtra pezoid
Ġt rig
Ġrow s
c lo
Ġst ate
ab les
Ġpy ramid
read y
exp and
Ġ7 2
Ġexpression s
Ġcoord inate
in ner
Ġiter tools
g eq
Ġd ie
Ġin side
Ġch ildren
ĠC ar
u ff
id s
os celes
Ġat e
i mplies
si ve
and w
ednes day
A nd
du ce
y le
f ontsize
iel d
s cale
i ke
Ġb x
c us
Ġm ark
pect ed
ot h
per imeter
Ġ2 9
Ġf ull
Ġh or
: ",
if th
Ġpl an
id ing
be fore
Ġop tions
T icks
Ġ3 7
Ġd iff
Ġis osceles
Ġst udent
po si
Ġon es
Ġselect ed
Ġla mbda
Ġs w
di es
Ġd a
Ġye llow
al ary
5 00
us h
Ġ" ""
Ġp alindrom
Ġv is
4 00
T wo
les t
in ally
Ġce il
Ġh yperbola
Ġ- -
w ater
r on
Ġ5 2
ir t
A l
Ġex ist
ĠA D
s he
Ġfactor ization
es e
10 1
Ġcont in
ri angle
Ġsymbol ic
Ġ( (
âĢ Ļ
3 60
Ġsimp lest
n egative
Ġc ups
Ġdiv ides
Ġdiagon als
Ġun know
g iven
de x
Ġc ross
pos ite
ask et
po ssible
Ġc le
a verage
Ġproper ty
eat en
s ed
un ch
ac ed
we eks
on d
} )^
Ġfo ot
B E
r al
ve l
Ġf ace
at a
. \
Ġm an
8 6
rema inder
} =\
Ġwe igh
om en
Ġas y
Ġto ok
h and
Ġro lls
inv erse
Ġt able
, .
C on
o gram
Ġmonth s
Ġs imilar
Ġpre vious
Ġde l
r ang
Ġpen cils
Ġle gs
Ġbag s
Ġi mplies
oti ent
) -
Ġm et
in ch
Ġc a
} }{\
Ġquad ril
on es
}{ (
vect or
as ing
ti ce
Ġhe l
Ġstr ing
ĠS E
an an
m arbles
Ġco in
6666 6666
Ġf am
us ed
Ġpass es
Ġon ce
Ġb isect
Ġb ir
' '
ust om
Ġd uring
00000000 00000000
j ac
Ġpl t
Ġp res
} -
âĶĢ âĶĢ
la mbda
Ġpow ers
ell y
Ġs it
l ast
Ġpizz a
n it
Ġse m
Ġch ange
Ġtri ple
Ġl cm
Ġt all
si gn
Ġhe ads
equation s
bo ok
ĠF alse
Ġpar ts
b c
Ġch airs
Ġsepar ated
e ven
en g
âĢ ¦
Ġse lls
Ġn orm
Ġf lo
ĠMon day
ĠE nter
4 1
Ġt aking
Ġfo od
g o
Ġpo ssibilities
den t
Ġin fin
an ces
Ġ ,
Ġal ready
jac ent
r un
ĠT otal
Ġa round
Ġj o
qu es
Ġequal s
t on
ĠF irst
Ġp ath
Ġa way
9 7
A P
de t
Ġed ge
pri mes
z en
Ġasy mpt
en sion
Ġm ag
Ġpercent age
Ġal tit
align ed
ug g
Ġcon sist
ĠR o
sco re
Ġk e
Ġf ru
it ing
Ġed ges
Ġs ay
Ġag ain
Ġop posite
Ġsp ends
Ġposi tion
s on
ĠThe y
ĠA dd
Ġ4 9
Ġp at
ction s
S ubstituting
ĠS t
Ġcombin ed
in a
Ġpro b
imal s
s ub
Ġm ilk
Ġarrange ments
pi es
Ġnot e
Ġs ubs
ffe e
Ġpro jection
Ġfactor int
Ġo cc
Ġ3 60
c ases
Ġout comes
b x
ac ity
sum ing
Ġpolynomial s
ri b
Ġmo st
] ))
ĠU se
c he
pair s
Ġcan dy
Ġcan not
Ġx y
ge bra
Ġcan dies
co mb
Ġun ique
M atrix
l ass
Ġla w
} _
Ġcomm as
Ġun der
Ġgener ate
Ġ :
P y
im ension
7 3
i od
Ġder ivative
Ġtick ets
mp ify
c up
pl ane
Ġs up
5 8
c ards
in itial
Ġso cks
box es
] --
i er
Ġb ow
ma le
p re
Ġval id
Ġt ree
Ġh old
Ġitem s
p ly
Ġor anges
Ġstep s
ric al
ine qu
quad ratic
Ġbu ild
ĠH ence
Ġquadril ateral
Ġtrave l
ti ll
Ġseg ments
Ġc er
min ute
f inal
9 8
low er
9999 9999
v ie
Ġpart y
m iles
col or
wh ile
ict ure
at ely
ti re
ar ing
Ġquart er
li b
w ard
Ġc al
ĠO ne
Ġconstraint s
ĠĠĠĠ Ġ
Ġm en
ro t
Ġus es
bot tom
Ġadd ing
9 2
Ġhor iz
co okies
Ġwor ks
Ġst o
ĠM r
Ġcho colate
b or
}\ \
Ġb r
ber ries
E valuate
Ġc at
Ar row
Ġe ats
9 5
in ant
Ġcomple te
Ġques tions
Ġh ol
gre en
Ġ3 3
an sion
j o
ic ation
Ġpro fit
Ġwor th
Ġad ded
Ġe as
Ġrequ ired
squ ares
" :
ĠEqu ation
square d
Ġun til
Ġc up
). \]
a h
Ġdivis ion
b ill
et erm
F alse
1 99
Ġmet ho
he ma
Ġreceive d
", (-
sl ices
"" "
Ġt urn
1 10
Ġgo ing
s elf
Ġrad ical
24 0
Ġb egin
S olve
Ġg ues
Ġearn ed
Ġs ist
us es
6 3
Ġquart ers
Ġsumm ation
Ġcho os
ĠH er
Ġpl ant
)) *
o ugh
O n
sol ute
Ġe v
l cm
ves et
Ġvertic al
const raint
atur day
s q
sw ers
Ġin st
wh ich
ore d
Ġme et
Ġco ver
ĠJ o
Ġpie ce
Ġcombin ation
) \]
Ġg rid
Ġbot tles
ĠA s
g amma
Ġrepres ents
mm et
ĠA t
200 8
Ġz eros
i tion
tick ers
ĠP l
Ġnum er
hed ron
Ġc ur
u ding
Ġre place
Ġbe en
eg gs
Ġsh irts
Ġ1 0000
Ġcer tain
Ġ[ (
Ġe ight
pro d
coord inate
eterm ine
b ro
Ġh igh
on tal
n eq
Ġlook ing
rac k
Ġp ol
ac her
ar den
or ds
re turn
Ġconst ants
Ġad jacent
H S
math rm
ra tion
Ġm y
ĠN W
Ġsh are
Ġp ark
f ig
mp er
Ġas k
us ive
Ġmin imize
Ġch arg
Ġdi rect
Ġa ble
de cimal
ubstit ute
Ġradi ans
ir es
c s
re ction
Ġmid dle
Ġ& \
math bb
i um
Ġ$ [
Ġnot ation
.$ $
Ġb ig
: //
? $
O ne
Ġresult ing
p erson
p ower
ent agon
Ġcolum n
Ġcorrespon ding
Ġsp ace
re qu
X Y
s lope
25 0
re place
earn ings
i b
iv ing
æ¢¦æ¢¦æ¢¦æ¢¦æ¢¦æ¢¦æ¢¦æ¢¦æ¢¦æ¢¦æ¢¦æ¢¦æ¢¦æ¢¦æ¢¦æ¢¦æ¢¦æ¢¦æ¢¦æ¢¦æ¢¦æ¢¦æ¢¦æ¢¦æ¢¦æ¢¦æ¢¦æ¢¦æ¢¦æ¢¦æ¢¦æ¢¦æ¢¦æ¢¦æ¢¦æ¢¦æ¢¦æ¢¦æ¢¦æ¢¦æ¢¦æ¢¦æ¢¦æ¢¦æ¢¦æ¢¦æ¢¦æ¢¦æ¢¦æ¢¦æ¢¦æ¢¦æ¢¦æ¢¦æ¢¦æ¢¦æ¢¦æ¢¦æ¢¦æ¢¦æ¢¦æ¢¦æ¢¦æ¢¦æ¢¦æ¢¦æ¢¦æ¢¦æ¢¦æ¢¦æ¢¦æ¢¦æ¢¦æ¢¦æ¢¦æ¢¦æ¢¦æ¢¦æ¢¦æ¢¦æ¢¦æ¢¦æ¢¦æ¢¦æ¢¦æ¢¦æ¢¦æ¢¦æ¢¦æ¢¦æ¢¦æ¢¦æ¢¦æ¢¦æ¢¦æ¢¦æ¢¦æ¢¦æ¢¦æ¢¦æ¢¦æ¢¦æ¢¦æ¢¦æ¢¦æ¢¦æ¢¦æ¢¦æ¢¦æ¢¦æ¢¦æ¢¦æ¢¦æ¢¦æ¢¦æ¢¦æ¢¦æ¢¦æ¢¦æ¢¦æ¢¦æ¢¦æ¢¦æ¢¦æ¢¦æ¢¦æ¢¦æ¢¦ æ¢¦æ¢¦æ¢¦æ¢¦æ¢¦æ¢¦æ¢¦æ¢¦æ¢¦æ¢¦æ¢¦æ¢¦æ¢¦æ¢¦æ¢¦æ¢¦æ¢¦æ¢¦æ¢¦æ¢¦æ¢¦æ¢¦æ¢¦æ¢¦æ¢¦æ¢¦æ¢¦æ¢¦æ¢¦æ¢¦æ¢¦æ¢¦æ¢¦æ¢¦æ¢¦æ¢¦æ¢¦æ¢¦æ¢¦æ¢¦æ¢¦æ¢¦æ¢¦æ¢¦æ¢¦æ¢¦æ¢¦æ¢¦æ¢¦æ¢¦æ¢¦æ¢¦æ¢¦æ¢¦æ¢¦æ¢¦æ¢¦æ¢¦æ¢¦æ¢¦æ¢¦æ¢¦æ¢¦æ¢¦æ¢¦æ¢¦æ¢¦æ¢¦æ¢¦æ¢¦æ¢¦æ¢¦æ¢¦æ¢¦æ¢¦æ¢¦æ¢¦æ¢¦æ¢¦æ¢¦æ¢¦æ¢¦æ¢¦æ¢¦æ¢¦æ¢¦æ¢¦æ¢¦æ¢¦æ¢¦æ¢¦æ¢¦æ¢¦æ¢¦æ¢¦æ¢¦æ¢¦æ¢¦æ¢¦æ¢¦æ¢¦æ¢¦æ¢¦æ¢¦æ¢¦æ¢¦æ¢¦æ¢¦æ¢¦æ¢¦æ¢¦æ¢¦æ¢¦æ¢¦æ¢¦æ¢¦æ¢¦æ¢¦æ¢¦æ¢¦æ¢¦æ¢¦æ¢¦æ¢¦æ¢¦æ¢¦æ¢¦æ¢¦
percent age
anan as
-- (
n ame
Ġrun s
ven ue
Ġs ign
d ers
Ġse ven
Ġcoll ection
Ġen tire
Ġsho es
Ġal ways
Ġex pected
] ]
Ġt rees
Ġdis criminant
J ohn
coeff s
p and
Ġd ro
o un
t ps
m ed
Ġfam ily
Ġele ment
Ġconst ruct
pp ed
0 1
Ġ Using
eg ment
t r
Ġs k
co effici
Ġgo es
babil ities
Ġ200 0
ĠA ll
Ġcos ine
Ġke ep
Ġp urch
Ġfind ing
Ġproper ties
Ġon to
m ore
Ġpo p
Ġdist rib
Ġrepresent ed
Ġt ank
e le
) !
200 7
Ġaltit ude
ĠJ ames
l hs
cl ass
i ons
ot es
ĠS ubstitute
min us
ac hes
ul ation
ap s
ĠC ircle
a pe
Ġspe c
Ġl ow
" .
r hs
Ġfew er
Ġra in
Ġpl ates
Ġhe re
Ġout put
mon g
plot lib
Ġ3 1
Ġk ey
Ġincre ase
u ally
do ll
Ġres ults
Ġ5 5
ar range
sh irts
Ġfo cus
ĠS am
) }$.
o dd
poly nomial
m Py
ĠT icks
ith m
Ġsy mmet
ĠT uesday
Ġtrig on
c urrent
Ġdeterm inant
Ġfo ci
ti m
Ġbot tom
Ġ& &
re w
ĠPro bability
Ġch ick
ĠN one
Ġaddition al
pie ces
pa int
Ġst amps
Ġo ct
Ġ[ -
at ure
s est
)) );
Ġab solute
Ġt yp
, \]
S imilarly
Ġ5 6
Ġha ving
ĠF raction
cl ude
Ġref lect
o per
g all
Ġfin ish
Ġparallel ogram
), (
Ġw omen
ĠM ar
d ashed
' re
A t
ĠSy mPy
Ġl ies
er t
il ter
val s
Ġa v
Ġmetho d
du ced
y top
ug ar
## ##
urs day
Ġ$ $\
ugg ing
arrow size
Ġin put
]) **
Ġt ype
$ (
m is
M N
pa id
Ġmat plotlib
Ġb asket
Ġ3 4
def aultpen
Ġp age
Ġle aves
ma de
si ded
Ġs till
p ow
fo ot
int eg
Ġsco red
Ġpl ug
28 57
Ġ8 1
Ġsolve d
Ġim ag
Ġ3 9
200 0
trac ting
ĠA rea
Ġex pr
a ils
)) ))
j e
) ])
c ars
Ġal ong
Ġten th
Ġs c
p ic
7 8
Ġexp ansion
Ġli e
Ġl ower
o o
Ġs andw
Ġar ri
Ġp entagon
Ġre ci
Ġmat hema
Ġintersect s
Ġpat tern
Ġsp lit
" >
arg s
nit ude
Ġw all
term s
6 9
num s
Ġdiv iding
he x
Ġb or
m eter
Ġw ent
ĠP a
in cre
O B
exp anded
Ġhoriz ontal
Ġdef in
Ġequ ally
Ġall ow
sin es
Ġf air
Ġf ifth
Ġex ten
or ning
Ġsist er
Ġmeas ures
ick els
mb d
Ġlit ers
6 8
ĠB ill
Ġincl usive
Ġpro babilities
sh ow
pro fit
Ġ6 00
0 5
el se
Ġset s
Ġas sign
Ġal gebra
Ġn or
Ġap pe
f unction
n ies
N ext
inequ ality
5 1
)* "
Ġi mp
up le
D C
al ities
ĠĠĠĠĠĠĠĠĠĠĠĠĠĠĠĠ ĠĠĠĠĠĠĠĠĠĠĠĠĠĠĠĠ
Ġd one
ort ed
Ġd imension
math cal
et h
um er
Ġs ure
l in
Ġex tra
Ġth ink
do gs
Ġsy mpify
Ġsco res
di am
u le
qu art
)) /
Ġnorm al
art es
l im
Ġrec ur
Ġa mong
un day
Ġ6 5
st ar
Ġj ar
coord inates
Ġsimp ly
Ġhel p
Ġst arts
Ġiter ate
en ny
Ġcol ors
ar ry
Ġt ax
Ġcircum ference
si des
Ġproblem s
Ġg arden
Ġblo ck
Ġi ce
Ġbow l
co ll
pi zz
per mutations
er ry
Ġf r
re g
be ans
M P
Ġp aren
x max
7 9
Ġpl us
se qu
= (-
ĠH is
im ag
artes ian
Ġper iod
c an
Ġdes ired
Ġsol veset
E ach
mbd ify
Ġs ales
! $
Ġap art
v in
* (-
Ġqu otient
Ġco ffee
ic hes
r ist
Ġappro ach
Ġblo cks
Ġup per
Ġbe comes
j ug
al ks
Ġreturn s
Ġre ach
m an
Ġt aken
F inally
in ks
Ġsum s
d on
( ).
Ġal pha
Ġ$( \
Ġpl aced
Ġde ck
( *
sy stem
Ġm aking
Ġst ri
Ġco ok
Ġt iles
Ġm ile
Ġc ustom
ulti ply
ut ed
Ġsi mplif
Ġf lowers
ra d
Ġobtain ed
Ġgener al
ix ed
l ate
le ction
Ġgo al
Ġcal ories
\ }$
Ġper form
Ġs uc
("$ \
er ed
Ġan imals
ind ers
Ġob ject
ĠL a
Ġdel iv
Ġ ve
Ġiden tity
it er
Ġche ese
Ġlow est
Ġclo sest
b ar
lo ye
b inomial
ray ons
b ig
.. ..
ct or
tic es
Ġmid points
5 3
Ġcirc ular
c is
ĠS olving
} }.
Ġpl ants
four th
Ġen ough
ur ther
ail able
Ġw ord
Ġb c
small est
Ġj elly
6 00
g res
Ġh ig
month s
ĠA bs
mper ature
)) .
Ġli k
Ġis prime
Ġo pen
Ġs u
| ^
Ġbo und
Ġ2 50
b r
en se
Ġball oons
Ġle g
Ġ10 1
posi tive
16 0
S t
num er
c ross
Ġb rown
Ġinfin ite
ĠA M
5 9
s ave
Ġ5 4
Ġm ay
re l
Ġw on
Ġdi rection
ht tps
; }
arc sin
Ġunknow n
l ceil
f alse
\[ (
r ceil
m ar
an na
Ġd imes
g ro
Ġincre asing
)$ ",
P A
ĠM ary
Ġop tion
Ġac count
ho use
Ġle mon
C M
r ho
angle mark
v is
room s
Ġceil ing
M y
Ġmonth ly
. ,
Ġdoes n
Ġsa le
a de
Ġdef aultpen
b matrix
7 4
Ġo w
g irls
14 2857
' ]
le ep
earn ed
Ġm is
Ġp acks
$", (-
| $
Ġwe ll
x right
ll i
ast er
Ticks Ar
bag s
Ġnon zero
Ġdimension s
N umber
Ġpick ed
ĠE valuate
i am
Wh ich
Ġte acher
th o
l ight
Ġinv est
str ing
ara h
Ġcollect ed
Ġdo zen
}.$ $
Ġsimp le
fri ends
Ġmo del
sol vers
il t
gres sion
cul ar
Ġremo ve
ĠA lex
on y
)) **
Ġg old
w alk
Ġtra in
Ġdefin ition
Ġso da
pl it
Ġ* =
me an
Ġtrave led
v matrix
Ġimag inary
Ġiden tical
th at
ch ildren
b ack
Ġgro ups
Ġemp ty
ĠĠĠĠ ĠĠ
Ġiden ti
Ġc ats
to gether
f ive
Ġl imit
Ġen umer
bo und
A A
e f
ĠM ark
& \
Ġparti cular
Ġ\ {
Ġg as
Q R
i ded
Ġt ru
Ġcre am
() [
Ġf ontsize
p ts
Ġs on
Ġ3 8
b lo
ĠAr rows
Ġ ",
Ġst ra
P l
ch ange
Ġincre ased
with out
Ġdist ances
do g
Ġ1 99
Ġcalcul ated
Ġp icture
co mm
ĠW ednesday
Ġpalindrom e
si mp
ĠM ax
) =\
Ġmin us
Ġfru it
it te
ext end
Ġdec re
Ġan swers
C A
ar l
r ank
ri day
oper ator
ĠThe orem
at an
Ġr ule
Ġsa ve
Ġbot tle
Ġar ray
Ġr ho
Ġs n
ur ple
r x
ĠA ng
14 4
Ġsequ ences
Ġb read
xy z
Ġl and
Ġbisect or
Ġto mat
Ġ\ ,
t ab
Ġchoos ing
Ġne igh
Ġmar ble
ite ms
O C
Ġy ards
r ite
' $
inal g
Ġdec ides
r or
Ġbut ter
ques tion
Ġremo ved
Ġhe n
14 0
b p
Ġ4 1
Ġd ata
A fter
he l
Ġdoll ar
Ġb and
) {
ĠT om
jug ate
h a
Ġap ple
Ġpol ar
s alary
Ġpro gression
Ġstra ight
Ġf unc
u ice
orig inal
Ġh ot
Ġposi tions
equ als
How ever
! }{
s ho
atur al
e ad
Ġ6 3
ne y
multi ple
an n
Ġlo op
A rea
T riangle
Ġoper ation
Ġ4 3
bo ys
at oes
Ġk ids
Ġrel ation
Ġcle an
i o
Ġhol ds
qu are
Ġel if
Ġsho p
gra ms
Ġb ananas
t d
Ġc ap
Ġh und
Ġpen s
L abel
Ġsh ift
ĠC ount
200 4
Ġbir th
Ġb ur
norm al
Ex press
fe et
dis play
8 3
m ag
)) :
9 1
an tity
int s
D e
A M
Ġn ame
on ds
Al so
re f
tab ular
Ġf ro
Ġtick et
du ction
200 9
Ġconsist s
av or
)+ (
Ġmultiply ing
Ġst ates
Ġ5 1
Ġev ent
Ġhand s
po p
Ġl unch
Ġp or
Ġha pp
incre ase
} /
n ect
ĠL e
^ ^
Ġpar tic
9 3
Ġp ants
B ut
o ve
th an
Ġs tickers
yth ing
ra me
t end
Ġmo ve
Ġasympt ote
ĠF riday
Ġdr ink
Ġch ips
bot tles
n ers
y min
a el
Ġ200 4
Ġg rand
tri b
do it
)) *(
Ġb ab
fo od
in dex
le g
en n
ck et
les s
e mp
ra in
Ġw alks
c at
x min
$ )
] **
Ġt ext
Ġla mbdify
Ġbill s
E E
Ġs ine
is ed
In teger
un its
l inalg
ve x
b et
of f
Ġrect angles
Ġmax imize
20 10
j or
py plot
de g
Ġenumer ate
Ġp ris
Ġlong er
im g
ite m
Ġp ies
ce wise
l imit
Ġpl aces
Ġ$ {
ro ts
] );
,- .
Q uestion
Ġfl our
Ġge ometry
( ):
Ġst re
Ġse ats
Ġsh irt
Ġb ank
Ġform ul
Ġthere fore
ĠT wo
ich ael
C E
T ick
Ġwork ing
s ales
Ġbet a
con dition
Ġf ield
y max
and y
Ġhen ce
Ġb inary
f act
Ġstate ment
Ġk ind
Ġrepe ating
tick et
g ames
200 6
tic s
Ġdraw ing
Ġn atural
al ance
Ġb ars
Ġ200 7
Ġmultipl ied
ĠA P
Ġ _
Ġeat en
Ġwith in
ct an
Ġob ser
ow s
\ ,
Ġflo at
com mon
si x
Ġten s
Ġpass ing
n ext
Ġcon nect
cal ories
Ġch a
Ġar rang
ge ometry
n ie
save d
ĠF unction
du le
Ġa ct
Ġol der
Ġeas ily
Ġj ob
ĠM P
Ġtrigon ometric
(" %
Ġlo st
larg e
] *
Ġcontin ue
Ġcenter ed
Con sider
] :
} )$
right anglemark
Ġlo c
Ġbuy ing
el ta
for mat
Ġcalcul ations
Ġn ight
ie cewise
de grees
Ġproduct s
nd Arrow
Ġc ri
Ġcomp os
co ords
l on
est er
integ ers
Ġne ither
x im
c ans
6 2
tick ets
od es
Ġteam s
at ors
Ġdec ided
po unds
Ġpo und
10 8
Ġsell ing
s plit
Ġ4 7
ĠI ter
Ġshow s
Ġrecur sive
larg est
ing u
Ġpris m
6 25
Ġexist s
ĠM od
cub e
Ġcomp any
pl an
Ġgall on
Ġp ig
and a
h ip
Ġb i
cap acity
("% ",
Ġm orning
ĠS te
Ġco sines
b ut
- (
k ey
pen cils
ar ch
ingu ish
13 0
Ġ[ ...
L M
Ġl ight
B P
, (
Ġtri angular
Ġcl ub
f lowers
ĠB D
un der
. ")
Ġ â
Ġn ickels
ce pts
Ġlog ar
Ġnumber ed
p ick
Ġnon negative
6 1
ll ed
in come
ĠS aturday
S um
} ^\
Ġg lass
Ġfl ag
he st
or anges
Ġearn ings
ta x
ĠA E
po und
Ġpack age
app ro
arg et
Ġp ays
Ġcon clude
Ġ2 40
, (-
2 10
ĠĠĠĠĠĠĠĠ ĠĠĠĠĠĠĠĠĠĠĠ
ĠJ an
Ġo wn
Ġc r
Ġto w
e ve
w in
st yle
inguish able
Ġsubstit uting
Ġ2 10
ra di
| ,
b i
divis or
1 0000
Ġn ine
D elta
Ġc y
Ġpro gram
Ġsimplif ies
Ġpro ject
coeffici ents
P R
Ġrel ations
Ġincl uding
Ġan n
ine q
n on
Ġ$\ |\
ic s
u des
et ra
m ile
le y
c ups
ĠIter ate
de gree
Ġfe male
] ),
g ers
l ish
55 55
st and
Ġcon vex
Ġas ks
mon day
y bottom
[ '
Ġconta ining
ed ge
Ġcall ed
g um
ver tices
f lo
Ġs al
Ġrot ation
ep t
ĠB y
Ġwhe ther
ĠS e
mid point
c ard
un e
g rid
,\ !
ir ds
L e
p les
bro ther
sh akes
a f
Ġf ree
l and
axis pen
axis arrowsize
Ġ9 6
orig in
Ġexpon ents
Ġpo st
Ġsatisfy ing
Ġwr iting
Ġre n
Ġplay er
ĠT riangle
Ġweigh s
mut ation
Ġinequ alities
Ġb as
Ġp ot
Ġm other
Ġ14 4
are d
Ġco eff
k en
Ġmat ch
Ġs alary
Ġcomp o
i den
or der
Ġne cess
Ġfar m
Ġch ild
o unces
cor ding
Ġpro cess
del ta
Ġex cept
Ġ4 6
Ġsol id
Ġmultipl ication
if e
ĠJ ack
B A
u el
Ġs we
pp ly
N o
Ġw ins
Ġo o
Ġt re
he rical
up pies
} -\
po ps
Ġpo ol
Ġroll ed
Ġor tho
Ġw a
ck l
Ġrepe ated
i mb
co ver
Ġ\ |\
or g
Ġexpon ent
d ict
omet ers
c il
s k
arc cos
t aken
Ġknow n
Ġexp en
if ic
Ġor ange
Ġ race
A bs
ĠHow ever
ĠPa ul
[ (
s ur
ir l
Ġch ance
cor rect
Ġappro xim
13 5
Ġparen ts
r c
Ġst ack
Ġad ults
ke ys
9 4
ll y
th a
Ġb ar
ĠG e
Ġcan d
P oly
bot h
Ġcur ve
Ġte mperature
Ġr an
Ġhe ad
] $.
Ġt ails
Ġcor ner
ĠJ ul
P ro
Ġ er
Ġs elf
Ġstart ed
Ġro ses
para bola
[ :
appro x
p ng
Ġra ise
urren ce
ri ce
ch ick
loye es
t rees
Ġro unded
val id
Ġp print
e w
âĢ¦ ]
requ ired
ye llow
Ġ4 4
ac ing
lli pops
Ġse eds
le ment
je ctive
rot ate
raw berries
re venue
Ġref lection
Ġs now
Ġend points
Ġ1 10
un ce
} |
Ġsh ape
pro j
S ize
Ġen clo
wr itten
wor ds
t uesday
Ġ ends
ĠG CD
c ase
12 1
Ġp ast
o g
r d
Ġle ad
Ġs ugar
t w
Ġ8 5
ĠD E
ener ate
Ġin de
tri ple
\ {
' ))
Ġ12 5
Ġ8 4
Ġ1 60
Ġ$\ $$
ent y
Simplify ing
10 5
0000000000000000 0000000000000000
Ġexten sion
mb us
Ġcalcul ating
is a
Ġl at
J ames
Ġbu ilt
lo st
Ġcri tical
etra hedron
}, \]
1111 1111
000000000000 0
Ġ mp
Ġmo dule
ĠC omp
sol ns
Ġinv ers
Ġmag nitude
lo pes
Ġgra y
Ġfollow ed
cand ies
} }\
Ġb ed
it ed
Ġh ar
c ing
Ġdr inks
Ġco me
A T
Ġ8 8
Ġ9 2
Ġsem i
le ts
Ġbuild ing
ĠIn itial
A F
Ġearn s
Ġor ders
200 5
p ort
} ;
g or
cor n
Ġreg ions
f ru
ĠF actor
Ġ[... ]
Ġsymmet ry
f ree
ĠM at
Ġt ables
Ġsandw iches
Ġnumer ical
ĠD etermine
Ġsa vings
or es
,\,\ ,\,\
Ġst u
Ġd u
Ġfill ed
Ġsol n
ho me
Ġplay ed
Pl ugging
st udent
Ġk m
12 3
Ġreci pro
A dd
Ġre ads
}$ ",(
Ġcent ers
Ġri de
v est
Ġf urther
33 3
Ġkil ometers
b ull
bet ween
d get
Ġa cos
en cy
Ġout side
Ġ[ âĢ¦]
mo st
Ġsa ved
Ġsuc ces
p urch
g ues
r an
\ }$.
Ġme at
Ġ10 8
Ġag es
dots b
} }.\]
Ġpaint ed
Ġc ake
$ '
ar ctan
Ġl ab
Ġcomp uting
Ġf ence
Ġa ir
Ġ200 8
pro blem
a ti
E ndArrow
Ġo m
0 8
Ġrun ning
Ġe ver
Ġy oun
-------- --------
diam onds
Ġdirect ly
as cal
] ));
000000000000 00
Ġd ots
coll ect
ĠAl ice
Ġpalindrom es
ver ti
Ġcomput ed
jo in
$ ).
Ġ9 8
s chool
Ġpizz as
Ġch ord
s ure
fri end
Ġw ide
Ġax es
tri p
Ġcurrent ly
let ter
O A
Ġits elf
Ġtrave ls
Ġav ailable
Ġex am
Ġs im
Ġac ross
ad es
Ġcha rac
Ġse ctor
d ri
Ġrequ ires
ide o
Ġent er
Ġho uses
Ġsw im
ot os
e b
t ree
âĶĢâĶĢ âĶĢâĶĢ
gall ons
Ġsub tracting
Ġunknow ns
Ġd ict
l ing
ĠP iecewise
44 44
Ġ5 8
ab ove
Ġpen nies
Ġal together
Ġda ily
her ry
c ake
2 16
Ġgraph s
ic ense
up per
Ġrho mbus
Ġin ch
Ġarrang ed
divis ible
multi ples
)) $
m et
o grams
d ic
Ġhig hest
Ġco ur
Ġformul as
Ġs rc
Ġmod ular
Ġhund red
eng ers
Ġbirth day
Ġmin im
d binom
Ġm om
Ġ9 99
ar rang
o ps
}{ |
Ġt old
Ġ\[ (
pizz a
c les
Ġf rac
p acks
ver sion
m en
12 8
Ġv ar
u d
operator name
] $
Ġsubs ets
Ġpro por
ar th
3 24
) ],
ĠEx tract
sh aded
comp lex
Ġwalk ed
C F
at ches
radi ans
itte e
dots m
v ar
Ġj ump
Ġneigh bor
Ġda ught
form ula
Ġs un
bo ard
Ġfact ored
sy m
ach ine
ip y
Ġroll ing
Ġto ys
i pping
|, |
ĠW rite
| $.
Ġsp herical
2 25
Ġt etrahedron
Th ree
Ġs q
27 0
Ġs cale
Ġpara meter
c ur
Ġtry ing
m i
Ġask ed
ap ple
Ġasympt otes
ri ces
work ed
Ġal tern
Ġti le
Ġbo ol
Ġpick ing
Ġgro und
Ġever ything
Ġca ught
ĠD an
| =
Ġd inner
i dent
Ġf ather
p tion
gor ithm
Ġ20 10
Ġco t
d x
Ġcongru ence
a co
p ython
ic y
R S
sa vings
ist ance
et urn
Ġma le
gro up
R o
g ets
doll ars
11 1
Ġp et
p ol
y si
du ces
display style
Ġwork ed
sh irt
te am
8 00
d f
Ġcompos ite
di agon
Ġpurch ase
d r
ot hes
z eta
Ġbegin ning
Ġf avor
Ġr ing
22 22
let ters
in put
Ġcount ed
up les
} )$.
Ġin dex
ĠJ ane
100 1
p here
bull et
is odes
Ġfor mat
Ġpro duce
n uts
du ration
Ġad ds
a i
in st
} ')
Ġhome work
Ġcup cakes
+ =
a ur
Ġf ixed
cand y
col ates
Ġom ega
Ġst op
ĠPoly gon
ĠM in
pen dent
us ic
end ing
Ġ1 40
Ġdri ve
Ġpi le
ri an
ĠS arah
Ġrema inders
y z
Ġc rayons
} _{
vert ex
diamonds uit
).. (-
Ġd ate
k g
Ġse ction
Ġlong est
ĠTh ursday
Ġcho ice
ĠU n
Ġcharg es
Ġt ur
Ġg row
Ġ ..
eq s
ber ry
ax es
ball oons
i ra
Ġl ot
Ġ )
ext ra
([ -
Ġpop ulation
Ġ5 9
ĠS unday
Ġsem ic
a z
Ġcon jugate
I I
Ġe valu
77 77
h ing
av g
Ġs ent
Ġpor tion
r s
ten ded
o x
Ġs leep
Ġread ing
h space
Ġtomat oes
Ġoff ic
Ġbe ads
} (\
st ore
sum ed
ĠS h
Ġb ases
c r
cho ices
am ent
Ġcolum ns
Ġpro d
iel ds
ber t
per p
p print
cre am
Ġinterest ed
Ġph one
per fect
m ing
l ic
Ġto day
r ant
def ined
t es
Ġshort est
D etermine
Ġgues ts
bot tle
play ers
ly mp
p q
Ġwin ning
Ġ- >
par ti
} )(
ĠAs suming
Ġsimplify ing
inter val
in ches
le gs
Ġse ason
t able
Ġinst ead
Ġcount ing
\\ \
Ġhand shakes
Ġ[ '
bu y
Ġp icks
Ġm x
Ġbo ard
ch ie
Ex pand
Ġl icense
subs tit
Ġag o
Ġrequ ire
Y ou
Ġb ak
Ġ9 1
Ġco ws
88 88
um s
ow els
Ġ( $
19 0
P B
Ġcap acity
or as
ill s
Ġl in
Ġl ate
th is
se q
Ġrespe ct
Ġre arrange
ĠS egment
Ġpro mpt
Ġbasket ball
y axis
ĠJ im
ĠPoint s
p age
po ons
t ons
Ġtick down
ĠF rom
ĠF inally
Ġtyp es
Ġfe ed
^ (
ser ies
C B
) ?
Ġpack ages
m ales
a way
d omain
Ġsc ipy
b race
Ġex tract
s andw
Ġparti al
ind rical
Ġcorrespon ds
l or
ĠM ul
} ))
Ġd ashed
tra ve
ĠTicks Ar
Ġper mutation
sequ ence
] (
g ame
Ġbir ds
ĠE m
Ġ9 00
TicksAr ry
Ġ\ $
ive d
ĠL LM
Ġop tim
ĠB ut
) }$
re mo
quart ers
ren ch
co ins
x left
Ġmo vie
ra tional
" {
f ifth
m ilk
b us
Ġcar ry
Ġpropor tional
p alindrom
Ġre cor
Ġver y
Ġs and
Ġline width
sin ce
Ġc akes
ex pen
33333333 3333
Ġchick ens
Ġ- (
f y
Ġx min
d ate
Ġeven ly
Ġjelly beans
(" \
Ġj uice
ul es
mer ic
w ednesday
it es
Ġkil ograms
fe e
s up
ABCD EF
Ġpres ent
Ġ... ,
Ġcomput ation
9 00
Ġfe e
Ġim age
ĠB e
c all
Ġin come
Ġrepresent ing
Ġrot ate
Ġunder stand
Ġp urple
re t
ĠL CM
Ġap pl
Ġpe an
Ġ$- \
" ),
Ġchick en
I N
ch airs
a cos
w ho
Ġbe ans
pro jection
Ġradi i
Ġ ^
Ġ- =
Ġshort er
Ġclo ck
Ġ6 7
C h
Ġrec urrence
Ġdis play
para llel
c hed
Ġinteg ral
w he
ĠB AC
Ġset ting
ĠH ere
sur face
Ġ8 00
t ur
ĠCo ord
ĠD raw
% .
ĠCon st
Ġinter n
f ul
pro mpt
Ġw atch
c ial
Ġth row
u ce
Ġad ult
Ġpara bol
ĠP er
Ġson gs
Ġto ss
Ġ200 9
tr ans
Ġf it
Ġre duce
Ġfraction al
c hen
Ġcount er
p x
Ġf ilter
Ġn one
b and
) \\
i ans
ck ets
con t
, \\
E D
Ġcustom ers
Ġplay ing
Ġc art
Ġ$ .
s ump
ĠPl ot
Ġg ift
p ass
ce l
e an
ĠM ari
Ġcor n
}\| ^
ques tions
Ġfl ips
x axis
pl ant
Ġpath s
: .
t frac
line ar
op tions
Ġoct agon
Ġrepe at
Ġfactor ize
C o
u cl
ro id
ent er
Ġs orted
c x
ĠL u
ar r
ro s
Ġgo od
ĠN ote
is on
Ġf ly
O P
Ġl ay
Le ft
Ġsubs et
' .
Ġcalcul ation
Ġfru its
lin space
f ull
Ġcyl indrical
Ġsquare d
Ġmat rices
v ies
Ġk g
Ġs ays
pay ment
Y Z
Ġlo cal
pl ants
b rown
Ġlogar ithm
25 6
me mbers
L ine
Ġshe l
T otal
P C
g ot
b reak
Ġal gorithm
on ent
( ),
if ts
a per
Ġfin ally
Ġat an
ric ks
re ce
Ġpro portion
Ġfind s
eng th
ĠN o
g an
Ġro pe
u an
Ġy ields
" $
g x
Ġ ``
Ġcook ie
Ġreflect ed
or ge
Ġsu its
Ġ[ /
Ġha ir
Ġpartic ip
Ġ8 7
b ars
is s
a le
Ġwalk ing
Ġcalcul ator
if orm
Ġsi eve
ĠInitial ize
Ġcover ed
gra de
ter val
Ġsubstit ution
Ġ12 8
ur ance
ty pe
) }.
0 2
Ġcontin u
l ines
}, \
= {
Ġarrange ment
Ġto oth
Ġan al
Ġe p
Ġgra ms
te en
is hes
Ġ5 3
O D
Ġgra de
st ri
Ġ9 5
)) [
Ġre v
Ġlo llipops
posi tion
c ats
] ;
le te
Ġme mber
Ġp ump
Ġno tice
Ġturn s
b ur
ĠM ichael
ĠA meric
un ique
ĠR eturn
De fine
f its
m l
iti ally
pres ent
ter ior
Ġa m
Ġratio s
Ġdef ining
)}{ (
ma p
Ġmodul us
Ġincre ases
ro lls
out h
E C
< =
di ce
d ata
Ġel im
c heck
ĠM ultiply
f all
cl ubs
Ġv ac
mis phere
f ast
month ly
Ġobser ve
Ġmis sing
ĠB en
Ġt rack
Ġ7 4
Ġdes cri
ĠD iv
D iam
Ġexp anded
qu otient
ment ary
se conds
cl uding
Ġsp inner
Ġdeterm ined
ri ed
Ġd res
Ġsix th
te mp
Ġsto ck
n ight
Ġlat tice
ĠP Q
Ġfr ont
Ġcontain er
ysi cs
Ġ200 5
Ġg irl
is hed
Ġ7 3
Ġcomb ine
! }
| }
Ġcount s
Ġweek end
Ġt ip
ro ll
ĠS uppose
Ġac ute
i ad
ĠAl so
c er
Ġto urn
t ru
/ \
([ (
d am
Ġs uit
142857 142857
l ong
vi ded
Ġf all
) }{\
M ultiply
Ġcle ar
cs c
Ġst ation
olum es
Ġloc ated
Ġra ised
i eta
Ġfl ip
ang oes
ĠAC B
Ġlibra ries
66666666 6666
Ġbo y
Ġcomput er
m n
lymp iad
gon al
Ġto y
r est
lo red
Ġte lls
Ġcomm ittee
out comes
Ġre venue
cub es
Ġ6 6
ĠP ascal
Ġ4 000
Ġappe ar
p ed
Ġp rac
dis criminant
ous and
arrang ing
cri pt
enti al
l ay
inter est
Ġco mes
pick ed
div id
Ġselect ing
Ġ{ }
se ll
p ush
angle d
Ġocc urs
Ġ ?
Ġk n
ask ets
Ġ8 9
Ġs il
Diam ond
p an
Ġsw it
ĠEx pand
Ġocc ur
g lass
Ġ10 5
Ġw ind
Ġincl ude
Ġ13 5
Ġb est
ĠE ng
et ype
doll ar
C ase
no on
A ll
s od
c artesian
Ġb ike
ĠJo e
r in
ar ange
Ġfl at
ĠAnd rew
sho es
Ġrema in
Ġpen cil
Ġinde pendent
ĠMr s
}$ ",
ust in
i i
c q
ri ck
re m
Ġtrans form
Ġl ang
Ġpro vided
ĠT im
t rig
Ġdo ub
et e
ĭ ħ
Ġc atch
si tion
x z
Ġ6 2
ucl ide
Ġ ir
Ġex ce
8 2
uclide an
12 00
Ġintersection s
factor int
Ġvis it
u ra
w ards
#### ####
Ġrest ri
inter cepts
pen s
Ġme als
Ġin ner
h at
Ġ( '
get ables
v an
re v
Ġtourn ament
Ġar gum
Ġst rawberries
Ġ6 1
Ġclass es
Ġemp loyees
Ġ rid
Ġequ ate
Ġbr ing
uff ins
der ivative
sist er
Ġ1 30
Ġimp lement
cho colate
Ġmat ter
4 50
Ġtru ck
{ (-
verti ble
Ġdel ta
Ġla wn
Ġ7 8
ol o
Ġsatisf ied
Ġsa id
Ġm achine
ĠPythag oras
ol f
il ies
p Tick
Ġg um
aur ant
Ġoct a
Ġo lympiad
Ġhundred th
ĠF orm
1 12
Ġtri ps
Ġin divid
Ġv olumes
il a
} ^{\
A X
sum m
Ġmo ves
Ġtrans l
Ġdo ing
che ese
Ġmultipl ic
bol d
da ily
A c
Ġf ast
Ġmin or
Ġrelations hip
lo ad
ĠHer on
collect ed
Ġy ard
Ġm usic
11 5
Ġreplace ment
constraint s
r ing
c ustom
C alculate
Ġcl imb
Ġz ip
1 33
15 9
Ġinvers ely
Ġ100 1
Ġfavor ite
ll e
)) --(
20 14
Ġb ik
} ),
as ure
ic it
Ġex terior
Ġs cal
Ġv ideo
Ġrece ives
Ġb it
ist ory
st ers
" ]
Ġst e
Ġh it
Th at
Ġas suming
Ġc uts
Con vert
w all
or ange
3 20
si g
ad dition
ug s
Ġg iving
trave led
sh ort
y ard
} :
ab ric
ill e
gall on
h or
b t
h ypotenuse
Ġlabel s
Ġstu dy
pp ers
J o
Ġ7 7
ĠSy mpy
Ġro ad
b ow
ĠEng lish
Ġf t
Ġdo ugh
B ig
Ġbro ught
)) ]
ĠD istance
ĠL ist
P T
Ġortho gonal
Ġf ig
w w
aco b
Ġt arget
Ġto o
al d
Ġent ries
G H
)- (
Ġmar ks
Ġ12 00
sp ades
s n
l ift
ti tion
ro unded
Ġenclo sed
Ġme al
Ġun defined
ĠLa w
Ġcon trib
rece ived
lim its
] ],
)) ^
a ro
Ġ2 25
Ġs ticks
Ġpl ays
Ġsepar ately
ro ses
ĠE very
Ġst ay
Ġidenti ties
all ow
Ġcalcul ates
ester day
t est
Ġsa w
z eros
Ġper m
Ġe y
Ġ= ",
Ġroom s
Ġpark ing
St ep
he ad
Ġplan es
l ap
ac ci
sump tion
Ġre duced
Ġre written
Ð ¾
c ut
Ġres id
ĠG enerate
b asket
v ol
length s
Ġlead ing
{- \
Ġcont est
Ġparabol as
Ġg u
Ġyoun ger
Ġse at
iz ing
rect angle
Ġprime factors
7 00
Ġe asy
Ġne ckl
ci ence
Ġx max
7 1
clubs uit
{ }
not e
â ĭħ
Ġcon version
Ġmon ic
ĠJ une
Ġdist inguishable
Ġequal ity
Ġow ns
Ġex tern
coeffici ent
Ġc x
O f
BC D
st amps
ri e
an imals
ed i
Ġa chie
Ġdenot es
Ġren t
ĠTh at
on ents
in it
late x
sw e
ĠĠĠĠĠĠĠĠĠĠĠĠĠĠĠĠ ĠĠĠĠĠĠĠ
Ġw id
ac y
blo cks
Ġra bb
it chen
p ants
ĠV ieta
se eds
Ġwork ers
di e
B e
ĠR a
parti al
Ġpaint ing
Ġmax im
Ġnecess ary
at o
Ð °
Ġle ave
Ġl ater
Ġcho colates
); }
ĠAng le
er n
3 000
Ġmat ches
Ġlo oks
Ġmathema tics
ush rooms
st ack
cho ice
ĠD is
p ot
Ġres pon
0 4
Ġf ol
}_ {\
ĠĠĠĠĠĠĠĠ Ġ
k ens
Ġin vertible
Ġhe misphere
Ġph i
Ġy max
ĠJ erry
Ġ8 3
Ġf lower
B B
Ġmed ium
Ġde al
fl our
ĠN ew
C omp
D A
ĠP eter
Ġmeet ing
ĠS ubstituting
Ġapart ment
Ġat tend
substit uted
ic ally
fri day
Ġqu antity
inat ors
lo s
F actor
Ġcl othes
Ġstate ments
c als
li ke
ang ent
flo at
Ġappe ars
Ġd ad
Ġ3 000
ph one
Ġw ra
Ġ Which
p icture
s egment
Ġdistrib ution
week ly
Ġsandw ich
)$ :
Ġd ue
se ats
Ġend point
ĠĠĠĠĠĠĠĠ ĠĠĠĠ
S ys
Ġm ill
ul ate
n ess
cc er
us an
s tickers
Ġc herry
Ġ âĢ¦
Ġma jor
Ġconnect ing
qu antity
7 20
s c
ĠC E
Ġevery one
)) --
an ie
em y
w ik
B F
__ __
ag ed
ĠA pply
Ġ200 6
Ġf en
Ġco ol
E qu
h am
w omen
Ġfar mer
el ve
bl ings
ĠE F
f am
AB D
Ġann ual
cover ed
20 18
co ffee
quart er
Ġsil ver
med ian
- .
g g
fru its
e ight
Ġpara met
Ġm ow
ell ipse
arl ie
f ind
Ġfor ce
si m
row ed
under line
cup cakes
Ġhapp ens
Ġbase ball
ĠS imilarly
m x
gues ts
Ġ5 7
b irds
T om
Ġsymmet ric
is ible
ĠO f
Ġstre et
% $
Ġst yle
Ġdon uts
Ġsup pl
ĠAB D
Ġco py
s am
Ġy ield
ĠP ow
ch ild
clo ck
ig s
di ents
ĠM o
Ġc ame
ĠL ength
ch arg
sa le
amp les
Ġb race
Ġexpen ses
olo gy
)$ $
Ġidenti fy
Ġb alance
Ġ200 3
ve ls
) ",
n the
ĠP h
ĠBill y
en e
Ġhar vest
B ill
s ugar
iz es
tan k
Ġb in
id x
Ġcharg e
co ok
Ġb ake
Ġun ion
Ġh ats
up py
Ġat tended
æ¢¦æ¢¦æ¢¦æ¢¦æ¢¦æ¢¦æ¢¦æ¢¦æ¢¦æ¢¦æ¢¦æ¢¦æ¢¦æ¢¦æ¢¦æ¢¦æ¢¦æ¢¦æ¢¦æ¢¦æ¢¦æ¢¦æ¢¦æ¢¦æ¢¦æ¢¦æ¢¦æ¢¦æ¢¦æ¢¦æ¢¦æ¢¦æ¢¦æ¢¦æ¢¦æ¢¦æ¢¦æ¢¦æ¢¦æ¢¦æ¢¦æ¢¦æ¢¦æ¢¦æ¢¦æ¢¦æ¢¦æ¢¦æ¢¦æ¢¦æ¢¦æ¢¦æ¢¦æ¢¦æ¢¦æ¢¦æ¢¦æ¢¦æ¢¦æ¢¦æ¢¦æ¢¦æ¢¦æ¢¦æ¢¦æ¢¦æ¢¦æ¢¦æ¢¦æ¢¦æ¢¦æ¢¦æ¢¦æ¢¦æ¢¦æ¢¦æ¢¦æ¢¦æ¢¦æ¢¦æ¢¦æ¢¦æ¢¦æ¢¦æ¢¦æ¢¦æ¢¦æ¢¦æ¢¦æ¢¦æ¢¦æ¢¦æ¢¦æ¢¦æ¢¦æ¢¦æ¢¦æ¢¦æ¢¦æ¢¦æ¢¦æ¢¦æ¢¦æ¢¦æ¢¦æ¢¦æ¢¦æ¢¦æ¢¦æ¢¦æ¢¦æ¢¦æ¢¦æ¢¦æ¢¦æ¢¦æ¢¦æ¢¦æ¢¦æ¢¦æ¢¦æ¢¦æ¢¦æ¢¦æ¢¦æ¢¦æ¢¦æ¢¦æ¢¦æ¢¦æ¢¦æ¢¦æ¢¦æ¢¦æ¢¦æ¢¦æ¢¦æ¢¦æ¢¦æ¢¦æ¢¦æ¢¦æ¢¦æ¢¦æ¢¦æ¢¦æ¢¦æ¢¦æ¢¦æ¢¦æ¢¦æ¢¦æ¢¦æ¢¦æ¢¦æ¢¦æ¢¦æ¢¦æ¢¦æ¢¦æ¢¦æ¢¦æ¢¦æ¢¦æ¢¦æ¢¦æ¢¦æ¢¦æ¢¦æ¢¦æ¢¦æ¢¦æ¢¦æ¢¦æ¢¦æ¢¦æ¢¦æ¢¦æ¢¦æ¢¦æ¢¦æ¢¦æ¢¦æ¢¦æ¢¦æ¢¦æ¢¦æ¢¦æ¢¦æ¢¦æ¢¦æ¢¦æ¢¦æ¢¦æ¢¦æ¢¦æ¢¦æ¢¦æ¢¦æ¢¦æ¢¦æ¢¦æ¢¦æ¢¦æ¢¦æ¢¦æ¢¦æ¢¦æ¢¦æ¢¦æ¢¦æ¢¦æ¢¦æ¢¦æ¢¦æ¢¦æ¢¦æ¢¦æ¢¦æ¢¦æ¢¦æ¢¦æ¢¦æ¢¦æ¢¦æ¢¦æ¢¦æ¢¦æ¢¦æ¢¦æ¢¦æ¢¦æ¢¦æ¢¦æ¢¦æ¢¦æ¢¦æ¢¦æ¢¦æ¢¦æ¢¦æ¢¦æ¢¦æ¢¦æ¢¦æ¢¦æ¢¦æ¢¦æ¢¦æ¢¦æ¢¦æ¢¦æ¢¦æ¢¦æ¢¦æ¢¦ æ¢¦æ¢¦æ¢¦æ¢¦æ¢¦æ¢¦æ¢¦æ¢¦æ¢¦æ¢¦æ¢¦æ¢¦æ¢¦æ¢¦æ¢¦æ¢¦æ¢¦æ¢¦æ¢¦æ¢¦æ¢¦æ¢¦æ¢¦æ¢¦æ¢¦æ¢¦æ¢¦æ¢¦æ¢¦æ¢¦æ¢¦æ¢¦æ¢¦æ¢¦æ¢¦æ¢¦æ¢¦æ¢¦æ¢¦æ¢¦æ¢¦æ¢¦æ¢¦æ¢¦æ¢¦æ¢¦æ¢¦æ¢¦æ¢¦æ¢¦æ¢¦æ¢¦æ¢¦æ¢¦æ¢¦æ¢¦æ¢¦æ¢¦æ¢¦æ¢¦æ¢¦æ¢¦æ¢¦æ¢¦æ¢¦æ¢¦æ¢¦æ¢¦æ¢¦æ¢¦æ¢¦æ¢¦æ¢¦æ¢¦æ¢¦æ¢¦æ¢¦æ¢¦æ¢¦æ¢¦æ¢¦æ¢¦æ¢¦æ¢¦æ¢¦æ¢¦æ¢¦æ¢¦æ¢¦æ¢¦æ¢¦æ¢¦æ¢¦æ¢¦æ¢¦æ¢¦æ¢¦æ¢¦æ¢¦æ¢¦æ¢¦æ¢¦æ¢¦æ¢¦æ¢¦æ¢¦æ¢¦æ¢¦æ¢¦æ¢¦æ¢¦æ¢¦æ¢¦æ¢¦æ¢¦æ¢¦æ¢¦æ¢¦æ¢¦æ¢¦æ¢¦æ¢¦æ¢¦æ¢¦æ¢¦æ¢¦æ¢¦æ¢¦æ¢¦æ¢¦æ¢¦æ¢¦æ¢¦æ¢¦æ¢¦æ¢¦æ¢¦æ¢¦æ¢¦æ¢¦æ¢¦æ¢¦æ¢¦æ¢¦æ¢¦æ¢¦æ¢¦æ¢¦æ¢¦æ¢¦æ¢¦æ¢¦æ¢¦æ¢¦æ¢¦æ¢¦æ¢¦æ¢¦æ¢¦æ¢¦æ¢¦æ¢¦æ¢¦æ¢¦æ¢¦æ¢¦æ¢¦æ¢¦æ¢¦æ¢¦æ¢¦æ¢¦æ¢¦æ¢¦æ¢¦æ¢¦æ¢¦æ¢¦æ¢¦æ¢¦æ¢¦æ¢¦æ¢¦æ¢¦æ¢¦æ¢¦æ¢¦æ¢¦æ¢¦æ¢¦æ¢¦æ¢¦æ¢¦æ¢¦æ¢¦æ¢¦æ¢¦æ¢¦æ¢¦æ¢¦æ¢¦æ¢¦æ¢¦æ¢¦æ¢¦æ¢¦æ¢¦æ¢¦æ¢¦æ¢¦æ¢¦æ¢¦æ¢¦æ¢¦æ¢¦æ¢¦æ¢¦æ¢¦æ¢¦æ¢¦æ¢¦æ¢¦æ¢¦æ¢¦æ¢¦æ¢¦æ¢¦æ¢¦æ¢¦æ¢¦æ¢¦æ¢¦æ¢¦æ¢¦æ¢¦æ¢¦æ¢¦æ¢¦æ¢¦æ¢¦æ¢¦æ¢¦æ¢¦æ¢¦æ¢¦æ¢¦æ¢¦æ¢¦æ¢¦æ¢¦æ¢¦æ¢¦æ¢¦æ¢¦æ¢¦æ¢¦
Ġpl ans
ĠCoord Sys
le ast
\ ,$
equ al
Ġc ity
oly n
Ġtr an
Ġout er
be ads
Ġmathema tical
step s
c um
y an
but ter
diagon al
Ġchoos es
Ġeq n
in ation
Ġb ath
m other
pow ers
Ġmark et
C P
D iv
Ġy min
tri angles
S ub
pie ce
Ġp u
k ids
/ *
mb ox
S et
Ġco lored
i ence
-- -
3 75
Ġobject s
** (-
A x
Ġrest aurant
Ġhapp en
Ġcand id
eg an
Ġbrown ies
pizz as
Ġwhe els
Multiply ing
Ġth rows
_ {\
Ġey es
ar on
the n
ĠL HS
ĠABC D
g round
fact ored
ick el
ust um
spades uit
res h
in ess
A R
27 27
A ng
do zen
solve d
ca ught
Ġor gan
Ð ½
Ġdri ves
k a
Ġlemon ade
ph ab
ref lect
Ġth ousand
' (
Ġp an
Ġdoll s
M r
ren t
p aren
Ġplant ed
24 3
Ġs ong
Ġp uts
Ġreci pe
ĠM ath
Ġt ro
m ist
Ġact ual
Ġe ast
ĠL o
Ġtrans late
Ġh ole
D F
ve y
| .$
on acci
Ġoffic ers
Ġsa mp
med ium
Ġconsider ed
ic tion
Ġtrip les
s tick
Ġcon son
im its
Ġin dic
ane ous
ib onacci
p icks
Ġdirect rix
Ġsl ice
F our
Ġs lopes
sum s
Ĉ Ĉ
ĠC artesian
un s
C ar
c rayons
ĠS chool
Ġpro duces
200 1
Ġg y
Ġex per
e led
200 2
inst ance
Ġdiffer ences
ĠR HS
Ġ200 1
0 3
g est
ta ins
so cks
Ġarri ves
Ġfe males
ad ults
Ġspec ial
ho od
text normal
k x
ic a
Ġt uple
, "
} ).
Ġexten ded
Ġmo de
Ġshow ing
A H
Ġver ify
ere al
ĠCh rist
et ty
ru ction
Ġe ating
Ġun iform
Ġse arch
on i
mag nitude
Ġshe lls
re pe
pl ates
ĠA x
st er
se ven
16 8
ul bs
M ark
> <
}{ -
bo b
Ġheight s
b read
A O
co ws
an a
sco res
Ġask ing
Ġf ire
ĠĠ čĊ
eg rid
Ġse ctions
)) $.
Ġx right
t c
Ġshe ets
on us
Ġle vel
Ġb urn
Ġpro v
ĠK e
ig en
Ġob jective
x step
Ġx left
tick down
il it
at ched
inv isible
Ġcent roid
y step
Ġsemic ircle
Ġpass engers
ĠTicksAr rx
ag o
t t
ors es
2 20
Ġn solve
Ġph otos
Ġser vings
p per
me mber
Ġle arn
in f
Ġ9 7
Ġspec ific
Ġcomp utes
ph ant
t use
ĠM ike
ines e
f igure
W ith
Ġkind s
Ġplot ted
TicksAr rx
bil ity
Ġis land
oti ce
o on
us ion
it ting
); //
ep per
da ught
h ic
);// ,
Ġc ash
combin ed
Ġweek ly
r andom
op tion
Ġlab eled
o ds
el ow
Ġp rom
\ ;
Ġclo sed
he ads
or th
Ġbut tons
ac hel
ĠB P
a u
ĠJ enny
Ġt ask
tick length
Ġcomp are
x equals
y equals
Ac cording
Ġoper ations
bill s
Ġdenom inators
) ^{-
ĠDe f
Ġwr ong
Ġe tc
Ġf ac
Ġbu dget
cle an
em ber
3 50
Ġdecre asing
a e
ĠP QR
ĠP at
ti ves
Ġinvest ment
s ticks
Ġpay ment
Ġlik ely
u ck
me at
es si
Ġp epper
th ursday
an swers
[ "
Ġdri ving
ang ed
Ġ1 12
Ġlate x
ĠT ake
Ġout come
Ġy z
Ġbas ic
chick en
Ġinter p
Ġlit tle
Ġdaught ers
Ġ7 6
Ġlo ck
Ñ Ĥ
)) /(
Ġp ints
Ġpean ut
irc les
g old
er ia
2 80
ad ded
s aturday
Ġh ard
Ġeas ier
Ġvis ual
s al
ĠRo und
B ob
20 15
con sumed
b alance
â İ
Ġteacher s
con e
n ab
Ġbur ger
ine ar
ĠC l
Ġglass es
$. )
om mon
Ġcontain ers
uc umber
Ġother wise
` .
ep s
An swer
Ġa ver
Ġfro gs
Ġ25 6
as ks
om es
ĠDe cimal
lit ers
palindrom e
Ġtrig simp
: -
al ue
Ġnum s
Ġvis ible
u age
Ġp ets
Ġocta hedron
itten s
Ġev ents
Ġresid ue
Ġv ia
Ġtrigon ometry
t ables
Ġcomple t
Ġ Ð
ĠH alf
)--( .
b it
ĠP R
ĠB rian
Ġdoub les
nthe ory
h igh
Ġa ut
Ġc are
25 2
) |
oun ce
w ash
Ġinterval s
es sion
Ġcomplet ely
anna h
ĠB E
f rame
Ġbu cket
Ġapproxim ately
j ohn
addition al
ĠA m
Ġi de
Ġapply ing
A I
Ġfen cing
Ġsin es
Ġ\ #
Ġcr ates
Ġgra pes
Ġp ink
Ġr ules
ex pected
Ġbo unded
Ġa rt
sol s
z es
tra vel
Ġ4 50
Ġoper ator
Ġto wn
b a
Ġ| \
Ġin itially
Ġb ird
ord an
The se
(( .
mer ange
ĠJ ason
nab la
arrange ments
Ar c
Ġher self
er ial
ĠDis play
to ys
Ġ5 000
ma ils
Ġman ip
B ased
whe els
u qu
G ive
u its
R ow
ĠEm ily
ĠB ren
t raction
Ġbor n
ti le
Ġindivid ual
Ġallow ed
S qu
Ġlo se
sp ort
Ġ( $\
ĠIn t
sp here
f ather
Ġob tuse
ĠY ou
Ġc ra
text rm
i bility
Ġ1 11
el a
28 8
Ġpot atoes
$\ %$
Ġdes cribed
pack ages
Ġflag s
Ġanal y
^{ (
Ġch ords
ta ils
ĠDef ining
ĠS ub
Ġph ysics
I m
Ġex er
d imes
Ð ²
ĠE uclidean
und ant
b ananas
ĠAmeric an
O N
Ġre ference
Ġinvest ed
Ġin gre
am er
Ġtra il
Ġre pl
Ġeg g
Ġcheck ing
Ġst ars
ĠEqu ations
0000 0
Ġamount s
mo ve
Ġgo ats
purch ased
o ssible
20 50
Ġcharac ter
Ġcan cel
Ġcar rots
ult aneous
bb on
ul er
Ġv ari
fl ies
w ide
cy l
ĠK im
4 64
ĠT ony
dist inct
Ġo il
fe male
Ġswim ming
Ġrecipro cal
Ġep isodes
he arts
}} .$
)) $?
sh are
l unch
ing er
Ġwo od
Ġve getables
Ġinteg rate
Ġre aches
Ġstri pes
Ġto m
Ġdec ide
and ra
glass es
Ġde n
d an
Ġpl ate
Ġ* /
Ġinc enter
ĠL isa
Ġwhe el
G e
15 3
16 5
.... ....
Ġwid gets
Ġch ip
up on
sandw iches
Ġdouble d
me lon
Ġm ales
del iv
lo ss
t ty
F raction
an cy
Ġknow s
66 6
j ack
Ġal phab
13 6
99999999 9999
Ġsur vey
Ġd an
ti p
om an
cub ic
Ġsp ots
s leep
sod a
Ġsim ultaneous
tic ally
Ġ es
Ġjo ining
Ġhig her
Ġpri ces
Ġ[ [
ĠAnd y
pa per
Ġparameter ized
7 29
Ġ12 1
] ).
Ġma il
le mon
b in
Ġbig ger
C C
ak ers
Ġorigin ally
fill ed
Ġde p
ĠMat t
Ġbreak fast
{ ,
an u
Ġhol es
n is
c art
Ġcorrect ly
Ġp rin
bu ild
Ġb at
ĠJan et
Ġcy cle
ra ys
z ed
Ġen sure
ad ult
c ip
pop ulation
ĠTh ree
Ġen g
s ame
un a
,\,\,\,\ ,\,\
w hen
w on
int ersect
v ice
Ġmark ers
Ġwas h
blo ck
iden ts
lo c
Ġnor th
und ry
u til
Pro bability
ist ant
Ġoff ice
j ump
M ary
vis it
)( \
Ġlo ss
Ġ llm
Ġcustom er
do uble
em s
19 2
ĠS pe
h ar
ĠD i
Ġpri ze
ount ain
Ġsh ots
Ġf und
anan a
N otice
d ro
) }.\]
act eria
inat ing
ĠĠĠĠĠĠĠĠ ĠĠĠĠĠ
Ġtw enty
} ^{-
ho uses
Ġleft over
ĠSte ve
l t
Ġmo vies
av ier
Ġrecipro cals
ut ure
tom atoes
Ġan ts
Ġse ver
w a
Ġ12 3
Ġs cript
), -
ch ips
F ill
$ =
ĠO ut
PQ R
Ġm angoes
per iod
M ar
Ġlik es
Ġdistrib ute
er emy
10 2
Ġsu per
Ġpro duced
ik a
Ġ </
+ +
our ney
combin ation
X Z
Ġtriple ts
Ġcomp e
chick ens
Ġlist s
ĠE l
ĠJ ay
Ġinfin ity
Ġhim self
Ġalgebra ic
P a
Ġdro pped
ĠThe se
acks on
Ġcontain ed
bb les
ĠConst ruct
Z ero
14 7
ict ures
Ġn th
s cribed
Ġ9 4
Ġra is
sy mpify
p et
b es
ĠB eth
Ġp ic
const ant
Ġrespon se
s unday
ac hed
g ain
Ġb ricks
Ġc ereal
ĠSe cond
Ġd x
ag range
Ġnote books
Ġu til
c ents
12 4
ĠJ eff
N one
av id
Ġflo ors
Ġsucces sf
p urple
dist inguishable
Ġargum ent
rac y
Ġ2 20
Ġcollect s
4 32
Ġj ack
Ġdu cks
Ġm ess
ang ing
Ġ16 5
As sume
{, }
ars h
s un
Ġfl ight
! $.
Ġsho pping
mist ry
Ġse as
U n
ill a
c her
ĠF rank
ĠD on
pri l
Ġk itchen
) ')
}} $,
ell a
ici ent
10 9
Ġmp h
M od
Ġsever al
Ġ$$ (
p at
print ing
Ġjo ined
de c
Ġb icy
Ġpara meters
Ġf rame
inator ics
cc cc
Ġfoot ball
Ġm ain
f un
p ark
Wh ile
73 2050
Ġbus iness
Ġgener ated
Ġtru cks
me al
Ġ6 8
Ġin distinguishable
Ġl axis
cont ent
Ġne ver
av ailable
- $
Ġbisect s
earn ing
Ġquad rant
Ġd ark
Ġp uppies
Ġabs ent
i pped
l n
Ġgo als
ĠAM C
g ave
Ġexpen sive
Ġm ushrooms
Ġelim inate
P h
units quare
Ġso ccer
00000000000000000000000000000000 00000000000000000000000000000000
Ġg amma
ar tic
ip es
ĠF rench
circ um
ĠL uc
Ġcand les
c ery
Point s
Ġab c
ĠE arth
(- \
ĠM N
F unction
Ġbound ary
Ġ// =
Ġal b
ĠIn terval
A pply
d imension
summ ation
A L
Ġl iving
Ġv owels
Add ing
T H
j uice
ĠU S
is c
ĠB etty
M ax
Ġsp aces
as ts
ĠA CD
Ġc aps
con tain
Ġ9 3
k il
Ġfr ustum
Ġ2 16
Ġsup ple
ĠA my
est s
Ġeven ing
Ġre le
se ction
Ġme ets
Ġro unds
ĠCh arlie
E very
Ġ3 24
\[ |
st o
ll a
or k
17 0
Ġcoll inear
Ġshare d
2 60
A N
x label
Ġ2 70
Ġ20 18
Ġche cks
E r
Ġb askets
if ting
ĠJ ill
Ġtur tles
ĠC ommon
Ġcharac ters
Ġcircum scribed
Ġer ror
| -
Ġsit ting
Ġwant ed
Ġ __
Ġ1 33
}} \]
ub lic
F G
en ded
Sub tracting
Ġdon ated
Ġbab ys
Apply ing
is sion
}) ^{
ar ily
ĠM ay
Ġcan oes
Ġsho e
Ġf abric
reg ular
4 000
ĠR os
Ġbowl ing
Ġs cience
me l
Ġarri ve
le aves
start ing
te acher
' m
en na
Ġsp in
paren ts
Ġcon fig
ĠH arry
4 80
or row
ed ges
lin etype
S in
XY Z
16 9
12 9
y label
Ġsub ject
Ġl ap
\ _
Ġingre dients
ĠR achel
Ġstr ings
y n
k in
order ed
D B
Ġcon es
Ġ10 2
sh ip
( |
Ġrecor d
Ġbur gers
it al
am s
Ġm ix
ĠN ext
Ġd iction
inequ alities
ĠC P
Ġbrace lets
Ġnecess arily
n ic
ot or
rack ers
fam ily
Ġp ull
Ġparamet ric
ag ue
}$ :
& =\
Ġpen ny
ĠAn na
ch ain
a ving
j elly
w ins
al th
(" (
5 000
Ġ$ [-
Ġle ts
ĠF ilter
Ġpartic le
E R
ĠW ill
Ġshe ep
Ġbro ken
co re
ĠT e
Ġocc up
ind a
5555 5555
Ġm n
Ġcoeff s
? $$
Ġcour se
expen ses
ser vings
Ġte a
ĠT r
("$ -
o pt
Ġ200 2
f ar
); [/
Ġb en
G M
Ġ\ (
st e
| |
son gs
a ins
m orning
dr ink
hic les
n ickels
Ġin correct
tit le
ap ed
Ġins urance
10 11
Ġdro ve
Ġ20 14
Ġtomat o
ĠQ u
Ġover all
ti e
s orted
ĠJo sh
Ġbab y
ect or
@ {}
Ġsa ves
Ġsi blings
Ġconsider ing
ol es
ĠR yan
pr ing
vie w
Be cause
Ġsimultaneous ly
Ġp eg
label s
ind y
bu dget
p ace
Ġsuppl ies
f ilter
\ ,\
g rand
Ġbet ter
mo del
Ġent ry
}} }
count s
c ending
Ġsl ant
us band
+ |
Ġ7 9
ie w
end er
ol a
Ġre ason
t arget
17 5
Ġr ank
^{ }_{
ĠP B
Ġs ort
per m
Ġche aper
] -
Ġmed ians
Ġlang uage
w ord
Ġch anges
col ors
Ġcontin ues
Ġsol ver
Ġi mm
11 9
ĠĠĠĠĠĠĠĠ ĠĠĠĠĠĠ
Ġafter noon
f ield
14 2
Ġide a
path ticks
b ir
11 3
ul us
Ġa ction
re ds
im age
Ġtw elve
S quare
Ġ3 50
Ġdid n
ĠPro blem
Ġwa it
(( (
Ġallow ance
ac on
ĠDiv ide
ĠDan iel
no de
g as
ol ves
Ġdiction ary
Ġtri ck
13 7
Ġim g
Ġsup port
Ġs tick
], (
ĠT V
Ġqu ick
mar ks
A lex
Ġsuc cess
p ers
b atch
Ġlo ses
ti les
Ġ3 20
Ġdough nuts
b inary
Ġsum mer
pi ped
{( \
Ġsamp le
Ġz oo
u ded
Ġtow er
ta il
Ġcent ral
g u
199 3
v ille
Ġsign s
Ġact ually
Ġ\ ;
sl ice
Ġexpon ential
12 6
Ġback yard
Ġp ole
)= -
O ut
f ro
res ults
Ġb acteria
Ġe igen
k n
Ġo unce
g ift
], (-
factor ization
Ġsub sequ
Ġ[ "
Ġn uts
Ġzero es
Ġs uppose
==== ====
Ġr hs
Ġplan ning
mon ic
39 23
{ $
h ill
Ġm uffins
45 6
pos it
Left rightarrow
Ġ @
Ġt ies
ĠCar la
b as
Ġt ail
w age
: ]
Ġbe ef
st op
raw berry
pa ram
gre y
ĠS ally
Ġsa ving
exp onent
Ġdeliv er
wor ks
ĠB CD
ur t
remo ved
Ġdivis ibility
Ġh istory
l axis
m ake
Ġse en
O R
o pen
Ġconstruct ed
Er ror
if ied
Ġch ar
con trib
Ġ100 8
Ġwin ner
n ings
cq cq
Ġseven th
ĠCh inese
Ġt ie
Ġb atch
sp an
Ġpurch ased
Ġdeliv ery
Ġde duce
Ġn ickel
eg g
Ġse c
ĠĠĠĠĠĠĠĠ ĠĠ
') .
Ġrot ated
Ġdr ank
ll ele
loye e
an et
\ }
small er
Ġbed room
Ġwr ites
c ise
v ation
ro te
3 15
g row
Ġgues s
Ġwind ow
ythag orean
Ġf ix
Ġc ities
est ed
ĠJ am
Ġc amp
Ġ vec
ĠC ase
Ġscal ar
ĠB rand
14 5
Ġsucces sive
multi pl
Ġder ive
ad a
ter y
to day
Ġconvert ing
walk ed
Ġn et
Ġg l
qu ari
Ġx z
Ġp Tick
gra ders
he lls
Ġassign ed
Ġclean ing
circ les
Ġlo gs
Ġbo unds
\ }$,
Ġdecimal s
Ġswit ch
im eters
ĠD er
Ġp m
ten de
Ġintersection point
av y
go al
Ġm ap
ar ies
ĠAr c
Ġg ifts
diam eter
op tim
Ġp ond
99999999 99999999
Ġpig gy
ĠC A
k m
' $.
pp ings
Ġtooth picks
Ġ\\ \\
Ġst age
omet hing
Ġbor rowed
mpl ate
Ġ8 2
Ġst ar
Ġpepper oni
ph ants
Ġpay ing
e en
Ġr ings
P S
ab cd
Ġh um
00 1
Ġre m
Ġaltit udes
2 30
Ġlo ad
Ġ7 1
hearts uit
pri merange
Ġanaly ze
33 0
Ġcre ated
Ġcontinu ous
arb ara
Ġvisual ize
O ur
Ġfin ished
paint ed
h ad
Ġpres ident
Ġ16 2
le vel
par ts
j ob
11 7
s ymbol
* \
e c
Ġsh ip
Ġdon ut
200 3
col um
ĠM arg
) ",(
Ġ7 20
Ġch air
s ets
ĠJ acob
min imum
te mpt
w ar
10 24
Ġpe aches
ĠL ou
As suming
ĠCar los
Ġshe et
m ary
as si
iva tives
ass ert
Ġ1 15
J ack
11 8
Div iding
z ens
Ġ rac
as ers
charg e
b ors
oth y
Re arranging
Ġconson ants
Ġten nis
ĠCo mb
r it
$ ),
id istant
arsh mall
an ti
Ġ$| \
d as
Ġsi mpl
ph otos
Ġc ell
ma inder
en ari
ca de
cre en
t ag
Ġshort s
T aking
j ames
24 5
mat es
ith ms
)* (-
is ies
10 6
Ġqu arts
l d
ĠP ete
Ġincl udes
Ġj ourney
Ġvac ation
Ð° Ð½
ĠAr row
itte es
Ġdenot ed
ay la
ĠD uring
Ġis ol
Ġcor ners
id er
14 159
th ony
ABCD E
t angent
Ġto uch
Ġsit u
Ġst amp
Ġform s
Ġleft most
p ars
Ġbak ed
36 36
m ul
Ġextern ally
llele piped
Ġbe come
0 9
cip al
v ent
Ġd ry
C H
Ġlemon s
she lls
Ġconsist ing
tri ps
Ð¾ Ð²
/ >
Ġh t
Ġla undry
Ġde bt
Ġmo ving
ĠC a
it ely
con jugate
Ġequ idistant
ĠV alue
Ġdraw er
100 8
up lic
Ġm ist
b ak
{ |
! (
f lower
re ci
Ġw ire
atur es
r ance
ĠX Y
ep isodes
v oid
n ets
Ġt ires
11 4
ĠC alcul
Ġst orm
ĠF er
na ils
Ġfol ded
\ $
Ġline up
mark angle
Ġac res
ĠThe ir
ĠG re
Ġstand ing
Ġprac tice
custom ers
)* ((
. "
n eg
Ġcl oth
Ġ12 6
Ġcon f
In t
Ġw rote
ati e
f aces
Ġkeep s
ow el
\ |
Ġcart ons
Ġse ed
en ed
Ġe u
h ave
Ġout fits
Ġen ve
bir th
Ġclo ser
Ġde ep
j ar
Ġbrother s
Ġth rown
ĠCar olyn
Ġn ice
Ġe lect
ĠG reg
do lls
wo od
Ġbi ology
cand id
Ġri bbon
Ġcircum circle
of t
Ġp uppy
m art
purch ase
w ind
Ġun ity
mid dle
i us
Ġdistrib uted
Ġ= >
W rite
Ġm ight
ĠK en
A CD
Ġhe art
Ġneighbor hood
Ġdaught er
ĠCar l
ip ed
tende es
Ġcom ic
Ġbr ute
Ġtext books
ĠR ad
phant ine
Ġquad r
Ġoptim ization
cri tical
Ġincre ment
Ġappl ied
class es
m ith
| +|
cer ies
' $,
ucumber s
mpl icit
di rection
Ġ\ |
con gru
) (-
mes s
Ġgra f
Re call
: ")
Ġm ountain
Ġd ra
Ġappro aches
Ġoff ers
pass engers
] }
Ġco vers
$$ (
0 6
Ġk ept
7 50
ĠCo sines
o z
Ġrecursive ly
Ġde t
ad ow
Ġpl ugging
Ġn ails
tex tit
S olution
Ġlo an
t re
ĠA dam
ĠPh il
sol veset
Ġm ixed
ĉ ĉ
ĠAs sume
Ġgro cery
Ġtang ency
Ġche mistry
: \
Ġnext prime
B G
Ġm m
Ġan t
ĠA F
ull y
' ve
st ate
{\ $
Ġdis hes
).$ $
is k
comp os
Ġsumm ing
Ġac cording
p ast
Ġrational ize
66 7
don uts
d rank
], "$
m it
Ġdes ign
ish a
,\,\,\,\,\,\ ,
T e
count er
Ġcomp ared
Ġpig s
comp o
p A
ĠE llipse
Ġalphab et
ĠSpe c
Ġf old
th irds
Ġcongru ences
io ds
Ġro ck
Ġmat erial
57 6
Ġg en
ri me
Ġlit er
e ats
Ġparticip ants
ele ments
Ġco con
Ġtax es
No Zero
3 25
Q P
âĶĢâĶĢâĶĢâĶĢ âĶĢâĶĢâĶĢâĶĢ
Ġwatch ing
cub ed
daught ers
li k
732050 81
mb ur
Ġterm inating
f r
le ctions
ĠF ibonacci
fru it
Ġse ating
Ġs our
Ġland ing
y ards
ĠKe vin
b d
cl ips
Ġs omething
Ġo d
Ġle ads
! \
ne ither
arr ings
18 5
L a
Ġagain st
app ing
67 8
Ġpar se
K L
+ (-
ĠD avid
o c
Ġbe e
Ġmo ved
ĠK ing
Ġtra ining
ĠMar tha
ÑĤ Ð°Ð½
Ġex pl
o tion
M in
ad ium
Ġpaint ings
Ġf un
di ent
M on
Ġdro ps
ĠÐ ¡
Ġse ems
p ets
S am
Ġweight s
ÑĤÐ°Ð½ Ð¾Ð²
ssibil ity
333333333333 33
erm ut
Ġder ivatives
Ġas in
10 4
}}$ $
reg ion
14 8
ĠB eta
Ġachie ved
Ġlogar ithms
ĠAB E
he it
read ing
Ġbl ank
t uple
Ġd il
c frac
Ġp ills
Ġcomple ment
{ [
20 16
tit ude
Ġf requ
Ġl ad
Ġfam ilies
quari um
u per
Ġimm edi
Ġh omes
ist s
Ġdi me
Expand ing
C O
Ġair plane
Ġle aving
Ġs outh
Ġmon day
ed ing
Ġgy m
Ġfactor y
ct ors
ĠJim my
Ġo pp
Ġminim ized
para b
9 87
ti ents
} (-
mon d
ap art
ro lled
Ġser ving
M O
si lon
Ġj ars
Ġâ İ
equ ality
o ct
Ġspend ing
Ġs eq
vers ed
Ġtall er
it a
' }
rid ge
Ġr anges
brown ies
ah ren
ĠM al
Ġmeasure d
ĠÐ¡ ÑĤÐ°Ð½Ð¾Ð²
Ġcomple mentary
Ġst at
Ġth ings
play er
Ġbo b
Ġblue berries
pack age
PQ RS
ahren heit
for ward
Ġst ores
pe an
] $,
pen nies
Ġcall s
Ġh orses
ĠB ase
Ġlay er
Ġtran sport
Ġpurch ases
Ġh its
L E
or ing
contrib ution
Ġaltern ating
Ġtrans formation
Ġrev erse
r r
S T
cent ric
Ġan s
uff y
arshmall ows
ĠQ R
Ġconst ruction
cat ter
Ġ6 9
ĠC el
Ġnew sp
v ariab
Ġpara llelepiped
("$ (
asy mpt
Ġneckl aces
ari ate
Ġpaint s
22 2
Ġw ife
ĠV olume
ont ally
ma jor
play ed
Ġcount ry
Ġsp ot
ĠAm anda
om eter
u a
18 00
is her
ĠE d
Ġfor ward
Ġdres s
ĠB inomial
se ed
Ġtravel ing
w ill
week end
Ġ ess
B Q
sell ing
Ġfe ll
ĠCD s
go als
Ġtow els
Ang le
ĠA DE
B M
ĠB l
Ġab undant
ne eds
Ġdeliv ered
lit er
Ġsp l
M ul
ess ert
Ġbo uqu
n one
,$ $
Ġ16 9
Ġtang ents
Ġce lls
Ġ5 12
essi ca
Ġd ig
Ġco upon
Ġto ur
n ice
Ġv otes
Ġs am
ept ember
L HS
\% $.
Ġclo se
ĠSub tract
19 6
product s
Ġbo unces
ĠAD C
us ing
s ort
Re als
Ġend ing
me als
don ated
A G
h ot
un i
Ġw oman
Ġht tps
g en
dimension al
re ls
h ats
)); }
st u
Ġmultiplic ative
5 12
" ));
gra mm
Ġ17 0
Ġha m
Ġover lap
Ġhor se
S S
Ġintersect ing
ĠJul ia
igh th
i en
Ġe val
Ġsc enari
14 9
Ġcalcul ators
Ġk id
Ġre cent
) =(
ele ment
Ġle ague
Ġother s
po ssibilities
se ason
Â °
iter tools
mp h
Ġa th
Ġcomple ted
11111111 11111111
â Ŀ
lay er
ic he
ur se
s el
intersection s
wr iting
Ġwater melon
Ġow es
)) =
Ġsh ipping
im on
Ġstri ct
grow th
plan ar
st re
Ġte le
{ {
Ġtre asure
problem s
Ġ20 19
c alcul
con ditions
or age
en ry
Ġal t
cl usion
Ġdecre ased
28 5
res ses
use ticks
| )
in cluding
Ġf aster
hex agon
Ġa ce
ĠE uler
ob jective
note books
ĠB o
Ġparti tion
sh aped
cy cles
Ġamo eb
clock wise
and as
Ġex clude
Ġat tempt
an ch
Ġso das
to kens
Ġb onus
Ġpic nic
Ġneigh bors
urther more
un iv
ce mber
ie f
pl ots
40 96
Ġparen the
Ġex pect
' {
j ul
Ġconvert ed
Ġgra ss
Ġarc s
Ġhoriz ontally
pol ar
spe cial
ĠH ar
isc uits
Ġput ting
Ġsimilar ity
Ġpro duction
di o
)^ \
Ġmess ages
Ġcompo unded
Ġde g
To p
Ġ7 29
red it
] /
ĠS quare
Ġcollection s
i ol
Ġarri ved
six th
Ġle ap
Ġbor der
Ġpiece wise
Ġ9 999
Ġan imal
ĠD C
18 7
L CM
ĠRe place
sk ip
emp loyees
ĠFind ing
Ġsurvey ed
oh ns
Ġis s
Ġd am
Ġst adium
Ġreturn ed
p uppies
Ġex amples
Ġbab ies
Ġtyp ical
co in
Ġinter cept
discount ed
11 6
Ġt rac
Ġele ven
Ġs che
Ġb anana
m as
Ġremo ves
c ra
Ġe ar
arc us
G CD
ĠA X
Ġd om
âĿ ¶
Ġst uff
Ġball oon
Ġn ames
s ent
g iving
Ġke ys
90 90
ĠReturn s
ti v
Ġper imeters
ap pe
> </
fo und
cis ion
C R
S e
Ġp as
Ġis instance
Ġmark ed
Squ aring
cre te
le e
sandw ich
tru ck
Ġarc sin
Ġv an
f x
ith ub
ĠL agrange
Ġst airs
Ġse es
ĠE ll
10 10
Ġv ice
Ġrabb its
pos ed
Ġ(- \
re c
25 9
Ġ16 8
Ġsepar ate
Ġbik es
Ġk x
st rawberries
! )
P ython
Ġpre fer
o cc
Ġ ^^
Ġsitu ation
s catter
is sa
B AC
Ġli ve
Ġfill s
Ġtom orrow
$",( .
Ġtest s
Ġno de
iz ations
emp ty
ra tions
te mperature
& &
Ġl aps
ĠAn nie
Ġisol ate
' ],
Ġro ute
Ġco planar
ĠW ith
y ing
AD E
Ġo z
ĠD en
ot tom
Ġv iew
Ġa quarium
20 13
end y
ik es
P M
ĠB er
univ ariate
ser t
Ġpu zz
us age
Ġ24 3
Ġevalu ated
Ġpro f
H H
Ġsubtract ed
Ġod ds
8 66
Ġf resh
), .
con vert
, ...
Ġm l
29 6
ro ke
Ġsubsequ ent
ath an
at ers
is es
[ (-
ian a
Ġdu ration
in o
er gy
fo cus
g l
Ġimmedi ately
) +\
Ġdescri bes
n et
g ons
p ig
Ġeng ine
P ow
Ġann ually
4 20
ĠR ob
ess a
Ġde pend
ĠComp uting
f ort
14 3
Ġinv olves
emp h
Ġcon tra
us er
Ġpo ssibility
Ġcloth ing
33333333 33333333
b urn
45 45
build ing
mark et
re p
Ġrain fall
$ }.
paint ing
ose ph
15 6
ber to
B I
) })
Ġhour ly
ĠLo op
23 4
ĠOut put
ak s
Ġhund reds
ra ised
g ithub
o de
ang o
34 3
n x
ĠD o
p rac
w are
Ġfactor ing
70 7
B X
' $",
ĠD F
Ġcandid ate
Ġfl av
ĠOn ly
Ġar row
Ġch ief
ĠGe orge
AB E
Ġinvers es
Ġqu iz
ex agon
iped ia
f ac
gro ups
Ġexpand ing
Ġp ictures
function s
ars on
poly gon
Ġlock er
s uc
Ġrestri ctions
} ?$
Ġt uesday
13 2
ĠJ ake
Ġhar monic
Ġth ir
Ġg ate
ĠA I
Ġintern ally
)) ),
D P
([ [-
Ã ©
sing le
inv est
Ġcompe tition
Ġcour ses
8888 8888
i ent
Ġin circle
Ġcomp onents
13 8
)! }
Ġprov ide
Ġb er
t uce
Ġbo unce
ash a
om as
bak ed
ĠA ssi
m om
24 00
Ġdiscount ed
Ġco w
per ms
Ġl ake
ĠS usan
frac tions
Ġco pies
Ġxy z
4444 4444
Ġt ub
ĠI s
25 5
ma in
respon se
Ġ10 3
ĠR ange
Ġ25 00
M x
Ġd uplic
ir on
ra ry
Ġrema ins
Ġpro ve
ĠUn Fill
Ġt icks
Ġav oid
Ġpeg s
pen cil
Ġfig ures
isect or
ĠM ake
ĠM el
Ġdate time
v ac
Ġsist ers
} ]
h ol
go od
Ġcon ven
inat ed
Ġsto ps
id a
Ġbe ar
des ired
Ġ" $
be cause
al ie
l angle
Ġsn ack
Ġlo aves
ĠA d
r angle
Ġswe ets
Ġpar rots
Ġpres sure
Ġpop corn
b ike
Ġv ol
ins urance
ceil ing
ĠS mith
ot a
se m
Ġstrict ly
ĠA OB
wik i
Ġ8 6
} ",(
Ġp andas
o e
im ages
Ġc rate
Ġro se
c f
5 40
s eg
B elow
ĠMari a
n ol
Ġch anged
ĠL ast
Ġth ing
mat ch
g ie
Ġlin solve
ide os
}} +\
" );
B ottom
ĠJ ordan
id den
ĠMar ch
15 00
ul ips
ra bb
d ps
s now
sel ves
; ++
ti ent
Ġs ons
M o
Ġcomb inatorics
mper atures
ob j
ap ers
intersection point
el es
Ġremo ving
Ġc d
Ġbe h
Ġsimplif ication
99 8
gramm ing
2222 2222
ĠP ermut
Ġallow s
Ġcut ting
Ġsa il
Ġshift ed
ph ones
re pr
Ġroll er
on ly
con g
}. ")
######## ########
Ġfactorial s
Ġw atched
Ġentire ly
Ġbr ings
nol ight
Ġi gn
i me
know n
b ath
Ġg ain
Ġ6 000
ĠB x
remo ve
op ards
ne ckl
un k
cyl inder
ub ble
ĠAn thony
Ġmis sed
Ġgra ders
she ets
teacher s
Ġb ug
Ġf uel
20 19
ĠCh ris
re y
Ġh usband
graph ic
diagon als
H exagon
Ġs uff
D EF
ĠK aren
Ġ2 88
Ġ$\ #
f em
I s
Ġe mails
Ġk ittens
Ġrabb it
ĠM egan
Ġgues t
ww w
â Ī
77 7
Ġtables poons
ar ks
sa ving
ĠJ uan
ĠSt art
cook ie
comb os
f ly
Ġf inger
13 4
ht ml
Ġsn akes
ĠC ho
Ġ7 00
Ġrepeated ly
19 5
Ġdro p
Ġra y
it le
Ġa u
Ġco ach
100 4
are as
Ġso up
b en
Ġre p
38 4
], [
Ġar bit
Ġname ly
Ġb re
l ers
Ġl ateral
un ion
Ġk ite
ry an
B O
ĠH igh
do ugh
S ix
ser ving
Ġimp ro
sp end
ĠP o
ch n
Ġcomple ting
work ers
Ġb inom
Ġb uns
Ġincl uded
Ġir on
88 8
ĠM ean
swe et
Ġy esterday
gre atest
invest ment
don ation
util ities
is ode
ect angle
ĠS eptember
Ġ25 2
Ġ10000 00
flo ors
Ġon line
Ġmean ing
left over
The ta
", "
Ġwall s
Y X
$ ',
Ġfl ipping
~ ?$$
In terval
led ge
Ġc ater
ara bola
b ird
ĠCon sider
Ġhel d
se mi
sco red
}) .$
inter p
en ne
3 80
Ġbak ery
ĠB AD
&\ $
Ġph ones
c ert
ge ometric
S te
m ow
tra in
bro ught
Ġeu ros
T im
hes s
ĠE ric
ue en
---------------- ----------------
15 4
not her
Ġen ergy
Ġn eg
Ġkil ogram
Ġearn ing
ru ary
Ġha irc
ĠF ahrenheit
Ġspl its
ĠCalcul ating
ĠJ eremy
Ġbow ls
Ġvar ies
min or
ĠV er
Ġb aking
i ers
12 50
h anded
n th
al ready
run ning
Ġh unt
Ġth rice
Ġsh ake
10 7
ti an
co rations
Ġrema ined
ĠT ed
sub plots
r pic
ll ing
us ie
ĠC ubs
23 7
tur tles
Ġstand s
ict or
Ġcat ches
= [
Ġri ce
ĠS qrt
Ġe ff
i mplicit
Ġ15 00
20 5
let ed
Ġdil ation
Ġc hess
do or
Ġbar rel
Ġneckl ace
Ġmaxim ized
ca ps
Ġb rack
ĠD a
Ġex tend
Ġl ife
{ $\
10 3
ĠR ed
hour ly
Ġproject ed
ĠY ork
ch air
ad jacent
99 5
ĠSh ow
pro portion
Ġrepe ats
Ġconsecutive ly
art er
ach ines
Co mb
Ġsh adow
') **
Ġ ]
ant e
ru ce
Ġtele vis
tern atively
]) /
13 9
Ġp O
ĠV ector
mo vie
ater als
plot ting
g ar
Ġsto pping
ĠS imon
mi tive
she ep
Ġcompo unds
mall y
Ġtoss es
so ci
Ġbu ckets
(* [
AD C
Ġrot ations
optim ize
Ġch ain
Ġdiv mod
Ġ11 9
ne igh
() ]
Ġ19 2
Ġp iles
cl are
colum n
d uring
O T
De cimal
Ġ+ \
tw ice
Ġtransl ation
Ġr r
under brace
Ġpe bbles
ĠAn ton
math op
divis ion
Ġswit ches
Ġve hicles
fem ales
f low
ul u
M E
Ġclass room
Ġse ated
dist ances
}} }$.
at t
Ġst rawberry
work ing
Ġc ro
Ġbut ton
Ġlik ed
th row
os es
Ġapproxim ate
S h
k ept
p eter
ch a
walk ing
mark er
55 5
bur ger
8 40
Ġ7 000
l iv
Ġwall et
us hes
ĠSy mbols
Ġp ythagorean
: ',
ul o
r up
Ġp ine
Ġfri es
O X
Ġdiffer enti
2 99
res s
)} ")
} *
ĠRe mainder
t v
Ġs imilarly
ĠR ay
ĠG er
Ġvari ous
Ġr ats
L U
Ġ5 40
Ġqu artic
Ġcontra dic
Ġri ver
Ġinst all
Ġ18 00
ĠB M
comp ute
Ġg rows
Ġbath room
amp oo
Ġinde ed
max imum
le ase
Ġl imits
60 9
pro duction
ro pe
)), (
19 7
Ġsubstitution s
Ġre duces
! }$
Ġ' '
92 30
6 40
circum ference
ap es
Ġele phants
et ch
F E
l ad
yl er
v g
she l
=( .
an tha
ĠAn swer
Ġuniform ly
F D
12 7
ri mp
ĠM id
con sumption
ari a
trans form
Ġform ation
75 6
ĠT racy
3 96
199 8
IN G
Ġ10000 0
Ġvertic ally
ra ph
' ,$
Ġsol ves
ĠRad ius
Ġprint s
Ġgro ceries
stri p
7777 7777
o il
\% $,
Ġro of
Ġc ucumbers
Ġbicy cle
ĠAssi gn
66666666 66666666
p u
and ard
Ġbegin s
Ġconnect ed
bo y
Ġ' ,
b ulbs
Ġg ender
er ies
]) [
Ġcontinu ed
ot Of
ĠPro duct
[ \
` ,
re os
Ġshel f
l at
dri ve
' ",(
Ġx step
exp ansion
mis sion
Ġy step
ĠA c
ci ple
Ġin fer
Ġno vels
Ġassign ments
to y
Ġdark color
cl ip
ĠA H
\, $,
F ive
Ġto kens
Ġd est
cand les
Ġy top
}} .$$
co ol
ĠD ave
Ġmill ion
3 70
le ad
Ġm ac
u ed
ut en
small skip
l st
hed ral
x limits
per pendicular
Ġ{ '
yl imits
Ġy bottom
25 00
Ġinitial ize
complex plane
Ġalb ums
Ġin radius
Ġwe aring
Bottom Top
W X
Ġus egrid
Ġcomplex plane
har vest
15 5
Ġtick len
Ġtick length
Ġticks pace
Ġb ulbs
ri de
Ġaxis pen
Ġwhole tickdown
Ġtickdown length
Ġtickdown base
Ġwas hing
Ġaxis arrowsize
ĠPer form
ill ed
Ġvector arrowsize
lo llipops
ĈĈ ĈĈ
ric ia
ĠD ar
Ġprint ing
p ills
) "
larg er
Ġknow ledge
Ġmin imal
16 00
Ġcar ried
Ġin vert
Ġro de
ĠLu ke
us egrid
ABCDEF GH
Ġs ense
n el
ĠM s
unt ain
Ġimport ant
O Q
sq r
Ġpaper clips
grid size
ĠI II
Left Right
in y
Ġflav ors
)); [/
Ġ.. ),
Ġl ift
Rational ize
ra is
m ult
comp ut
Ġturn ed
Ġdec l
Ġwin nings
n or
car rots
Ġgrow ing
Ġwra pping
v otes
Ġch art
P D
po ol
Ġas cending
ok e
Ġfill ing
ĠRe write
l vert
lo ads
Ġform ing
Ġgra des
Ġdeliv ers
se as
ph anie
Ġ âĢ
ris be
n t
v ant
Ġseas hells
r vert
ĠAdd ing
Ġrepl aced
ĠF lo
ĠJ ac
ab y
ĠTicksAr ry
M M
st ats
Ġparenthe ses
Ġ4 20
Ġcon ver
ĠJul y
pot atoes
am ed
m ill
16 2
E A
Ġdecre ase
$\ $
Ġsco ops
}}$ ?
}) \
ile y
fl ag
Ġequ ating
po on
Ġrecur sion
pre c
Ġopen ing
re write
par c
.\] (
Ġj ohn
il ks
Ġquadril aterals
ĠP ark
du cks
ĠDer ivative
* /
Ġse a
Ġopen s
f n
Ġver sion
ĠD BC
" +
um my
ĠD EF
pro duced
Ġto ppings
T S
li a
Ġper iods
Ġsk ips
Q u
Ġj ew
unit circle
ck y
ure d
Ġfin ishes
Ġarc cos
o den
an not
5 35
Ġ {\
Ġr ates
wik ipedia
Ġp ush
20 11
C os
x lim
Ġ/ >
Ġar ch
cl othes
let es
k i
la mbdify
Ġtre at
der iv
anti ties
al an
p ump
Ġplan ets
v ideo
Ġcollect ing
Ġbabys itting
Ġhold ing
ather s
ick ness
ĠTe am
tic ed
Ġc math
ĠS ide
dot ted
Ġswe et
- (-
A K
n ed
Ġsal ad
36 4
Ġinfin itely
r ina
contain er
ĠA aron
ĠAl pha
m uffins
20 8
Ġdraw s
ĠP arabola
iz er
Ġpean uts
% %
ĠĠĠĠĠĠĠĠĠĠĠĠĠĠĠĠ Ġ
ĠAng ela
Ġber ries
S y
Ġre ached
h air
Â ł
ĠD ay
. ')
sp ital
Ġs ite
st ing
el if
bo ards
99 7
ĠIn cre
Ġc raw
dot factor
Ġ1 18
Ġsp aced
pe ctive
ter ns
i mp
tru cks
Ġinv olve
ĠBob by
si l
subs et
Ġco mpl
Ġ2 80
g arden
Ġre pair
Ġtr isect
vi ol
Ġh at
Ġthem selves
ĠDe clare
ĠPl an
paint ings
ĠJ on
On ce
Ġarbit rary
allow ance
Ġsuccessf ully
Ġco des
Ġcal c
pre tty
ĠH a
Ġcre ating
e very
Ġ2 60
Ġdres ses
Ġgold fish
3 12
ĠSt andard
ti res
ĠC he
Ġmathema tic
Ġcircum center
Ġw age
c ash
eq ns
Ġte as
end ra
g b
b askets
Ġread y
p ink
Ġbus es
23 5
h ole
Ġlin etype
( )))
Ġfactor ized
wor th
d inner
O M
wh ole
Ġpl ain
el ry
ĠĠĠĠĠĠĠĠĠĠĠĠĠĠĠĠ ĠĠ
)*" $
= -\
Ġpre p
} "
Ġe arth
cre t
Ġcl a
Ġm otor
u ke
Ġsp acing
Ġexper ience
s and
Ġint ro
Ġco us
ĠAn n
ĠSimplify ing
week day
ĠBe cause
Ġkn ives
after noon
palindrom es
Ġmark er
Ġb akes
ĠC an
20 4
ĠF our
[ {
ĠB DC
yl im
is y
ĠB u
ĠBren da
ĠOn ce
Ġk no
Ġinter cepts
\[ (\
18 9
Ġte chn
Ġvisit ors
Ġde leg
123 45
Ġp ers
17 3
Ġv owel
Ġfl ies
Ġre comm
Ġtoss ed
Ġcheck ed
Ġr ather
pro per
pan ish
Al ternatively
me let
Ġpre cision
rand int
Ġbisect ors
Ġpack ets
Ġb atches
ut ting
gg ing
it or
po st
fo ci
bow l
Ġent ered
Ġpack ed
[: ,
Ġblue berry
Ġqu antities
Ġ36 5
ĠM a
Ġda isies
) }}{
ĠN at
con secutive
Ġsp oons
Ġmed als
T T
ther wise
ĠD or
rema inders
I ON
se ct
Ġdot factor
Ġd f
point ed
ĠJ ackson
Comb ining
ilks h
Ġm eter
a zz
h ib
u ary
Ġcandid ates
Ġp A
a ff
ĠP A
Ġy i
Ġwork er
Ġfro g
Ġcar ri
0 7
Ġf ile
)] ^
Ġl ifting
ĠK atie
Ġhe ns
24 8
sto ck
R R
for d
ĠB arbara
ĠR ick
j ust
Ġpoly gons
Ġh all
un ity
Ġse cret
bu cket
24 9
Ġf alse
Ġst ones
Ġso ap
Ġv iol
pe aches
iz ontal
tur tle
k ing
14 6
rig erator
Ġr isk
dr inks
Ġbe ars
ar ri
Ġgra pe
je c
e ar
Ġco uple
Ġp d
is prime
ĠF ran
0000 00
v erse
ĠRe present
22 3
en a
Ġtrave lled
Ġw atches
E m
per mutation
Ġcon centric
compo sition
Ġintern al
D an
b by
Ġm ir
ĠR on
Ġcharg ed
J ul
el ic
Ġmetho ds
Ġ1 13
Ġas soci
Ġcan dle
prac tice
and er
sp ots
Ġw edge
v a
arn ing
wa it
Ġsub traction
k ins
Ġav g
Ġdep th
Ġpass ed
basket ball
Ġch ores
stri pes
333333333333 333
47 6
ĠSt ep
Ġe ighth
am ika
Ġb ad
ur ses
u ri
Ġcr iter
iden d
Ġh oney
ig ators
Ġinv ited
eg e
Ġcomp aring
j an
Ġoccup ied
P er
Ġthousand th
Ġcon cert
__ (
Ġmember ship
s arah
s vg
Ġbe ach
k z
gre ater
ĠHe ight
ĠF eb
Ġsqu ir
f ol
,... ,
ĠH o
A Q
Ġl hs
Ġer asers
Ġplan ks
Pa ul
(' $
cho colates
ohns on
Ġo we
ir ate
ĠS panish
ĠI ts
Ġaut om
ĠQ ueen
Ġ13 2
S egment
in et
ĠJan uary
Ġph ase
ĠEm ma
Ġan ything
ic ed
3 23
Ġs mart
custom er
Ġextern al
Ġt uples
Ġpro gramming
ine gar
Ġold est
h und
37 8
Ġle opards
Ġsqu aring
asympt ote
S he
v lift
ĠJ ar
g pt
4 75
I T
im my
Ġsupple mentary
brace lets
Ġplay ground
Ġthink ing
ĠA pril
ag er
integ rate
Ġsimpl er
Ġdon ate
poly s
ile d
as in
iche lle
)) **(
h r
Ġar ti
la w
b re
cl usive
si zed
H e
Ġsem ester
Ġjump s
Al ice
100 2
mo cr
path s
mb s
ĠP C
Ġnor mally
Ġgrow th
Ġp t
Ġsleep s
u um
ĠN e
ĠN ik
Ġemp loyee
n orth
expen se
ti z
ĠAP B
Ġy axis
Ġexce ed
ara ge
m angoes
ĠO r
ul ations
y sters
un ately
olf ram
Ġs ession
cl imb
div idend
Ġâ Ī
ĠJul ie
l aps
Ġimp ossible
b ricks
Ġgener ating
st ead
Ġd ance
w as
factor ized
o ber
w atch
ĠEll en
Ġselect s
Ġri ding
Ġs en
aby tes
Ġg uit
Ġt ips
ĠM c
f ire
subs ets
ey es
ro se
Ġ18 5
/ ((
llm ent
ol den
fourth s
Ġrec all
ten s
g t
}) }
; ">
18 18
hex coords
Ð ¸
Ġyear ly
Ġkil ometer
Ġthousand s
Ġsk ip
w ire
Ġb ra
Ġco at
sp ending
Ġprom otion
(" ",
N N
Ġset up
Ġpl acing
Ġd s
Ġa gre
ĠT ina
** -
Ġ10 4
Ġnote book
ĠCount er
ĠComb ine
C X
Ġsp ort
plant ed
the re
Ġno vel
Ġo ri
b mod
ot ing
33 6
l ings
a hs
Ġm ut
38 46
] {\
Ġd ates
Ġa f
ol ine
repe ating
ĠC F
Ġus er
ol ph
G PT
Ġd essert
opt ed
p atch
Ġmon key
se mb
Ġround ing
Bill y
Ġ3 43
Ġfull y
ĠJ enna
)$ ",(
fifth s
3 40
Ġpe ppers
h yperbola
ce ll
Ġs end
Ġj e
B ase
Ġ" "
', '
36 8
Ġsh akes
me asure
36 00
u ches
ĠĠĠĠĠĠĠĠĠĠĠĠĠĠĠĠ ĠĠĠĠ
ĠWill iam
I L
ĠO P
T en
Ġhel per
38 9
Ġfar ther
Ġinst ance
R el
it ure
act ly
Ġj am
un g
Ġnumer ators
st al
bro ken
ne ed
clean ing
P F
Ġ10 24
Ġoffic er
Ġ( {
lo cal
stick frame
Ġ$( -\
Ġ ~
ĠV enn
Ġthe ater
as m
Ġbig gest
Ġt itle
light s
Ġori ent
Ġb eds
p C
ses sion
jec tile
Ġpump kin
Ġorgan ization
Ġsa uce
Ġb ol
mo vies
Ġrel ated
differ ent
visit ors
t x
Ġ\# \
Ġign ore
ic ations
work er
j ars
) ")
E d
Ġz eta
O r
Ġra ins
ot o
Ġre fill
First ly
Ġsent ence
ĠG ive
Ġoff er
t ake
Ġhand le
Ġassign ment
Ġ{} ".
] }")
s it
ĠD r
14 00
st ars
ĠH yperbola
Ġcompo und
] })
ci dent
Ġcomm ission
ab ri
ut o
H C
ĠF ive
stack rel
g irl
her es
ĠL abel
compos ite
ro ad
] ):
ud ge
t any
28 4
ura tions
ro unds
g ifts
\ )
go ats
ep silon
on nie
ag ons
11 00
ĠY our
ra ined
ĠJ ustin
ĠX YZ
Ġp ots
ell e
ĠLu cy
p ill
t ro
si e
arg o
ly n
ĠRos en
Ġf er
cl ic
a lex
de term
Ġagre ed
Ġm er
Ġser ve
Ð µ
sco ops
18 4
Ġde part
ĠC or
ĠM anu
ĠR ose
| $,
J ason
Ġprin cipal
Ġnot es
Ġweek days
Ġd ps
la v
f rown
pt agon
Ġpro jectile
rev or
Ġal ign
Ġres e
s ite
id ers
Ġra ined
b isector
ĠK yle
r ors
Ġpres ents
ĠL arry
Ġchar ity
Ġcomput ations
7 85
g ener
t owels
Ġmen tion
^ (-
Ġ3 75
Ġsent ences
Ġ1 75
Ġw ednesday
)^ ^(
Ġ-- (
ĠCar rie
x scale
sup pl
Ġ20 16
Ġ15 3
Ġdeal t
Ġrev olutions
Ġmultiplic ity
Ġen rolled
Ġd ish
Ġc redit
Ġst orage
000 1
Ġc sc
ĠL ater
" />
run s
Set ting
not es
Ġcon sumed
)} \]
Ġsco op
Ġsemic ircles
de p
Ġf re
brother s
ll am
Ġenve lopes
th ia
in nie
O O
d ney
Ġcl s
ĠĠĠĠĠĠĠĠĠĠĠĠĠĠĠĠĠĠĠĠĠĠĠ čĊ
6 30
Ġdri ver
Ġexer cise
i co
B x
({ '
Se cond
(- (
Ġcenti meter
ay lor
d ices
Ġsim ulate
ay den
ta u
co ef
Ġl sf
Ġn x
ĠO A
Ġcho ir
cum ent
eat ers
pol es
Ġwo oden
light ers
est yle
Ġdiscount s
% ,
ann els
ĠR ep
ap ter
15 8
Ġow ner
Ġrestri ct
ĠW endy
ĠTo day
ĠN um
Ġarrang ing
Ġreal izes
pt ers
annot ate
temp ts
Ġb ones
Ġpack ing
Ġcontrib ute
Rel ative
Ġ6 40
l pic
Ġm arshmallows
c atch
ĠC indy
ĠM y
Ġb ubble
9230 76
f ile
tw enty
Ġ2 23
Ġwa iting
inter ior
ĠO C
Ġvis ited
20 17
Ġstri pe
}) $,
! /
Ġinv olving
Ġe arrings
ĠL ake
st airs
Ï Ģ
Ġintersection points
res ident
ci a
amer on
mis sing
15 2
Ġgum balls
x x
Ġpre tty
jelly beans
) ^{\
Ġref rigerator
ver tical
18 6
Ġstart ers
ĠC DE
v as
dist rib
Ġpay ments
re duced
Ġw est
vect ors
AA AA
ang aro
Ġac cident
iffer ence
li ons
Ġb iscuits
and s
D on
f uture
| $?
ub e
sil ver
t all
eg ular
ĠCo ll
Ġmp math
Ġrid es
Ġrot ating
ri anna
ĠInt eg
100 5
Ġsl ots
clo sest
20 7
v y
he avy
âĢ¦ âĢ¦
big circ
ĠK rist
20 1
L ast
Ġ{ "
A OB
$ |
Ġargum ents
R HS
Ġortho center
____ ____
w est
ĠC y
ĠJam ie
! [
ure n
Ġbas il
Ġfac ilit
Ġformul ate
o und
8 75
comp leted
Ġ3 15
om ial
ind s
ĠD P
Ġlo ads
Ġfl ipped
J enny
lor ida
Ġmut ually
ĠIn put
ch at
AC B
c herry
Ġcross es
Ġha mbur
Ġpick et
occ up
Ġoptim al
ĠPl ugging
Ġtre ats
Ġrecor ds
ĠRo ger
Ġas sumption
lo ck
bl ing
tra pezoid
u ration
pres idents
Ġser vice
na il
i y
l apping
ĠFer mat
ha irc
Ġco prime
ac tion
Ġfacilit ate
re present
Ġco uples
ve lo
ĠS andy
Ġprin ciple
Ġbrack ets
00 3
Ġs pring
au rice
ile t
current projection
E N
J ane
), \]
ĠO B
hor izontal
Ġf ore
Ġc rackers
Ġg olf
tom ato
al t
ĠEx pression
as tic
) <
Ġte ll
Ġmar ath
Ġuse ful
G G
ĠC ity
Ġappro pri
ro b
24 6
ĠP rime
we alth
2 13
f abric
ard o
Ġse ctors
Ġmeas uring
Ġc ab
sig ht
ĠK enny
Ġ-- >
i est
el o
qu id
Ġlist en
item ize
dep th
D uring
Ġdiam ond
Ġachie ve
Ġ }\
sp aces
Ġhe ptagon
mess ages
fort unately
^ -
Ġv amp
ĠForm ula
an ches
Ġpro ce
Ġright most
ĠFor mat
d ry
Ġor ch
mocr ats
Ġran ks
T ony
Ġp x
ar les
ĠCho ose
ill y
Ġar r
Ġcom ing
bill y
sw ord
ĠGe ometry
L LM
den d
Ġb acon
Ġath lete
ĠA p
ch anged
16 6
ĠRe move
in os
Ġe ll
Ġgrand daughters
ĠAC E
y esterday
L O
Ġs low
Ġste ak
F C
)[ -
asm ine
Ġharvest ed
yl ie
Ġm el
Ġweek ends
) }(
ĠM x
Ġindependent ly
ĠCommon wealth
U V
out s
Ġp q
ici an
com ing
n umpy
el inda
ĠH T
Ġtelevis ion
to ok
Ġelect ric
ĠL ily
cr ates
ĠR andy
B T
Ġte eth
ĠAl f
Ġ10 6
ĠC z
Ġcorrespon d
Ġrais ins
ĠĠĠĠĠĠĠĠĠĠĠĠĠĠĠĠĠĠĠĠĠĠĠĠĠĠĠĠĠĠĠĠ ĠĠĠĠĠĠĠĠĠĠĠĠĠĠĠĠĠĠĠĠĠĠĠčĊ
¤ ´
Ġdep ends
44 4
ril ateral
Ġcat eg
Ñ Ģ
ĠR ow
50 4
Ġnight s
ĠW y
Ġgues ses
e valu
î ¤´
ĠEqu ate
~ ~
w atched
th rows
ĠMat hema
Equ ating
Ġnon real
Ġrepe tition
am ing
de ck
Ġsup ply
12 2
30 4
posi tions
Ġf uture
ublic ans
Z Z
00000000 000
Ġindic ated
b atches
g a
Ġen count
Ġm ult
di ed
Ġpop ular
! }{(
6 000
Ġfin ite
Ġcomb o
7 89
Ġpre par
M AT
ry stal
pre v
b rt
Ġquick ly
Ġc artesian
Ġpat terns
P iecewise
B en
y d
Ġ6 25
Ġr oles
f ic
Ġg arage
ĠH enry
Ġbik ing
sol ving
Ġle ct
sect s
multi ply
neigh bor
dri ving
er k
ĠI I
cart ons
Ġso ck
al titude
ift y
Ġcub ed
Ġtur tle
ĠN orth
comm ittees
Ġexer cis
, ''
Ġlog ic
Ġopen ed
s our
it ch
ol en
ar ti
ing les
ex per
Ġland s
ĠP op
2 24
im a
W XYZ
Ġcomb ining
al ty
Ġhow ever
Ġwh om
Ġtax i
he ls
re cor
Ġup date
if teen
are t
Ġ12 9
p he
Ġpost s
Ġfall s
Ġlo ves
Ġte mperatures
Ġre arranging
n b
Ġtra y
sh ots
[: :-
ĠA verage
| .\]
2727 2727
An na
ĠM as
P p
ap sed
Ġbro ad
S arah
m ike
99 6
Ġaltern ate
ug ust
)+ "
Ġyoun gest
30 6
u ds
er g
Ġ While
27 00
Ġevalu ates
b onus
Ġvis its
M C
Ġs ick
Ġstre ets
re ctions
at eg
Ġcontradic tion
Ġgoal ie
Ġsport s
7 32
ĠM an
ĠG PT
eg o
sequ ences
Ġhum an
un nel
19 8
N NW
bed room
abs ent
arrang ed
ĠC ol
Re al
Ġscenari o
Ġin valid
s ons
The y
Ġte mp
Ġhot el
pres ident
M B
di agram
30 5
Ġanswer ed
]) ]
ĠPrint ing
Ġ& <
Ġdecl are
142857 14
gra pes
ĠCh andra
Ġref lections
Ġje ans
Ġtra sh
Ġbo ss
s car
}{ (\
ĠS ue
bo unds
$", .
ĠCh at
Ġsemi perimeter
bur gers
1 999
ĠChrist mas
de cre
Ġmin er
medium gray
ĠJ essica
c rackers
66 67
Ġdescri ption
Ġsto ols
Ġs car
t akes
Ġmultipl ier
Ġpa tients
pt p
ĠDe an
e ctive
Ġtan ks
Ġblo od
Ġde posit
du c
Ġqu it
o ught
s uit
ub ber
buy ing
ĠC arson
larg ed
Ġplan et
reci pro
w ra
Ġ4 80
is instance
Ġuse ticks
sum es
Ġdivi dend
squ ig
Ġloc ation
" ))
[ [
Ġb d
fo llow
Poly gon
L ong
Ġstudy ing
Ġtri be
Ġ14 7
' ])
Ġst one
suc cess
ts h
Ġre ally
the st
f ries
Ġlo sing
whe el
coll ection
o gebra
Ġt ape
Ġquarter ly
il ma
ĠM aurice
Ġg lo
ist er
ra ise
hand shakes
Int eg
s outh
Ġcocon ut
16 666666666666
Ġrun ners
Ġcounter clockwise
Ġtriple d
Ġe m
bo dy
g ed
29 4
Ġevalu ating
ab ella
w ed
sim ilar
sh ape
se lect
tiv ity
99 0
P E
Ġqu ite
Ġb ridge
comm and
em ma
Ġmet al
Ġre versed
Ġsub st
incre ased
Ġsh ares
low ery
ĠGe org
be ef
upper y
Ġ15 2
28 9
Ġex cluding
ĠPoly nomial
Ġsa f
ĠL am
b ugs
Ġduplic ates
Ġar ctan
Ġin k
Ġfew est
G F
out er
con text
B all
B AD
|= |
Ġvan illa
Ġfollow ers
Ġ" \
di ag
Ġ10 7
Ġnumer ically
Ġcalcul us
st ret
Ġtransl ated
Ġreg ard
ab il
^{ [
sig ma
66 8
ro y
Ġh al
p ine
ar ithmetic
col m
f ers
. """
e ons
ern els
risbe e
Ġp p
Ġw are
return ed
i ant
mat ches
Ġrad ic
Ġcircum radius
Ġ1 999
ru le
og urt
ĠR S
Ġrequire ments
ffe ine
prime factors
pos ited
Ġ13 8
T E
} ".
q q
right pt
left pt
f old
}} [
ch ar
Ġ7 50
ĠAE D
as sign
! }+\
ĠA sh
ĠO therwise
16 7
Ġ1 14
Ġpan cakes
Ġamoeb as
ci de
arg ets
sod as
Ġsign ific
tim ate
G re
b ikes
Ġfactor izations
Ġshel ves
Ġcriter ia
ĠL iz
Ġdest ination
M rs
Ġbo at
17 6
44 8
si cle
Re ference
Ġsl ips
h ard
Ġcarry ing
ĠO ver
Ġdi rections
rain fall
Ġlight s
ĠSe lect
y a
Ġof ten
Ġh ik
Ġline ups
comp lete
Ġs ugg
Ġ14 5
Ġcon ic
Ġcra ft
Ġs oft
Ġfrequ ency
Ġshel ter
AB P
ĠĠĠĠ čĊ
Ġsp heres
Ġl asts
Ġsuccessf ul
Ġs ne
AD B
iff any
congru ent
50 5
ri ch
gues t
Ġtrail er
p ints
ĠM arcus
neckl aces
c rate
Ġgra dient
ord ers
0000000000000000000000000000000000000000000000000000000000000000 0000000000000000000000000000000000000000000000000000000000000000
mel ons
id i
Ġ3 40
Ġlet tuce
ĠT rig
Ġsol ns
comb o
Ġfish ing
Ġconfig urations
j ors
u id
Ġth ought
Ġf ine
ĠC B
Ġsh ark
ĠV ariab
f uel
Ġjo in
deliv ered
mod ulus
Ġst em
variab les
Ġe mb
enn eth
war ded
stret ch
Ġconfig uration
c ro
Ġv ideos
for ce
fin ity
clo se
L o
on a
c ds
ck ey
el ace
ĠSte phanie
19 4
)+ (-
ch ol
Ġ14 3
st at
Ġjo gging
Ġl amp
Ġs ci
min s
unc hes
od y
A p
he red
or a
or tho
Ġcount ries
sw im
Ġar tic
inter vals
pl aced
142857142857 142857142857
Ġj erse
s ong
Big r
Ġproportion ality
T w
Big l
ĠC AB
)) $,
Ġspec ify
e mails
Ġpo s
ĠA pp
Ge orge
Ġbe ats
ĠA ustin
45 5
var phi
Ġb rick
Ġmo use
Ġmultipl iers
4 99
mp ts
ĠS ta
Ġover time
12 000
b elow
67 89
ve getables
Ġspec ified
}$ }.
Ġexpon enti
Ġear li
Ġp ace
j am
Ġreason ing
ar ons
ĠDe cember
si tive
re ach
i as
Ġe ars
Ġsal t
Ġpot ato
Ġman ually
Ġmag az
Ġnumer ic
sa il
u z
d ad
g h
h orses
ĠR ich
til de
ho p
Ġfr ank
prob s
Ġj ames
Ġun iqu
Ġcar n
candid ate
Ġe ye
ĠA li
Ġstore d
Ġnewsp aper
D i
Ġli ons
olph ins
se ctor
Ġ19 87
Ġconf ir
Ġwe ather
f ix
t ure
20 3
st ra
Z Y
Ġch at
exp onents
Ġfor est
> >
year ly
17 7
Ġc able
Ġtyp ed
Ġtyp ing
Ġdepend ing
Ġsl iced
Jo e
p ing
Ġex it
c col
Ġsup posed
464 1
E NE
Ġ( "
Ġmatch ing
Ġst ruct
Ġca f
} }\\
ĠY Z
Ġ5 55
Ġtrac t
2 33
Ġr h
Ġ20 13
Ġ8 40
ach ary
Ġh ired
ĠPermut ations
br ushes
Ġprov ides
ilit ers
M ath
Ġdon ation
home work
Ġin fl
P r
Ġm achines
bor rowed
Ġiter ation
Ġwas hed
at tendees
ĠValue Error
] +
con es
Ġlaw ns
Ġp ort
ĠM B
Ġpri mitive
el i
ĠJ ones
ici a
Ġw ed
Ġoutput s
Ġmention ed
Ġin dices
i ors
Ġs li
20 9
n ut
p B
str ings
Ġradi o
Ġeas iest
f lav
ĠShe ila
ĠG race
B oth
M L
ĠB PC
Ġg x
cos ine
ĠC arter
Ġas sert
ĠB ruce
re hen
ĠĠĠĠĠĠĠĠĠĠĠĠĠĠĠĠ ĠĠĠĠĠĠĠĠĠĠĠ
3 27
k id
op posite
Ġlad der
Ġac cum
A d
20 12
Ġb rand
)/ ((
Ġwind ows
28 6
Ġside walk
Ġbo dy
T R
lo aded
be c
Ġfact s
Ġcomp onent
pq r
Ġpull ed
Ġto uches
ren der
Ġex hib
15 7
Ġfe es
Ġmat ters
Ġjo gs
h ips
Ġ199 3
Ġpu dd
d ar
s tics
Ġ1 100
Ġ15 8
R ectangle
Ġj azz
Ġin it
ĠF igure
Ġte ach
ic ity
ch rist
ĠE ndArrow
Ġ\ %
Ġv ary
50 1
ys cale
answer ed
jump s
urren ces
ĠPl ane
Ġbouqu et
Ġth rew
t ings
Ġi y
if er
d resses
seg ments
Ġpair wise
ĠF lorida
6 60
e ating
Ġrepl acing
rev olution
7 84
w is
Ġ9 87
ĠT w
38 5
Ġdi o
Ġgener ates
Ġy arn
wide hat
Ġbe ll
ers enne
> :
}} =
pre vious
ĠT yler
team s
Ġ13 1
Ġt ill
Ġcyl inders
all en
Ġpa pers
du ardo
mark interval
Ġisland s
le ap
tt qq
Ġis n
Ġrequire ment
Ġjew elry
Ph i
Ġk o
Ġprepar ing
R a
Ġmon keys
Ġopp on
Ġinter pre
Ġclimb ed
W arning
b ad
Ġmanip ulation
is m
text tt
min imize
7 80
Ġve get
pat tern
Ġswe aters
Ġre port
ĠE E
14 1
U se
ĠFactor ize
Ġl ives
Ġ2 21
du cing
J anet
even ing
ĠRa tio
un ior
ĠS plit
pen AI
reflect ed
Ġ20 15
vie ws
h old
Ġsumm ary
Ġin sight
Ġch anging
Ġapproxim ation
il ing
i h
g ent
Ġde corations
ib ble
Ġcon ne
Ġsignific ant
Ġ24 5
Ġm eg
13 00
199 5
er cial
)[ :
fig size
ok es
Ġ3 99
ĠRo bert
ĠNo ah
seven th
s ine
ĠM ulti
Ġless ons
ig hed
Ġcompo sition
graph y
al ice
Ġkeep ing
16 4
199 0
324 324
Ġf x
Ġmode ls
Ġat t
Ġa ds
Ġcan ce
K im
Ġp C
Ġcomp rehen
Ġdio phantine
Ġb ugs
Ġcy clic
}) \]
h ig
i pp
ĠG CF
an o
ĠT ru
Ġfl avor
F urthermore
leg end
g ly
",( .
P o
Ġde composition
j oint
ĠFeb ruary
45 9
Ġstr ateg
Ġf acing
ĠMean while
ĠR ight
bab y
Ġ" /
isher man
cur sive
ann ual
ĠP i
Ġbook store
P O
loc ity
Ġ4 32
any a
O Y
ĠLuc as
Ġbe at
Ġsto cks
$ ;
A S
("$ "+
on ical
15 3846
E B
Ġt unnel
new command
k es
Ġclock wise
T C
x f
ĠP G
Ġpro fits
19 89
9 60
Ġo reos
Ġin eq
Ġsn acks
ĠCoord inates
Ġun i
Ġpuzz le
n ine
int en
be ll
E G
h istory
Ġc p
Ġsuper market
ccol i
ather ine
() `
bl ique
Ġbus hes
( );
s poons
Ġm ass
Ġi ll
Ġdo ctor
ĠCo mbin
ĠF in
ick ers
ven a
ĠE C
ĠJohn ny
Ġware house
ĠB p
to oth
Ġbutter flies
ight s
run o
Ġa warded
Ġ3 30
Ġen ded
al i
Ġm g
ĠB F
ĠTh omas
con version
Ġ36 00
b icy
Ġ15 6
Ġlo af
Ġat tendees
Ġaltern ative
et te
Ġfund rais
U N
l er
Ġp ipes
mis sed
10000 00
Ġdistrib utive
)+" $",(
h ow
N x
candid ates
] },
Ġback ward
Ġthrow ing
Ġwe ighed
g art
Ġhalf way
ĠJ ohnson
Ġexce eds
" ],
ira vena
Ġen larged
Ġcon text
3 90
2 66
7 60
Ġ10 9
ĠH ans
ĠA ust
te mplate
bec ca
Ġuniqu ely
Ġ14 2
Y our
Ġt argets
Ġcon cept
fro gs
le af
ĠDe mocrats
hund red
apart ment
Ġ199 6
st ation
36 5
} ~?$$
Ġrelations hips
cc c
rabb it
Ġseas ons
ĠGer ald
! $?
] }{
eter ia
inder gart
Ġsn ake
Ġdis ks
comput er
dd y
s ample
z ip
cri ption
urn iture
am on
ĠW alk
Ġren tal
Ġf its
Ġho spital
de fine
J uan
de posit
mo de
Ġsh ampoo
wide tilde
im ent
us r
m achine
ĠB arry
Ġad verti
l ie
swe ets
18 2
CD E
Ġm ango
Ro otOf
ĠE n
et ric
ĠH annah
ĠB eat
mod ulo
Ġparti tions
Ġschool s
Ġde cade
res a
Ġsupport ing
to parc
Ġfro ods
tic ing
ast ed
Ġrest s
Ġcompos ed
angaro os
W here
C AB
f rank
) ',
Ġ199 5
}) }{
ĠRep ublicans
Ġbicy cles
} [
enn ifer
Ġprof ession
A AB
Ġs its
ĠAl an
on da
Ġpost age
ĠS tan
Ġdenot ing
Ġ1 17
st roke
ĠB ert
ABC ABC
w ant
bo at
Ġ13 6
in c
ĠG B
22 1
daught er
iter ables
Ġsol ids
stand ard
Ġar rays
Ġmag ic
ti tions
F B
do zens
ii i
9999999999999999 9999999999999999
ĠC all
! .
k o
Ġfavor able
at as
Ġflo ating
Ġexpl icit
y er
ĠSte ven
J erry
Ġs creen
P utting
ĠTom my
') [
24 7
ĠAll ison
Ġlo ser
plan ks
$ }
Ġcoll ege
A nother
Ġro cks
pu zz
J eff
K e
}} ,
or us
rid es
win ning
ĠD A
C LU
l iz
cl ub
Ġdifferenti ate
ĠR es
Ġpre v
Ġse lection
array stretch
yl an
Ġrecomm ended
aro ons
ĠR ot
ĠDen ote
re newcommand
@ {\
Ġdown load
\% }$.
m ic
short s
Ġh int
si us
mar ch
Ġalb um
ur y
pass ed
ĠAE B
2 75
Ġ199 8
in itially
Ġi dx
ĠE aster
M ichael
ĠC am
at tend
sa tisf
Ġbreak s
ch il
D M
m ate
Ġap ex
Te X
d ge
f ence
Ġp ure
Ġlinear ly
ĠLa mbda
Ġcl assi
26 4
ĠCan ada
p ole
Ġgrand mother
Ġ- --
ĠMon ica
ste ak
Ġ" )
Ġdraw ings
10000 0
Ġsi zes
ĠS ort
ch in
nit udes
Ġtri al
ho e
fin ish
Ġma jors
py ramid
Ġ12 2
17 9
Ġprint ed
Ġm ice
ĠS an
Ġgy mn
Ġutil ize
occup ied
wash ing
E Q
erm an
ĠM art
In stead
m ac
Squ ares
c enti
Ġappropri ate
Ġcater er
+ .
Ġ18 4
Ġ12 34
pe bbles
Ġ28 5
ĠBeth any
light gray
ĠTr ans
Ġpe ars
Ġcaf eteria
bed s
Ġ3 80
Ġsun ny
bu ckets
ĠIn c
Ġas semb
Ġh ike
determ inant
Ġwe ar
Ġbeh ind
ĠB rit
D istance
}} (
uc chin
C all
Ġgre w
Ġcomprehen sion
/ (-
Ġman ner
Ġ1 16
Ġcon sume
Ġb its
m otor
$ ^
Ġg one
}} =\
ry ce
dri ven
Ġser ved
g ae
h yp
Ġch amp
20 20
Ġthrough out
ing ers
pe pper
Ġ( .
Ġstraight forward
th ur
p O
)) +
Ġcho se
ti kz
pl ate
Ġpo cket
et y
Ġ1 90
Ġti ed
S even
Ġhe avy
ĠF red
Ġcommon ly
Ġd rew
Ġg ira
l ater
ĠT est
Ġno on
} ).\]
Ġeigen values
l ink
Ġ24 00
Ġinvolve d
Ġcla im
al ter
bor n
Ġt ut
si blings
Ġ19 3
Ġ Ã
un nies
f air
ĠW ilma
15 15
^{}_{ }$
an essa
Ġtra ps
s till
an thia
ist ors
Ġent rance
Ġto ilet
ĠIncre ment
Ġcart on
b ank
Ġloss es
Ġpor tions
co w
pars er
m any
sh ared
r unt
Ġinput s
cost s
26 5
Ġsh rimp
tra ining
wall s
ĠV ictor
Ġmulti set
Ġunit size
Ġarri val
us si
Ġsupple ment
t uples
) '
Ġthe ory
Ġde ns
p uppy
Ġc ast
8 57
Ġco aster
Ġ5 60
comm ittee
fr ont
co con
ĠUS D
deliv ery
ĠO ct
ap pl
Ġdeal ing
Ġre co
Ġweek day
2 36
(\ #
lli pop
Ġ2 0000
28 1
Ġsal mon
C ount
Ġdam aged
mat t
Ġben ch
Ġfast est
break fast
ip ython
integ ral
Ġli z
Ġconson ant
Ġat tempts
Ġon ions
Ġall igators
Ġswim s
\ },
Ġt ulips
lo e
ĠFlo at
on ies
k ittens
ove mber
Ġtour ists
I P
ol ds
ve t
ĠSam antha
lo aves
A dam
te a
Ġcomm ittees
Ġfly ers
ĠC os
ten th
Ġcl ar
Ġw ishes
elo pe
Ġexp lo
Ġ6 50
fe ed
Ġ| |
r gb
Ġdens ity
Ġat tain
Ġenclo se
di a
Ġs und
arg in
te in
cor ns
ren da
+ ...
Ġx f
ĠC AD
ĠJ ean
bow tie
gold fish
Ġrun ner
Ġz e
ĠCl ub
Ġdef ault
Ġconven ience
âĿ¶ âĿ¶
s ures
Ġf i
ir al
ĠO liv
w ashed
3 21
e ast
ĠMax imum
ly ss
Ġfe el
Ġp red
ĠG ra
Ġhairc uts
6 50
Ġsh arks
Ġ' -
ĠAll en
in side
ars hip
Ġph oto
Ġ{ (
ug ene
i tions
6 80
Ġes timate
Ġfo untain
Sy mpy
ĠP enny
ĠK elly
Ġac cess
= |
Ġf le
dro pped
Ġ& \\
Ġshe d
bab ies
Ġlead ers
ĠSpec ies
re pair
ĠC at
Ġcon ference
pt ember
Ġn odes
Ġt acos
Ġ15 4
Ġorder ing
c ity
ĠMin imize
V olume
ys on
Ġme m
Ġiter ations
Ġwor ld
evalu ated
Ġl amps
30 8
ra h
} ",
Ġwho os
ron ze
Ġdiam eters
Ġsh apes
sk ips
v it
Ġcle ver
Ġep isode
pe ppers
Ġbu il
ad poles
Ġrele ased
25 8
Ġt ons
st ones
48 9
: :
mon omial
ĠSet ting
Ġutil ity
cha rac
O E
)- (-
Ġd y
Ġwe eds
ĠA ny
ĠDon na
ĠD ick
Ġproject ing
sho e
} )/
Ġengine er
ĠS ines
pean ut
note book
Ġw ild
but tons
B ox
Ġwra p
Ġvac uum
Ġmir ror
CLU D
Ġla id
park ing
: ])
ĠLe o
os en
Ġband s
represent ation
er ror
ĠC H
ord on
T A
Ġgra du
ra mes
zz ttqq
Ġhol id
or i
Ġbor row
dition ally
Ġcontrib ution
unt e
Ġcash ier
Ġcont act
in ets
t ol
lo gs
Ġstrateg y
Ġpas ta
Ġcre ates
Ġjack ets
======== ========
Ġp ur
l ab
u ition
e vent
inten ance
| }{|
m ushrooms
Ġi d
tit or
Ġle af
Ġfri day
ĠT aylor
S olutions
or ch
ic ult
rational ized
iss ues
ĠJ oseph
ro llment
Ġcomput ers
Ġcour t
o ll
Ġqu ilt
d ue
the y
M s
ĠG rant
r ings
I C
comp ose
W NW
con fig
ar m
Ġ/ =
sp ot
Ġradic als
c ies
\[ -
Ġautom a
al a
ext er
Ġ' '.
Ġl ying
ac re
essi e
L ength
Ġn amed
ratio s
Ġrecent ly
Ġgre at
Ġplan ned
y oun
Ġlang chain
v ars
Ġp B
Ġcoin c
contain ers
hen s
ca led
') (
stu dy
(" '
Ġo blique
edi ate
Ġsol s
ch ing
replace ment
Ġcook ing
Ġc ros
Ġ2 22
ĠMo lly
cart on
filter ed
Ġpy plot
Ġth ough
l ife
inds ay
Ġintro duce
12 12
or n
Ġback wards
en us
Equ ation
ph ysics
Ġs mo
Ġm all
') :
Ġreflect ing
ut h
Ġli quid
st s
Ġreal ized
Ġthir teen
Ġm aps
M ac
50 7
Ġmag nitudes
40 7
run k
Ġiss ue
comp any
m ay
bo uqu
Ġbot t
ey e
}} }{
Ġpack et
ĠN x
ĠB runo
Ġlist ed
m ichael
Ġus ual
rect angular
pro ject
ĠM andy
cy cl
p ots
Ġh ill
Ġref use
Ġgrand father
co us
18 8
Ġfundrais er
3 99
00 9
} %
) %
pro babilities
Ġ ));
at hered
Ġ{ $
lemon s
Ġ199 4
Ġtow ards
Ġcurrent projection
Ġwed ding
Ġre duction
ab ab
ĠSam uel
Ġmanip ulate
O F
Ġparamet ri
Ġsp ider
ĠB ag
kn ives
> $
Ġh ire
Ġcl ubs
Ġsquir rel
ion a
Ġparti tional
Ġgen erator
Ġr and
comm ission
Ġsn ipp
Ġv inegar
ĠS usie
um b
Ġex change
Ġcom ics
Ġun cle
squig gly
jo e
Ġlin estyle
ĠRos a
f at
Ġh idden
Ġr s
17 1
k itchen
Ġ' ''
text size
Ġf at
)^ (
read s
Ġun shaded
Ġassoci ated
Ġp unch
37 6
Ġcon d
Ġk ph
Ġcent re
dis hes
ĠAmeric ans
sem ester
W W
n u
rec urrence
un iform
22 8
week days
Ġclear ly
Ġus ually
lo se
ĠJosh ua
a lent
20 23
Ġmix ture
Ġde posited
izz es
2 90
23 1
ĠB A
ĠSo me
ak ota
org an
ch anging
Ġlat ter
ĠB rad
lo an
ĠG runt
ls a
R ange
Ġexpress ing
7 000
b on
ĠT H
D ots
j ay
ĠK ate
birth day
Ġsilver ware
stre et
follow ers
T an
Ġ' (
be ars
Ġcocon uts
t iny
Ġmag ician
Ġno tices
Ġsk irts
) }$,
O H
13 57
Ġ },
tri als
Ġle ash
height s
âĢ Ŀ
Ġwh y
ĠB rianna
Ġmo on
ĠInteg ral
ĠBrand on
Ġsymbolic ally
Ġ40 96
w id
qu e
ï ¿
Ġbas is
Ġstat ue
ph an
Ġinterest ing
me lets
Ġk nit
Ġbe es
ik o
pars ing
Ġco oks
gn ant
Ġ ')
........ ........
30 1
Ġ| -
Ġ20 1
Ġra ys
ick ey
Ġdro pping
ĠLe ila
ĠF ile
Ġb unch
Ġrese arch
bab ys
si eve
Ġlap top
Ġa unt
10 50
Ġal gae
ass ets
ĠTo gether
2 0000
b h
77 4
s creen
Ġg iant
equ ence
ĠConvert ing
Ġoffer ing
. </
Ġ20 17
Ġnot hing
30 7
ale b
l ake
})( \
)] ))
Ġcard inal
mark ers
Ġswe ater
Ġsw ord
ĠB X
Ġ8 000
ul ated
Ġ20 11
valu ed
Ġbr anch
od les
g ive
b est
fam ilies
Ġbouqu ets
de bt
Ġif f
67 9
bor der
ĠP AB
else y
Ġbow s
ĠJo ey
mes h
s cal
di me
dro p
R em
la wn
Ġt on
ĠĠĠĠĠĠĠĠĠĠĠĠĠĠĠĠ ĠĠĠĠĠ
qu o
eng lish
Ġ20 20
g ives
l iving
ĠJ ess
re ward
Ġb arb
$ </
um m
ab it
T ri
Ġpri ced
ĠC p
do cs
B o
s pl
O ption
Ġteas poons
P i
d one
an ks
less ons
Ġequivalent ly
Ġm ilksh
Ġgrand children
V ert
j im
in oes
Ġre member
Ġsun glasses
r at
ad ding
ï¿ ½
Ġir ises
d runk
Ġs age
60 25
} '
ĠI m
ma il
ero me
Ġbuild ings
Ġnewsp apers
Ġp it
en ve
16 3
rig inal
Ġleg os
Ġ40 5
div ided
Ġp ill
Ġtro uble
ing re
Ġac re
Ġf ans
Ġbe ad
Ġst ays
Ġfl uid
Ġoff ered
Ġ$ {\
ĠM ah
Ġaf ford
w x
Ġdes k
ĠC BD
70 5
35 5
ĠB onnie
now s
$ };
Ġquadr uples
Ġto aster
se at
Ġpres s
ri ct
ĠB ank
bl ank
Ġplot ting
Ġin spe
65 6
^ .
ĠP M
st age
8 000
n ickel
Ġtechn ique
f ishes
th rough
Ġt ig
Ġpo ll
Ġquadr uple
Ġf ed
9 80
ĠD ifference
jor n
Ġearli er
ĠU p
ĠJack ie
Ġc is
Ġc rt
pri ze
}} +
ĠS lope
Ġlot tery
Ġstuff ed
ira ek
{ }.
in u
34 2
And y
bra ry
ex er
ĠD ylan
ĠC al
Ġrep orted
ore over
Ġto ol
ĠF loor
Ġ12 4
ĠMarg o
Ġa y
use um
mo unt
mall est
sn akes
om inator
ĠAB P
h unt
Ġcon crete
ade line
fl ips
ĠAD B
â Ĥ
al ph
Ġb ul
Ġstre t
d est
2 187
ĠH ug
mess age
Ġwhoos its
b at
Ġsome one
Ġhex agons
d c
Ġth ursday
,- \
Ġpar ity
16 1
u cy
Ġtra ys
Ġr ubber
ĠBeat rice
us ers
ĠE duardo
pm f
Ġthir ty
Ġmarath on
k w
ab solute
Ġun painted
Ġgl uten
burn ed
Ġres er
ih u
Ġc se
Ġcl ay
Ġ14 1
variab le
s cience
Ġtr unc
ĠB OC
Ġ' .
x s
pill ars
ĠS ara
The ir
ath y
Ġman u
Ġrecor ded
ihu ah
2 17
atas et
Ġdo or
') ]
Ġpart ner
ico le
a hedron
di rect
39 8
Ġm ike
45 7
p ull
ex ample
Ġsystem s
ri pe
Ġ16 7
Ġcoin cide
R eturn
Â «
st on
Ġla ws
Ġlit ter
Ġburn s
R egular
Ġ( (-
emp loyee
ĠF urthermore
48 6
plan ation
m usic
Ġocta hedral
ĠMari ka
c ance
sol ver
Ġex t
29 8
)}\ \
Ġoptim ize
decre ase
22 6
allow ed
] )))
j une
Ġman ages
Ġch urch
ĠN ovember
ĠPer imeter
op her
ĠS k
Ġy et
len a
Ġstri ps
w ing
ĠA Q
Ġst aff
Ġbrace let
te as
cor ner
p igs
Ġpoint ing
et ing
BE C
Ñ ģ
* $
H D
Ġ3 33
Ġ5 76
over time
p ictures
Ġ16 00
v ations
} &\
differ ences
b ased
ĠC lass
Ġad just
enti ally
co py
ĠR un
Ġche ap
ĠLe ah
Ġgroup ed
ĠMid dle
Ġback pack
35 7
Ġincl usion
G E
R es
\ |\
Ġterm inate
Ġdon ates
ĠPat rick
ĠH H
ĠK ayla
Ġexam s
ĠDiv is
A ny
M att
rect angles
Ġdo zens
! $,
Ġsp ades
Qu ad
allen ge
Ġben ches
Ġo ysters
Ġiter ating
Ġenve lope
ĠB ryce
l isa
hoe be
Ġattempt ed
i ents
f requ
em ily
Ġbir ch
gum balls
ĠS H
(' '.
ĠC re
Ġad mission
st ay
a pril
ĠUn fortunately
se ctions
Ġt asks
Ġv ers
Ġ\[ |
Ġto pping
wind ow
ĠM ars
ck ed
1111111111111111 1111111111111111
b les
29 7
ab rina
le ting
car l
arri val
r ated
ĠBren d
o ols
49 5
)[: :-
Ġk ing
Ġge ck
part y
Ġsecret ary
ĠF re
Ġeff icient
Ġ$ ((
19 3
Ġdiam onds
yl inder
ind ices
57 9
ĠNum Py
Ġ\[ -
ĠM il
Ġrele vant
_ \
Ġd arts
ĠW innie
Ġ urn
Ġpri zes
Ġbase ment
big ail
U M
Ġpl ots
stick er
M ike
d id
(" -
}\ \\
Ġminim izes
c ab
Ġp eter
Ġcomm unity
EF G
pand as
ent in
Ġbe lls
Ġrestri ction
Ġl uck
ĠP en
Ġtri als
Ġpers pective
ĠJan ice
Ġ\ {-
B L
pack ets
D raw
Ġo melet
Ġwe bs
F ound
27 6
R E
Ġsp ins
Ġimpro per
25 1
[: -
or ie
Ġmow ing
ne ver
Ġtran sition
Ġmen u
alan ced
as suming
pr in
Ġsne akers
ĠInt ersection
Ġ20 3
Ġad opted
ok ing
3 10
Ġ3 84
Ġdeleg ates
er asers
et tes
55555555 55555555
Ġmon itor
Ġaver aged
B K
ĠCar ol
ĠS a
und ays
ĠE r
chol arship
Ste ve
Ġhe alth
Ġpre ced
Ġa head
ve hicles
22 9
oper ation
Ġbar rels
un til
Ġappl ies
Ġze bra
re duction
Ġexper iment
er ts
st a
Ġ12 7
eles co
oll ey
Ġcan onical
orm al
pump kin
G raph
ac res
Ġbl ow
ph ra
olley ball
(' -
summ ary
Ġbl ond
um an
mp et
Ġstri p
7 18
Ġth ickness
se e
Ro und
as ag
Long rightarrow
ĠC es
mag az
r st
Ġall erg
il i
begin ning
b al
Ġst acks
imag inary
se en
Ġstack ed
v owels
ĠS to
est o
? ?
sal t
ff es
Ġperiod ic
ur al
Ġtrans istors
Ġso il
app ly
rot ation
A m
Ġsqu at
Ġproce ed
5 67
comb inatorics
13 1
Ġconsist ent
$ "
}) }$.
Ġas sist
pa tients
Ġtransform ed
ysi cal
Ġ2 99
uch y
R P
b acon
} =-
se y
' d
Ġgre y
m ari
87 6
Ġp ars
o graphy
Ġco pper
pt ure
Pro duct
r h
co upon
rid get
Ġsnipp et
ro duction
ry l
ĠU nit
te eth
ip ment
Ġg s
23 45
g us
Comp aring
Ġb arn
Ġdescri be
]}{ [
ĠP p
E SE
Ġ3 42
ĠCar lo
Ġcon sumption
Ġad jo
Ġp r
Ġpro j
Ġmar ried
4 60
Ġch orus
mow ing
b ing
23 2
Ġfore ign
: &
4 25
= $
res id
viol i
gues s
Ġenter ing
C ircles
st uff
Ġdis co
Ġminer als
trac ts
Ġpull ing
iss ant
e v
75 5
ĠO b
Ġreco gn
ĠUp date
Ġpa ired
Ġbat tery
Ġc q
Ġsuff icient
od le
& (
user content
J an
pa ul
bas ic
Ġ19 6
Ġperson al
ff ic
40 8
ĠL una
count ed
Ġtra de
Ġcra b
G wire
))-- (-
Ġat traction
ren s
Ġre vers
Ġfe athers
Ġfor ks
Ġrec ipes
ch ip
Ġhard cover
F rame
ĠR PQ
g enerate
Ġh ypot
enn is
) },
Ġal one
), (-
Ġ20 12
Ġseat ings
Ġapart ments
on ica
hand s
Ġtrail ing
Ġar g
Ġcer ti
Ġmult inomial
) `
ĠLe wis
Ġfer til
27 3
Ġ2 33
Jo sh
Ġus age
ti ls
Ġg ates
act ual
Ġrot ten
Ġob vious
"> </
it ude
uff in
ĠG ian
Ġortho graphic
Ġrel ative
B p
Ġz ucchin
Ġres idents
17 00
17 8
diam ond
iden tity
ĠRa j
C T
Ġmill iliters
ĠK endra
B H
draw ings
Ġgo ods
Ġlog o
Ġfar thest
c alculate
$ ')
multipl ier
ĠT erry
ien ced
ant asy
sweet ened
ĠDa wn
li brary
ĠCh arles
Ġra sp
Ġho p
Ġle vels
Ġcur r
Ġ17 3
)) )$.
64 9
ĠS ingles
Ġl atest
'' $",(
ar pen
Ġg uppies
Ġin sects
ĠA N
ĠM ag
parti tions
Ġ15 9
ĠConst raint
ĠT ime
ar ms
Ġ2 34
Ġ" $\
low est
Ġdefin itions
r ol
ĠSto ck
ĠK at
Ġrequ ests
rac ie
ob ject
ĠPa ula
Ġcous in
Ġcot ton
17 23
Ġuni corn
b anana
ĠOct ober
ta pe
28 47
flag s
ta ining
Ġparabol ic
Ġgain ed
Integ ers
g cf
h is
p entagon
blue berries
ĠD B
cap tains
in clusive
ĠA O
f g
ĠC la
66 4
no align
\ }\
un ific
Ġch annels
97 9
Ġt alk
ĠN OT
,\ ,$
Ġperfect ly
MN O
or othy
Ġcon sumes
co mpl
Ġ25 9
trig simp
j ane
th ousand
Ġbo ards
fl akes
Ġstat ues
)) ])
Ġdiff icult
j ake
Ġ llam
14 92
h its
l ot
Ġmist ake
Ġstruct ure
Ġaccident ally
! )^
~ \
V alue
Ġman ager
Ġpuzz les
P rime
fin ite
Ġ* Â«
Ġse w
=(- .
ene vie
g ate
unific ence
Un Fill
Car olyn
$- $
Ġj ul
Ġsh ade
Ġ7 80
ĠPat ricia
co al
Ġappe tiz
so il
ump h
OR T
Ġpicture d
ĠAng eles
ĠRo ark
y en
Ġg ather
Mac ros
Ġp ublic
ĠO ption
Ġro pes
Ġgrid size
,(- (-
suppl ies
ĠTrig Macros
ick en
Ġcat tle
or is
gra pe
Ġindic ates
} <
sig ns
bra ham
h oney
ĠC enter
t ub
pri m
sw eaters
s usan
ati stics
ĠChat GPT
cqcq cq
light color
ĠX Z
Ġdoub ling
LE M
Ġcq cqcq
Ġsho elace
tax es
rev erse
Ġ[ (-
Ġtrans pose
Ġ4 99
Ġpol es
Q T
u v
2 18
L isa
Ġ25 1
fl ight
tr an
ine a
z i
Ġjerse y
ac d
Ġpi pe
other wise
Ġsen ior
Ġfor th
AB F
uc as
enevie ve
2 11
ĠC ED
199 7
Ġfly ing
Ġ ",(
3 250
v amp
Ġm aster
' _
fig ures
33 7
ĠCel sius
cycl ing
ch ant
Ġhand sh
github usercontent
ig ible
ĠL os
199 6
harvest ed
ĠCombin ations
Rem inder
ĠB ra
Ġcateg ory
po cket
ĠJ ose
arb age
Ġreal ize
Ġexam ine
t ask
Ġjo g
Ġfeed ing
seas ons
a ut
t ulips
jug ates
m ass
pri ces
ĠAl gebra
dough nuts
read mill
Ġfire works
Ġobser vation
M ed
Ġrearrange ments
Ġ15 1
climb ed
Ġunder water
2 15
Ġin f
e arrings
Ġgas oline
Ġper pendic
Ġbro ke
Ġdecre ases
ys is
Ġconnect s
Ġ$ $-
Ġbus hels
) |$
Ġexponenti ation
\[ =
height C
S ide
Ġy en
ĠE ri
Ġoccur ring
is tic
p as
Ġ19 5
77 6
Ġartic les
H E
ĠP D
ren ce
Ġf risbee
Ġ 00
Ġmag nets
re versed
3 14
dio phantine
Dan iel
ĠSt udents
ĠD AC
od ney
red its
Q S
t z
ĠD iana
d om
ffe es
ag ing
ĠEx ample
ĠD akota
Ġsamp les
" ).
kw args
Ġout fit
hig hest
Ġtig er
ur ines
di um
666666666666 667
Ġcon vin
Ġ\[ (\
Ġtra ins
congru ence
h med
)) (
Ġmin i
ex cept
lead ers
{ '
Ġguit ars
co lored
ter gent
de tails
Ġac cept
OB LEM
calcul ator
ĠGrunt ers
H arry
Ġtriple t
E H
dd ar
Ġsp iral
ser ved
P at
And rew
Ġmed al
pack et
Ġloc ations
ith a
Ġup on
Ġf urniture
2 12
ĠĠĠĠĠĠĠĠĠĠĠĠĠĠĠĠ ĠĠĠĠĠĠ
19 00
da isies
ĈĈĈĈ ĈĈĈĈ
H annah
over all
rel ation
Ġmath s
Ġmeasure ments
Ġocc urrences
Ġ3 25
P eter
m ango
Ġspe ak
Ġd ips
)) ).
1111 11
on de
ĠS uper
Ġhigh lighters
pean uts
b its
v iron
Ġrel ate
Ġcomm and
e u
ĠO penAI
ĠI P
par se
P resident
Ġfri ed
b ly
Ġho ps
ke ley
&= &
Em ily
Ġsho ok
l ery
ĠT am
ol ver
Ġ2 29
BD C
le pt
th ough
do ub
F igure
fl at
brace let
seas hells
3 45
draw ing
Ġmist akes
Ġscenari os
Ġwh ales
, ))
f re
) |=|
mod ular
86 6025
Ġgoal ies
ĠChrist ine
ff le
4 40
Ġpara b
)** (-
Ġ& >
ĠV al
ho d
al nuts
Ġ$[ \
pot ato
pen ny
\ }.$
ĠK az
ĠP ossible
Ġbak er
Ġelectric ity
ĠM is
Ġho st
23 8
ĠP ar
Ġmeg abytes
ĠT aking
ach i
Pro blem
Ġdom inoes
Ġ9 90
- ')
Ġbuil ds
play ing
' )))
5 20
Ġth inks
Ġtra ding
ĠLa TeX
Ġex ec
Ġf iles
ar ante
hor se
Ġill ust
Ġri pe
Ġsk etch
y arn
N ine
ĠR h
Ġtouch ing
ĠPa ram
ĠLa ura
sump tions
Ġtri ed
Ġho ckey
Ġste el
296 296
ĠL imit
K aren
Ġfinish ing
p g
75 7
Ġfi ber
l ash
the w
Ġbr anches
bet ty
Ġhum ans
al b
tit ches
ĠMarg aret
f avor
ab undant
b ie
Ġb id
in ia
Ġhigh way
Ġhappen ing
t our
f s
Ġsubstit uted
-------- ----
Ġkil os
to pping
phe ws
}) ")
elic an
Ġas sumptions
Ġdra ma
Ġpower ful
t ray
ial s
Ġelim inated
ty pes
ite Set
ssi bly
war z
ĠT revor
eqn array
ĠMultiply ing
Ġsour ce
as pect
ĠE D
Ġpe ach
} &=
» ¿
Ġpen alty
Ġr ole
Ġst roke
ĠEl iz
r us
Ġf ifteen
A mong
' }$
ï »¿
Ġw ine
Ġhexagon al
Ġfe eds
leg os
or ld
m asks
av ers
Ġ$ {(
ĠL akers
Ġ18 2
g ing
Ġs aturday
Ġ19 8
new sp
A ce
ti fy
ch warz
ru ctions
Ġte mplate
Ġunderstand ing
ĠM ad
M aria
Ġm asks
ĠB oth
Ġcon jugates
y ond
00000000 00
Ġ12 000
cal c
ĠLo pez
)/ (-
Ġcur ves
Ġdra gon
Ġf ingers
Ġde b
28 7
Ġpump s
sh ot
3 66
n simplify
ĠT iffany
Ġweight ed
ĠY an
Ġweigh ing
9 35
e ars
Ġk ick
pri an
Ġperform ing
ĠA T
se a
70 4
Ġbe yond
Ġdo ors
w z
ep isode
ĠAnd rea
de lions
ĠM ichelle
si cles
comb s
Ġimp ly
Ġp atch
Ġ3 240
BX C
Ġdis k
ha mbur
ĠN ancy
)} ^
ĠIII I
o od
Ġgu arante
rist ine
Ġcondition al
Ġ27 00
Ġsimpl icity
cra ft
ch ord
ĠAlex a
Ġf an
ĠK h
ĠDar ren
8 64
a pi
ĠC BE
Ġwa iter
Ġdan ced
ĠPen elope
Ġdo cument
ĠLine ar
arc cot
ĠS phere
3636 3636
C BA
min ist
st one
ay e
i ri
erm ediate
Ġmom s
Ġin iti
19 86
Ġ28 9
Ġ raw
Ġmathematic ian
Ġ13 4
Ġsplit ting
Ġ18 9
C l
Ġ25 5
Ð »
ro ck
199 2
ĠC O
24 4
Ġup ward
Ġen chil
Ġpet als
ĠA braham
Ġk ernels
Ġca used
Ġpost ers
Ġsubst ant
Ġne ar
l b
Ġcontrib utes
at tended
Ġ/ *
, ),
32 9
Ġshow ed
fin ished
it ter
pl ain
Ġspot ted
I D
g uit
ent ly
mp ty
Ġstation ary
N ot
mo s
Ġgu ides
con son
âĪ ļ
Ġconfir m
m aster
d ig
Ġstay ed
. {
ac he
mile age
Ġar ms
Ġdes cending
z art
Ġc ara
38 6
Ġintern et
ĠI mport
Ġup hill
at ts
48 5
par tic
Ġfinal s
Ġmeat balls
Ġ| (
Ġin ser
pop corn
c ine
z il
29 5
trave lled
br ush
ĠLou ise
j ill
Ġcl ient
Ġg olden
00000000 0
Ġn ap
34 9
7 86
ar ant
}} }$
lemon ade
puzz le
b ble
Ġto tient
vac ation
Ġtract or
Ġd ads
Mon day
Ġjump ing
40 5
lect ric
Ġspec ies
Ġt elesco
Ġmile age
Ġdesign ed
Ġbed rooms
)) )))
Ġ18 1
sn ack
y ield
\% }
Ġlay ers
co at
Ġc row
**** ****
ĠW orld
b ones
Ġs us
Ġsub tracts
Ġindic ate
rit os
b cd
ĠJ es
cot t
Ġbat ter
4 27
Ġpi ano
is land
Ġm useum
Ġclimb s
prin cipal
N M
ust on
Ġco ats
st rawberry
14 76
Ġb a
Ġs iding
Ġk ings
ĠG ary
Ġpol ice
u dy
iv ers
Ġup wards
Ġperm ute
bath room
Ġluck y
night s
o sters
q r
ĠB ig
36 9
Ġprevious ly
Ġcontest ants
Ġfunction al
H enry
m g
co aster
Ġn C
Ġre ward
O b
Ġ19 60
Ġf are
con s
Ġdis e
ĠBC E
Ġc um
ĠB B
Ġscal ars
5 25
rac hel
Ġorient ation
w alks
con tains
Ġjo ins
Ġhik ed
ab eth
Ġal mond
ĠK ylie
Ġti re
sl and
Ġw ave
rabb its
Ġn ested
Ġv olleyball
ĠN athan
Ġsur pr
v space
ĠB Q
Ġhairc ut
3 88
ĠP ower
indergart en
\[\ |\
ĠWalk er
Ġg mpy
ĠF inal
25 7
Ġbasket balls
Ġsun flowers
22 7
Ġgro om
Ġpot ential
Ġ }{
os a
Ġcy cles
Ġbol t
= >
Ġcheese cake
ĠB EC
a a
Ġw ings
Ġw ish
Equ ilateral
ĠAP D
Ġm ows
ĠT ra
Ġflight s
Ġmanu fact
ca mp
Ġcompe titor
Ġ\\ \
ĠPro mpt
Ġcarri age
ati ma
Ġh anded
j acob
> =
17 4
od ds
Ġt ins
ĠM ersenne
ĠSy dney
Ġmathema tically
. ",
V er
Ġmar ching
Ġplant ing
sp ends
Ġw ages
vit ational
Ġp ascal
Ġcomm ercial
ĠCo st
n al
ĠSt ore
ĠCes aro
ot ers
Ġbe long
her s
ĠO lymp
ĠV anessa
og i
- |
sa uce
Ġso on
D BC
Ġadd resses
L N
%. *
ĠAP C
ĠMal colm
Ġcha pters
33 8
\ }}$
un known
Ġpair ings
Ġsession s
ĠI sland
Ġve locity
Ġsand box
ĠVariab les
Ġw rens
ythag oras
ref lection
Ġsuppl ier
] ]))
ĠLou ie
Ġf isherman
ĠC ont
Ġwor ms
ĠX avier
Ġli p
ĠCa uchy
ĠAc cording
e igen
Ġ12 50
Ġstre am
Ġcontrib uted
w ks
65 43
4 142
ĠA OC
32 10
sist ers
sub tract
432 10
R ed
wh at
$ ".
F I
7 23
10 23
amer a
48 4
ĠD ist
ag le
ĠG abri
Ġsci enti
z x
ĠD BE
Ġsho vel
: %.*
+( .
Ġa z
< -
le tion
para gus
Ġ9 000
sy mmet
Ġapp end
D er
i ous
\ |^
}) +\
Ġdot ted
Ġscale ne
ĠE ither
a es
_ ,
Ġcl ues
F rank
Ġg over
Ġgu ide
Ġmac arons
bow ls
Ġmathematic ians
abit able
Tri angles
H ar
m arshmallows
Ġ3 0000
print s
Ġpath pen
Ġf ibonacci
the orem
Ġtri cks
Max imum
ĠSub tracting
ingre dients
ĠĠĠĠĠĠĠĠ čĊ
Ġ8 88
wind ows
so ccer
ti ps
ĠP ick
Ġ16 4
Car la
ow ed
27 9
ond on
Ġsh aring
lor ine
{(- \
fe b
i j
an imal
p atches
ĠC x
Ġappl ication
end or
Quad rilateral
C AD
Ġf low
Ġpast ries
ĠStart ing
< \
Ġ= ',
gy m
Ġcol d
Ġobser vations
gain ed
ti s
12 96
19 20
Ġ99 8
Ġ0 1
999999999999 99
|- |
Ġt ag
Ġd olphins
Ġbill y
hairc ut
off ic
Ġ3 250
! !
| .
en ate
ĠG C
Ġtrapezoid s
substit ution
m u
With out
ĠG ener
Ġell ip
) ((
out come
ĠAust ral
Ġp irate
ĠP F
Ġsa fe
che stra
ĠBu ild
Ġde cor
d ark
20 6
Ġman aged
Ġf rench
ĠS p
th rown
H I
Ġre arranged
iv er
Ġpro mpts
cance l
Ġt v
ey ed
al gebra
ch ores
Ġwater melons
Ġm unificence
Ġreg ister
Ġindivid ually
C or
R T
V W
ĠDE C
st ery
ĠB rown
&= -
46 2
ri bbon
frequ ency
ul ars
sit ups
Ġ2 12
def icient
28 00
Ġde compose
let ely
Ġa gree
com mod
rang ian
)] ])
big Hexagon
ang s
ca pe
vis its
allow break
ĠRich ard
Ġare n
ĠB ern
Ġanal ysis
Ġhambur gers
ag rangian
tsh irts
Ġadjo ining
^^ (
Ġco al
Ġtransform ations
state ment
it ations
sn ake
Ġ$ =
Ġcan vas
] =
(- .
ush room
ele phants
Ġk angaroos
66 5
arrange ment
Ġdis cus
la id
Ġc brt
cl uded
Ġdef ines
Ġbr ush
Ġimpro ve
L L
c g
h usband
Ġi Ph
b uses
Ġt ubs
Ġtri es
ĠB ach
triple ts
Ġ est
Ġsome where
c line
Ġl ined
mo ved
Ġveget able
Ġ3 85
ĠAl berto
ic ated
effici ent
) }}$.
+ $
6 70
_ (
ĠE lla
ķ ±
Ġsk y
Ġparen t
100 3
in ners
ĠLa uren
or ial
âĶĢâĶĢâĶĢâĶĢâĶĢâĶĢâĶĢâĶĢ âĶĢâĶĢâĶĢâĶĢâĶĢâĶĢâĶĢâĶĢ
s ally
Ġangle d
ass ump
Ġtick marks
)) )/
rom otion
ĠV enus
div ide
ĠA ugust
base ball
* ((
Ġg ri
AE D
Ġjob s
mp math
A my
inator ial
fr ustum
gra des
ret ty
ĠNat alie
ess erts
Ġ2 36
Ġess ay
> \
expen sive
J enna
con om
g uppies
Ġxy text
E ight
4 28
Î ¸
ĠÃ Ĺ
)* -
Ã Ĥ
er leaders
Ġro utes
Ġqu izzes
E n
3 125
Ġcre ase
Ġ ;
to ken
nb sp
Ġ2 75
ĠE li
ortho graphic
ri ots
$", "$
Ġad option
che ll
ĠBe fore
ol der
sy s
co urse
44 9
Ġpow der
weight s
R A
I H
.. {
convert ed
Ġbott ling
Ġh ose
no x
AC H
ĠT T
spot ted
Ġb alanced
Ġro b
33 9
start ed
Ġca len
G P
} |^
in ations
Ġpa w
48 8
Ġpreced ing
Ġre writing
ex change
resh old
lo af
Ġ18 3
ĠC ory
ĠMatrix Symbol
ĠQu entin
ĠP y
watch ing
Ġbe lie
she et
Ġph ysical
Ġgrand sons
Ġcot angent
Ġ3 12
\] .
Ġ23 1
ret chen
Ġlearn ing
Ġkno cks
ĠCl are
count ing
ad as
*} \]
Ġen counter
ata Frame
Ġ20 25
Ġcol our
Ġcarn ations
Ġtrans fer
no vels
Ġprac tices
ĠD ot
ĠAn ne
scal ar
div s
app ed
Ġâ ī
j ason
Ġn simplify
arb y
measure d
Ġcolor ing
ig e
Ġ' $
Ġ19 86
Ġimplement ation
Ġd re
ĠS undays
Ġr at
C arl
cl a
Ġpig eons
ĠR PS
Ġright anglemark
ĠAB O
Ġpan els
Ġin fo
Ġsqu ig
! ,
Ġli on
Ġd aps
Ġmer chant
5 60
ĠEx actly
lad der
40 4
Ġra ft
Ġ16 3
ran ola
Min imum
Ġ14 9
vel vet
################ ################
le c
} ",(-
ĠCheck ing
Ġsy rup
reci pe
Ġ4 75
Ġnon agon
St art
rot ated
) }$$
ĠS qu
ĠN ormal
ĠComp lete
Ġsearch ing
13 56
S chwarz
J immy
int on
sc her
ink les
Ġencount ered
Ġy ahs
fe athers
Ġpop sicle
an es
en umer
Ġde velo
mm y
is ing
un cy
we eds
Ġser ves
ĠT er
Ġpoly hedron
ha ired
Ġmow ed
lyss a
Ġwill ing
sho p
ĠA nother
ĠO l
om s
pa in
ess or
lin solve
per c
)^ ^(-
ber ly
Ġgra vitational
ĠTh ird
al ia
Ġsa rah
fic ate
pres ents
Ġstu dies
Ġl asag
Ġimag ine
--- |
proper ty
ĠĠĠĠĠĠĠĠĠĠĠĠĠĠĠĠ ĠĠĠĠĠĠĠĠĠĠĠĠĠĠĠ
Re member
Ġa side
Ġsuit able
ar mer
') ),
99 2
l atest
Ġover lapping
ond as
con sist
ĠAl icia
deg enerate
Ġamoeb a
ĠDor othy
Ġy lim
Ġs of
Ġmanip ulations
ag u
(' (
Ġg athered
Ġc ubs
Ġk i
let tuce
Ġwebs ite
S ally
k y
v ina
Ġdraw Squares
si ble
h omes
angle E
26 00
O mit
ĠRe arrange
Ġmin s
Ġexp ense
c b
res pective
Ġf n
$\ \\
,\,\,\,\,\,\ ,\
he misphere
ĠDan ie
Ġo s
ro of
4 37
ĠC ylinder
Comp lex
Ġprep ared
charac ter
Ġiniti als
Ġprofession al
Ġw ore
a iled
Ġreturn ing
butter flies
G A
if es
ĠDi ego
ĠN ina
35 6
G C
Ġattain ed
mesh grid
La mbda
Ġwas hes
Tw enty
ass is
ĠB ird
ĠMo zart
ĠL y
ex cluding
sp herical
Ġ123 45
Ġinvest s
ĠMathema tics
sub plot
le arn
Ġra ining
Ġcho p
Ġclass mates
sub bed
}} ,\,\,\,\,\,\,\
ĠComp lex
Ġstation ery
34 7
Ġsl ot
.\ ,$
Ġsk ate
ri et
non umber
V D
other s
ak er
Ġsit ups
Ġen jo
96 7
ĠM oh
Ġtall est
f rench
Ġmotor cycles
P AB
$ (\
60 1
Ġelement ary
un ties
appe ar
Ġf rames
ĠG P
), \
ĠI R
nox ville
4 70
Ġs d
out side
ĠP retty
ir ty
Ġmaxim a
les son
46 8
Ġto ast
)) )*
] )*(
ĠThe resa
Ġ45 6
& $\$
Ġless on
us ages
ĠM iss
15 20
Comp letely
Ġperpendic ulars
4 66
C p
T uesday
Ġadd Dots
88 7
water melon
s cript
ex clusion
Ġle ak
bu ilt
ĠTr unc
S A
Ġl assis
D o
Ġlogarithm ic
Ġsugg ests
Ġlect ure
enve lopes
j a
Ġpl at
50 40
A li
wid gets
Ġno ticed
cl oth
S D
ĠAl d
ut ch
Ġdown hill
47 8
cent ers
Ġsaf ely
Ġproject s
P x
o ster
Ġth irds
Ġdis joint
ĠJo el
long est
Ġdeleg ate
G B
ĠM iles
w inner
so ap
ĠRe pe
Ġb on
26 8
ĠSe an
foot ball
50 9
Ġq r
ent ers
ĠF atima
33 5
Ġlab or
Ġsho oting
ĠHe idi
6 75
ĠColl ect
Ġun sweetened
gen erator
Ġmultipl ies
Ġneighbor ing
Ġresid ues
hic le
. }$
30 9
uff s
Ġf ib
pay as
Ġrac ers
Ġvol unte
X B
Ġca ffeine
ĠVictor ia
d b
l ifting
Ġc her
W ill
Ġtra ded
Ġbird house
ĠPermut ation
tz els
H alf
Ġ Â
AC E
ro p
gra d
abil ity
pass es
Ġhal ves
lik es
Ġvamp ire
Ġcoinc ides
Gre en
Ġele vation
Ġmed ical
Ġdo ps
AN T
Ġp int
18 75
ia h
Ġiss ued
J ackson
ĠB H
Ġlo ose
Ġsweet ened
Ġcompl icated
ĠE BC
ĠN a
ĠB art
Ġcre w
Ġnet work
Âł Âł
recor d
s uits
Ġs unday
]) ),
colum ns
Ġbro ccoli
pan cakes
Bob by
Ġaut o
Ġe uclidean
ust ard
swe ater
p ons
ils on
even s
v ans
draw n
Ġrais ing
Ġrepe titions
enumer ate
Ġf udge
Pl ot
)/ /
Ġa piece
ĠD ie
arg h
Ġpar rot
Po sitive
ul as
ĠC M
Ġn arrow
Ġin sert
uff le
van illa
Ġclimb ing
! -
t ry
all ey
ĠB AE
Ġsp iders
ĠE ugene
Ġcon tract
du led
19 1
Ġhot dogs
Ġkn icks
34 34
Ġmodul es
Ġer rors
{ .
ĠB ow
66 9
Ġjump ed
P ossible
g lo
on ce
AA A
D en
u er
il ot
29 3
ely n
Ġbre ath
Ġexercis es
co hol
ĠM adeline
ĠN iraek
our ces
ĠPl ay
Ġcerti ficate
Ġp urse
Ġp ins
Ġnot ing
Ġbor rows
ele mentary
pay ments
vis ible
s uper
w orm
link ums
\ ).
Ġ48 4
Ġflo ats
ĠB elinda
ĠĠĠĠĠĠĠĠĠĠĠĠĠĠĠĠ ĠĠĠĠĠĠĠĠ
ĠCase y
o dot
gra ss
par rots
Ġclassi c
}{\ |\
exper ience
J eremy
c reate
H eight
8 10
n an
ĠS linkums
multi column
Ġf ont
ard y
Ġ\ }$
) }}
ĠSt re
Ġsp oon
Ġgener ality
but ton
apart ments
8 65
b iscuits
N O
sent ence
r als
Ġm ary
Ġalphab e
bi as
n ap
Ġsh ot
ĠZ achary
9090 9090
Ġallerg ies
40 378
923076 923076
ro cks
J ill
R ob
ab d
eg gy
Ġknow ing
ĠIn ter
ĠJay den
)) )$
ug e
ĠCD B
ĠMal vina
Ġguit ar
he w
ĠG ar
. \\
ĠE scher
Ġdri ven
h y
24 24
ĠBer keley
ĠA mi
Re mainder
cook ing
b rian
Ġpay check
co ls
Ġst olen
yn am
Ġhelp ful
Ġm ichael
Ġwe ars
ĠCh ad
calcul us
ĠA z
Ġpe ak
Ġmaterial s
Ġpick les
D ar
Ġterm inates
v ideos
m ix
Ġde pendent
ĠDi ane
Ġautoma tically
96 9
Ġemp lo
Ġsal aries
5 98
On ly
short est
4545 4545
Ġcra bs
Ġlad y
C N
G amma
26 9
Ġ19 7
Ġ17 6
Ġmist aken
Ġre cycling
pa pers
Ġ&= &
ĠSt ates
ma tically
ĠDe vin
Ġbooks hel
recipro cal
Ġarr anges
tikz picture
Ġs nail
r ink
ĠUn ion
Ġ20 2
ap or
inner Ball
Be fore
Ġvamp ires
M el
j son
lon gs
Ġmess age
ĠHar ris
prim able
pons es
Ġd ump
mat erial
ĠAC P
) |$.
J on
co verage
Ġfor ty
IT Y
ĠUnit ed
full y
f red
sh ipping
4 90
40 6
ti ss
en ails
Ġpri merange
ĠAr thur
2857 14285714
s age
Ġrecogn ize
Ġ rack
Ġper ms
Ġw rench
sh rimp
Ġmom ent
resid ue
ĠC one
az el
Ġconne ctions
Ġtrick y
Ġess entially
ed ition
o pp
new line
Ġ\ (\
ri ef
ĠCE B
C G
Ġc argo
d ress
Ġn t
Ġcon clusion
ĠO riginal
40 3
ĠF rance
mar ble
Ġ4 41
Ġhel ps
Ġblank ets
Ġh ung
Ġap point
Ġpast ure
Ġde duct
ĠT anya
Ġdu ck
18 1
Ġy ogurt
- `
> -
Ġo ak
Mar tha
ĠGre en
break s
Ġzucchin is
Ġn ational
Ġdi ag
ĠT amika
umm ies
J ake
ch an
del ion
l ang
o y
ip per
Ġpers ons
w ants
(" +
190 476
ir ing
pe ach
Ġswitch ing
Ke vin
Ġth ick
ation Warning
K E
Ġbe longs
Ġcup board
cul pture
Ġvis iting
ore y
\\ \\
Ġkn acks
paren t
Ġrepresent ations
Ġ" ")
F A
ament al
Q Q
Ġset tings
Ġorch ard
Ġ ```
id o
Ġminim izing
Ġen rollment
Ġoccup y
ight ly
ĠBl ake
E AB
Ġbeh av
s pring
ĠO ur
Ġo ven
Ġ2 24
$ },
Ġw inter
g ca
Ġt adpoles
Ġsi bling
Ġmaxim izes
Ġ13 7
ĠApply ing
Ġdry er
spl argh
Ġco ef
Ġexplo re
Ġsal on
p D
pro p
bor ough
Ġpaint ers
Ġbe an
pi le
ĠDan ny
Ġprint er
mo untain
Ġto ols
Ġmat t
ĠE A
Ġ" -
Ġcar ries
over lapping
23 9
Ġsche duled
Ġtrunc ated
s at
B OC
str um
en ger
} ),$
ti ans
Ġm ul
int o
ĠR ectangle
56 25
ĠJ asmine
ose vel
36 7
ĠK enneth
t own
Ġ2 35
lor ia
cent roid
Ġinfer ior
j anet
o melet
I Python
Ġpre gnant
ĠSam my
Ġpropor tions
tx t
suc ces
Lo oking
Ġ28 4
Ġlo ops
& =(
ĠB ar
Ġrequ ested
Ġ24 6
Ġt una
Ġp D
ex actly
res idents
Ġob tains
57 4
B Y
Ĕ Ĕ
ĠS er
]] ),
ces sing
ro up
Ġs acks
S PQR
Ġequ ipment
el ine
b ies
e per
Ġ10 50
on ne
48 00
cur ve
Ġob taining
re ne
ĠSo x
Ġdon ations
simp le
Ġmagaz ines
J ordan
! /(
Ġd ye
Ġenchil adas
75 8
tra de
ĠTrunc ator
86 8
je w
ĠFran co
B u
um bl
An nie
J am
| =\
ĠEx tend
M ay
ĠK ris
ĠL ulu
Ġpercent ages
ĠW innerBall
dro ps
ĠGeorg ia
Ġn ail
Ġex tre
Ġcon v
37 9
ckl ings
qu it
ĠThe o
Ġcatch ing
2 14
Ġ- |
Ġdec agon
Ġcl ients
open ai
c u
e arth
and rew
pa ired
Ġto ken
Ġexpl ain
)) +(
Ġun answered
19 85
m and
ob ile
Ġmag ical
st ates
}\ ,\
ĠE lsa
cha pters
Ġex changing
Ġdepart ment
R Q
ĠS outh
Ġpro tein
ie ve
ĠNumber s
gu ins
ĠRe f
ĠSh ane
Ġparticip ate
Ġlock ers
v able
Ġfound ation
ĠDiv iding
ĠUS A
b rand
ded u
Ġf antasy
3 17
Ġst a
80 756
Ġh ires
Ġl st
Ġcool er
ĠPR OBLEM
lay ers
}) =
ĠY ogi
) }.$
Ġm ine
Ġg ig
Ġpas sword
de corations
Ġb ahs
ĠPark er
rob ats
ch ance
ĠJ ude
Ġpalindrom ic
CLUD ING
Ġalphabe tical
Ġw edges
Ġr ise
}} ,$
lement ary
3 44
in n
inv ited
repe ated
5 70
Ġli ps
ĠMar tian
co urses
ad j
ĠSt u
fact s
Ġla ug
j erry
Ġfill er
19 50
Ġ$\# $
Ġ3 46
se ptember
ĠE u
Ġbo ots
96 8
' ].
D r
ca me
la f
str ong
. ]
24 1
Ġscar f
Ġf ram
off ice
Ġ5 0000
numer ic
Ġv a
pl astic
76 8
Ġhambur ger
Em ma
Ġsp are
Ġtw igs
38 7
graph s
Ġtow ns
ĠTr isha
ĠSpec ify
Ġre cycle
s li
ren tal
Ġbi ased
me lia
teas poons
Ġcher ries
Ġl am
Ġce le
AP B
IL ITY
uer ite
f ied
Co de
6789 1011
si mon
Ġpa inter
Ġopen ai
Ġpudd le
mat rices
(( (-
Ġwhe never
Ġb ronze
ro ids
frac tional
neckl ace
ing ton
ab lo
pro cess
ent ral
Ġsk ipped
partic ip
Ġs pr
app y
âĢ¦ .
Ġre fer
ĠA rt
Ġp ist
Ġcri ckets
pet als
; &
60 8
own ed
Ġspeed s
Ġâ Ĥ
babys itting
iri am
Ġaut hor
Ġfor got
Ġsk i
light blue
sy mpt
trac k
Ġbook ing
4 39
be ar
" ])
arg est
ĠT uple
- '
Ġsubject s
shel f
ĠCar ly
Ġprac ticing
er al
v ial
der ick
Ġma intenance
ĠD amon
Ġclean er
Ġh ip
Ġv ote
ĠStre et
ec ue
ĠC RootOf
ĠF G
a ints
Ġd ataset
el ix
ex am
Ġgener ation
ĠC ard
tri ples
go ing
E le
b id
153846 153846
. ''
ĠBrit tany
}} )
Ġdis card
oc ad
Ġpoll ution
f ixed
ĠBer tha
an ne
Ġco unties
ag ain
Ġtext book
ge om
ĠW olfram
com ics
Ġyoun g
)))) ))
ĠPQ S
qu iz
10 678
ĠComp any
Ġ& +
car ry
Ġca use
ific ally
Ġac commod
bicy cles
39 2
A Z
in de
ĠBe a
ĠCa den
Ġeleven th
ĠEl m
f aced
ol og
Ġy f
AB ILITY
Ġtro users
hairc uts
Ġd p
> .
Ġm argin
ĠO p
v ices
sh ampoo
int ake
Ġent ree
Ġdam age
semi perimeter
Ġa grees
gl umph
ĠY esterday
ynam ic
T ra
28 80
Ġla mbs
b acks
es h
Ġcup cake
Ġath letes
me m
ĠL ines
ĠF ill
ĠâĤ ¬
Ġde ad
,\ ,
ĠFactor ial
O U
h oles
78 46
wa iting
m ilksh
Ġl isa
' ][
= &
i mplified
Ġtooth brushes
ĠB ad
dis c
m ice
anu ary
I E
Ġac tivity
ab itha
be an
67 6
Ġsnow balls
II I
Ġ2 30
ĠC ameron
equiv alent
ĠA MN
Ġst atistics
Ã ³
Ġuniform s
ĠS ha
sk irts
Ġl ays
ĠP am
viron ment
co ats
swim ming
Ġ14 8
=" /
st orage
Ġpl ank
je ans
W ednesday
Ġc ave
Ġhe arts
ĠN ed
Ġsa usage
jul y
Am anda
ĠIs abella
Ġ13 9
Ġm ind
ri ding
ser ve
ĠAl bert
Ġscar ves
Ġg arbage
Ġgo at
t una
Ġso y
Ġmatch sticks
c ue
j s
s uch
Ġt issues
se arch
ĠM AT
Ġsw ap
Ġneg ation
60 4
jack ets
D ave
R andy
ĠDen ominator
Ġinspe ct
O liv
CO UN
tra sh
Ġmin nows
ĠB O
c are
ĠN ick
Ġra hs
ĠSt arb
("\ (
p her
at meal
ck ha
Ġcomple tes
Ġexhib ition
Ġbul k
Q A
prec ated
qu ery
Ġ" .
Ġwor st
Ġman age
d im
ĠS equence
th ickness
n ames
35 9
vi ation
Ġ50 4
Ġmotor cycle
40378 44
ĠM ega
25 3
Ġp ups
ĠS osa
Ġcheck er
ĠRe al
shift ed
}}{\ |\
Ġpo lly
19 87
non zero
Ġviol et
Ġa lex
re duce
Ġho sting
ĠDi agon
P ABCD
flav ored
sh arks
van ced
ING O
Ġ Wh
it chell
Ġ( "$
27 7
ĠMan ny
ĠB INGO
Ġpl astic
14 40
Ġsp acy
50 6
.. /
Ġcont rol
Ġe ffe
Ġtyp ically
ff les
ĠA A
)/ -
Ġencount ers
Ġc z
ĠS al
\% }.
ĠNew ton
ĠMath letes
R D
trans l
ĠG enevieve
bo unce
j eff
0 625
Ġ4 68
Ġro ads
Ġsur v
pe as
bar rel
m d
ĠK ath
ĠSH ORT
16 66666666
Ġconstruct ing
45 8
Ġdiagon ally
int h
cho p
Ġcompound ing
ch ris
amer ic
R ad
ĠWinnerBall s
Ġsche me
recipro cals
ĠC orey
Ġsh ower
Ġdr ums
m ower
Ġ$ *$
ĠI van
tw are
}$", .
_ )
Ġa i
Ġv ase
ci i
Ġconver ts
Ġconven ient
Ġpair ing
jo sh
ur l
ĠS n
ĠC ircles
ext ension
'' $
666666666666 67
ex amples
ĠEx pr
ĠZ eb
recor ds
Ġradi an
Ġinst ances
Ġrais es
out fits
ĠN ot
Ġfill draw
Sum ming
conson ants
ĠDanie lle
MAT H
Ġf unds
Ġstr ong
Ġcur ved
p orted
ĠP ut
lo u
ĠD el
Ġcan oe
Ġpo ison
BC A
Ġinst a
Ġlight gray
ay lee
oft ball
ĠB jorn
ĠRe ckha
t ower
Ġcl own
Ġminim a
ĠO D
Ġpro bab
Ġ36 1
70 8
},$ $
Ġcle ans
ĠL indsay
am i
Ġi z
.. (
Ġbu ll
Ġst ated
ĠC ra
an ning
Ġrational izing
Q U
k yle
Pro mpt
im i
^{[ ^{[
}$ ;
Ġcous ins
Ġ\ }$.
Ġodd ly
b aking
t age
Ġequiva len
bottom ed
Ġt aco
ĠRo otOf
u ous
cccc cccc
Ġfram ing
Ġ3 36
Ġl w
17 29
ĠMid point
S SE
ĠP T
18 3
ati ble
asympt otes
C ho
pl acing
para tion
ed ric
Al pha
gg ed
p ct
/ ((-
\ )",
band s
] }$.
ĠS uz
Ġ15 12
Ġ' ')
Ġscal ing
Ġprac ticed
osevel t
ĠG o
Ġ14 6
valu ating
Ġmac aroons
ĠN icole
Ġinter view
4 65
ad am
Ġgira ffes
Ġsund aes
symbol ic
ĠC aleb
squ ir
ĠO AB
Ġbik ed
Ġbring ing
es a
ig ration
12 93
Ġpoint pen
s is
Ġb le
ĠD av
Ġste aks
Ġover flow
Ġho o
ĠCo de
don ations
Ġow ed
Ġevalu ation
B etty
up date
J une
ĠP ol
intersection points
Ġalgebra ically
ĠCre ating
Ġpat ches
Ġblock ed
llm ents
}} }.\]
Ġad v
Ġaver ages
ĠFin iteSet
n ment
Ġb unnies
tan ks
ĠEarth ling
re written
Ġkn ife
ĠPat riots
st amp
Ġor d
Ġpaint able
izz a
Ġutil ities
Ġy ummy
se par
Ġcomple tion
Ġno ve
Ġclo uds
6666666666666666 6666666666666666
Ġne arby
Ġir rational
N NE
Ġm ushroom
Ġdis covered
sal ad
en sive
st olen
ĠAlex ander
4 96
EF GH
ari us
Ġbus y
Ġrevers ing
! }$.
squ at
ĠV in
80 8
Ġab bre
b ik
w en
ĠAng les
Ġbatter ies
be es
plan es
CH ANT
Mon ica
qu arts
Ġg cf
ĠĠĠĠĠĠĠĠĠĠĠĠĠĠĠĠĠĠĠĠĠĠĠĠĠĠĠĠĠĠĠĠ ĠĠĠĠĠĠĠĠĠĠĠĠĠĠĠĠĠĠĠĠĠĠĠĠĠĠĠĠĠĠĠĠ
Ġflag pole
u cks
li um
ĠAr gs
â ĸ
small Hexagon
img ur
Ġy uan
Ġsuper deficient
diff s
Ġduplic ate
ĠMc Gwire
Ġsy s
c ater
Ġpro of
Ġde li
da ve
70 9
Ġfol der
f i
Ġv endor
Ġcut lery
tra p
Ġextre me
Ġ= \
per iods
Ġcurrent pen
v enty
ab ian
ch apter
Ġre tail
m achines
il ted
the m
Y C
ton y
Ġprep are
pas ta
ĠJ erome
Ġexce eding
sig ning
ĠR ud
Ġenclo sure
Ġb al
ĠP BC
Ġpaw ns
Ġt ex
Ġfor k
49 8
Ġbreak ing
Ġint ake
12 25
wr ong
re fill
ĠHa ley
Ġ );
Ġ }$
Ġin duction
f ont
45 00
ĠBe cky
Ġg rown
f ib
Ġc ru
Ġde tergent
sp ray
Q D
ĠB a
ĠA na
trans pose
Ġ${\ {
c ucumbers
ĠW IN
multipl ication
Ġemb ank
end point
Ġfund ing
Ġpartition ed
Ġattraction s
2 19
C x
uni code
c brt
p ete
100 7
arl ic
%% %%
di ence
Ġ17 1
ise lle
IN CLUDING
Ġt im
re comm
am ber
Ġlo cus
parallel ogram
)) \]
as er
tit udes
Ġla unch
Ġlearn ed
Ġbo uncy
ph ie
^{- \
Ġequal ities
ub l
88 9
^{}_{ }$,
Ġprof essor
ill ip
wh ales
Ġ99 7
H T
ĠB ryan
d ra
m ir
mon key
M art
Ġwra pped
an ies
Ġto ads
ar ith
Ġre pairs
- >
Ġbowl er
Ġ{ -
)\ ,$
Ġcomb os
d v
Ġlab ell
dam aged
Ġsl ightly
ĠAr chie
Ġ24 8
in fl
set minus
ĠAc me
v dots
gro ceries
\ !
Ġf il
Ġbookshel f
ĠBad gers
I ts
ad opted
17 60
foot notes
~~ ~~
Ġlasag na
Ġabs or
Ġprom o
E l
b el
Ġre union
Ġ3 45
ĠI den
Ġau ction
direct rix
st aff
In finity
footnotes ize
H M
20 2
si ck
ĠR alph
ĠT yp
Ġfunc b
Ġt readmill
Ġcont ent
Ġlo aded
? \]
en cies
5 50
d t
Ġless er
on ometric
ĠD es
\; \;
15 625
Ġsay ing
X S
Ġb xy
("$ (-
ĠT en
Ġminim ally
p ays
Ġ500 5
fro g
ĠD VD
Ġair port
id erman
Ġbut cher
d p
point ing
ĠW anda
Ġexplicit ly
m r
ro ute
ok ie
D G
E M
ĠM C
Ġfro sting
far m
Ġs cholarship
ĠP erry
Ġsp o
T B
Ġch allenge
Ġsub committee
cup cake
tra ys
be lls
Ġwork out
26 7
W SW
Ġk icks
Ġ20 4
Med ians
ff y
Ġattend ance
T ime
r ole
Â ²
ht t
ys et
QR S
Ġf unce
Ro bert
Ġ5 10
45 74
49 7
3 13
E L
)), -
clo sed
St ars
s amples
ĠB ro
ula tive
BD E
ĠLe e
he art
il ton
ĠD ummies
ĠN BA
con j
ĠJ ared
M oreover
P iravena
func b
erm s
ub y
ĠF armer
c ast
er ie
Ġj ail
ell ie
distrib ution
Let s
_{ -
Ġ50 1
500 5
Ġgum my
Ġwhere as
39 5
sup port
Ġ[ ],
or ry
can vas
.. (-
Ġwa ist
Ġcent roids
tw elve
Ġ4 0000
Ġpor ch
}$ ).
80 1
sympt ote
A OD
6 24
Ġ$- (
mode ls
6 45
vis ited
ĠiPh one
Ġ2 90
ore os
Ġtro ut
85 9
achi os
33 1
fill pen
Ġs caled
one al
Ġpred ic
ĠA R
)--(- .
session s
Ġfle w
si zes
80 9
vant age
Ġc rows
um ing
ist ers
Ġwor ry
8 11
Ġinstall ed
transform ed
ĠJ avier
wo gs
X D
Ġsc anning
p f
z oo
.$ )
48 7
ced ure
param etric
tiv ities
po sters
Ġbutter fly
cur ity
) &
Ġorder ings
on ions
ar ra
Ġf ail
Ġd ynamic
ĠA bby
Ġ4 88
sub ject
Ġcalen dar
ĠV ice
appe tiz
blue berry
w ife
te mperatures
Ġ28 1
d ates
Ġch apter
ĠPl ug
ar ly
Ġlet ting
Ġ$| (
Omit Tick
factorial s
car los
< <
Ġblo uses
Ġcircum circles
ÃĤ ÃĤ
ĠP irate
to ps
ĠBC A
4 14
count ry
Ġren ts
Ġfertil izer
ĠS andra
Ġg ains
12 60
Ġbal ances
c p
a round
Ġst ory
Ġ20 23
ĠL ayla
40 1
uming lish
Ġac robats
,(- (
Ġw ipes
)$ ",(-
AB O
tre ats
Ġlo llipop
isk ers
Ġfrequ ently
Ġleg end
ĠP resident
sw ith
17 28
h arry
Ġh atch
Ġl im
ub bles
cos ahedron
Ġiter atively
Ġcook out
Ġjack et
Ġ25 3
ĠAP I
Ġrand int
Ġt x
Ġint ermediate
---- --
rist in
Ġchecker board
ĠS c
ussi an
D a
ĠP e
Ġ9 60
ĠDe prec
Ġlo osen
142857142857 14
si bling
Ġat trib
Ġjo e
trans fer
B rian
ĠDeprec ationWarning
ĠP r
P ara
e z
Ġm us
)! }{
C rop
f unce
re le
Ġen vironment
46 9
h all
b und
c uts
ĠA hmed
inu ing
Ġcar rot
in finity
re ference
}.\] (
ĠAlf red
Ġembank ment
ĠG rand
w i
Ġto parc
tom orrow
ĠCy prian
Ġm olds
Ġpo odle
25 000
ĠLLM s
z y
all ows
pl aces
assump tions
ĠR y
m aking
Ġt es
Ġsubsequ ences
ĠJ oh
Ġcar pet
n tax
form s
rot ten
12 34
du ctions
ĠO reos
ari o
Ġglo bal
Ġarti st
b ul
unc hed
ĠBo ston
Ġ15 5
Ġ37 3
ch anges
anu jan
lead ing
tire ment
perp Label
," (
' $?
e mpt
ic ago
ca ffeine
du ck
0000 000
Ġtro mb
y i
Ġ5 17
cos ines
17 2
k ind
Ġ3 49
)) )$?
Ġmis s
K M
Ġh ref
M ars
ch annels
Ġhe ct
ĠN umpy
ary l
732050 80756
22 10
866025 4037844
Ġ- (-
st ores
isc uit
M ake
pri mitive
Ġgover nment
KE Y
Ġso cial
width E
length E
Ġab cd
ĠIn equality
Ġsnow flakes
Ġw ax
width C
Ġeigen vectors
distrib uted
Ġt a
Ġk y
ĠR odney
Ġcomm ute
repe at
bird house
Ġmagaz ine
Ġholid ays
Ġcardinal s
ir g
so ck
Ġmake up
car ried
iss ants
end i
ĠL og
e ither
Ġm ugs
Ġl ilies
Ġwe b
ĠM ight
Ġj unior
90 9
f ight
use ment
ĠRe cursive
L ines
Ġ Ĉ
ex act
ind sey
ĠC ape
kil ograms
ĠCos ine
8 25
ĠI an
Ġ" (
ĠRe becca
empt yset
Ġgymn ast
centi meter
b eth
c ubs
ĠMari o
! }\
A verage
ĠS ur
Ġ8 50
c ereal
t ot
Ġ: =
Ġvers a
j pg
am ib
Ġsmo oth
ĠM O
ĠAl gorithm
off set
ĠâĪ ļ
assign ments
Ġ\ &
ac s
push ups
exer cise
ĠG ordon
sa f
Ġcur ries
t ue
70 6
ĠOliv er
Ġtelesco ping
Ġo melets
C heck
um e
ĠKrist in
cocon uts
T DM
Ġfarm ers
ud ges
Ġpur pose
ĠP S
40 9
mer its
h x
ĠP iravena
Ġder ived
law ns
Ġhung ry
c ers
Ġas signing
Ġes ti
ě [
eng ere
Ġ2 32
ĠC rystal
ĠD ue
Ġe c
44 1
o ysters
Ġse curity
down load
Ġ13 00
118 65
re cursive
ort y
Ġpart ners
Ġmy stery
142857142857142857142857 142857142857142857142857
Ġinser ted
st orm
Ġint ended
5 97
Ġ$\ |
ain a
6 81
Ġcan es
ĠT own
COUN TS
ĠB et
{\ |\
Ġgro ss
Ġflo ck
Ġtour ist
Ġaccommod ate
/ -
AB M
velo us
h an
Ġla unched
Ġ18 7
O AB
e ighth
ĠH ondas
Ġac cepts
ĠFre derick
90 7
end ers
ant ry
br anches
v ide
Ġ2 17
Ġrem inder
6 48
R achel
draw s
BP C
want ed
back pack
ĠI vy
ĠZ uminglish
Ġsucces ses
youn ger
b uns
ĠGe o
ĠS eries
Ġsquir rels
l am
v ator
la undry
Ġp lease
Ġappl ications
ĠDa isy
2 100
Ġpa ul
Ġsign ed
t ney
op acity
decimal s
s po
we ar
Ġ50 40
" ({
Ġall oc
C rate
Ġ27 1
sp iders
ne arest
}} ,\]
win nings
pe ars
G R
p it
tra il
L ist
ĠS ix
print ers
ĠMat hew
Ġparticip ant
Ġ20 21
Ġb rew
999999999999 999
)) }
quad rilateral
Ġbus h
ĠQu ad
amib ian
ret tes
Ġt ents
Don na
Ġso dium
$ $.
([ '
l ily
| }\
al ing
5 44
ĠAB G
Ġlips tick
? "
e mb
u ices
6666 6
Ġpaper back
Ch at
Ġelim ination
Ġrasp berries
l u
Ġdis like
ĠRo ot
l w
15 1
13 20
C ont
P lease
o v
Ġtravel er
card inal
ĠChrist opher
88888888 88888888
50 2
Ġstick er
ball oon
sl ant
Ġthirteen th
olve d
0 76
Ġdise ases
J im
Ġgues sing
irg inia
Ġres cue
do cument
ĠSt acy
br it
sn acks
roy ed
AR T
324324 324324
to ol
BC FE
34 6
10678 11865
3 48
Ġb egan
d ash
ash ion
Ġs ight
ĠAC X
Ġear ly
Ġpudd ing
Ġdivis ions
B renda
cent age
param s
)) )**
Ġclo set
ĠCam ille
Ġport ra
Ġmilksh akes
Ġwin ners
Ġcook ed
in clude
in finite
rays on
Ġk ibble
wall et
Return s
v inegar
er ic
sa w
ĠC urrent
ĠT ry
Ġown ed
Ġsal ads
Factor ing
ĠA bigail
ex press
assi e
Ġsee ing
Ġteam mates
A gain
Ġl bs
Ġca fe
u ages
ac count
Ġbe am
j et
Ġtransl ating
ĠKe ep
Ġinvert ed
V ector
13 14
Ġbu ried
week ends
Ġwon der
kil ogram
tsh irt
+ {
Ġ 000
75 9
le ak
Ġin h
be ats
Ġrational ized
j erse
ĠO X
ĠL inda
stre ets
Ra tio
f ell
Ġex planation
Ġpor k
sem ic
Ġform er
Ġdigit al
h im
k ok
Ġreal s
8 90
pig eons
ĠK noxville
ĠFer gie
Ġdepart ure
M al
ch ures
arg min
ĠSymbol ic
Ġm ask
ig ma
Ġas pect
56 2
ff et
Ġsup ported
Ġa pr
ang kok
36 45
Ġ35 2
Ġcream s
h uman
Ġent ers
le ave
Ġra violi
Ġfilter ed
Ġpo lled
a aron
AAAA AAAA
st ops
ren a
Ġimplement ed
cream s
Ġdisco vers
Ġe duc
Ġra bies
mb oo
Ġle go
27 1
Ġdown ward
Ġ8 10
() ])
ele vation
: $
Ġel m
ĠOlymp ics
w er
ari an
}/ {
B S
10 80
ĠA ri
car ri
(' .')
5 00000000000000
h it
$, $
7 37
Ġrel ating
ĠRe arranging
Ġnove lla
ul ing
ff ect
ĠX anthia
j enny
ĠEqu ating
3 22
Ġsix teen
re cur
de e
ĠMath borough
" \
Ġgrand ma
Ġcheap est
f ed
iv id
ĠW ilson
ce ption
Ġdom ino
p df
4142 1356
Ġj unk
Ġma ple
ĠC atherine
Ġcol onies
Ġ3 66
ĠM ich
ĠJ ennifer
M at
ĠMart in
B inomial
ĠQ PR
ĠA mount
Ġj ake
pl ing
ĠMax imize
Ġbehav ior
Ġresult ant
o up
s ara
b arb
Ġf ur
86 9
X X
ĠM ountain
lik ed
Ġte aches
past e
Mo ving
mod ules
In ter
Ġpow simp
Ġ4 11
am anujan
Ġper p
ĠJ oneal
S aturday
is ion
Ġp f
tra ded
ifes pan
C I
p ascal
Ġeffe ctive
rad ical
Ġcon ject
newsp apers
C indy
An ton
pack ed
Ġseed lings
3 16
n odes
Ġm erry
irc ular
Ġas sumed
Ġhunt s
ĠB ased
ho g
Ġzebra s
B ra
Ġ6 30
d rew
unt er
ĠEx pected
Ġlist ing
etch up
ot ed
Ġteas poon
Ġd type
Ġs ends
id as
Ġsh arpen
Ġ40 4
=' $
Ġflower ing
Ġship ment
list en
Ge bra
N ancy
Ġpara ke
respective ly
= ",
B l
v ate
40 320
Ġtub e
Ġk indergarten
* }$$
Ġh oses
fly ers
es ti
op us
ĠRo cky
test s
t ins
ac tive
ĠI r
arn in
mist akes
ĠCo okie
5 99
25 4
oct agon
Ġco ords
Ġback ground
ĠMel issa
ind ivid
W Z
ch ains
pepper oni
r ons
mo ving
Ġ$ +$
ro ve
Ġpro cedure
Ġres ources
Ġinter pol
âĪ Ĵ
ons ai
Ġprojection s
basket balls
Ġpush ups
Ġ{ {
ĠIn dex
ĠF aye
Ġ4 12
irc um
os uke
Ġinst ruction
} *\
por tions
Ġve t
Ġt race
ĠT B
H ara
ĠOb tain
Ġ3 23
ĠBern ard
Ġin coming
Ġd inners
Ġch ihuah
Ġad vantage
ha j
F lo
e valuate
Ġc ucumber
mo on
rief case
b ac
Ġline man
10 12
)! (
ĠS pain
ci ous
77 8
pet end
Ġc s
Ġde precated
Ġ' +
< !
Ġy es
Ġw asted
Ġtru mpet
Ġsur fers
Ġlang uages
ks haj
Ġshe ll
Ġwere w
Ġoff ensive
Ġpurch asing
ĠParam eters
A y
Ġ18 8
Ġsubstit utes
AP C
])) /
Ġt uition
Ġcall ing
Ġf ires
mo use
rot ations
ĠChrist ina
Ġrel ates
at to
comp e
Ġsche dule
ĠAd ditionally
Per imeter
Ġfen ced
comput ers
ĠM isha
Ġengine ers
Ġt ol
Ġw ar
ĠS abrina
4 10
E p
M egan
P BC
Ġp ans
Ġ12 96
P L
ol as
Ġpa wn
Ġiter ative
Ġpro ducing
ho spital
sol e
ĠZ arnin
Ġis qrt
30 30
ge ogebra
\ {\
charg es
bas il
R yan
pos al
select ed
ĠAsh a
Ġre cess
iv re
Ġexce ption
Ġsome times
Ġcarri ages
Ġne phews
mo ves
u cc
y ed
Ġq x
Ġpres ses
ugg ets
Ġobser ving
sam uel
vent een
re o
1111 1
Ġdan delions
Ġre ve
me eting
ĠE CD
ĠMar cy
Ġevent ually
Ġwa its
Ġatt ached
Ġ50 6
roll er
ĠChe ryl
Ġexpansion s
got o
Ġpe bble
ser vice
N um
ĠD AE
Ġun fair
m arg
ĠC EF
per im
Ġ" +
A Y
Ġre cover
}} -
r ine
Ġthousandth s
ĠRes ult
we ed
di ers
Ġsub committees
Ġsun flower
ayden ce
ĠM er
55 4
Ġel apsed
)} ')
t asks
at asha
ĠAng ie
ĠQ P
ct ools
K yle
ist ered
! ")
C he
d ated
es es
80 7
Ġteach ing
ĠAustral ian
C ommon
Ġs at
pr ism
cocon ut
Ġsof tware
un ks
ur ers
Ġex circle
Ġ8 80
Ġti red
Ġinst ructions
lap top
Ð º
gre g
el apsed
Ġex clusive
ĠD ante
ĠJ essie
ĠUn cle
T ype
Ġc t
ĠB ay
Ġsto pped
ĠExpand ing
. }
tal oup
Ġ9 50
Ġgeck os
le en
Ġco ffees
ĠM abel
ĠMin imum
Ġh yper
we ll
Ġattend ing
Ġkno cked
Ġac tivities
Re write
(' +
optim al
Ġlabell ed
S usan
Ġb onds
$$ =
Ġ199 2
motor cycle
Ġparticip ating
( *(
k its
| }{
ĠAr ithmetic
factor y
89 79
st eve
10 100
ĠHe len
Ġeng lish
Ġv ans
Ġ4 40
Ġge om
bob by
egg ie
Ġinterpre ted
Ġrev olution
U s
Ġperform ance
Poly nomial
ul ates
Ġ8 400
bouqu ets
Ġ ],
Ġex pi
Ġk s
tur key
5 64
Ġdi et
sport s
symmet ric
C Q
Ġa mb
ĠO x
ĠZ ach
n solve
ĠJ ust
je an
tables poons
ĠRepe at
so me
ĠW alter
} '.
Ġsp illed
Ġz o
Ġtime delta
{- (
// //
000000000000 000
Ġcraw ling
n P
ĠĠĠĠĠĠĠĠĠĠĠĠĠĠĠĠ ĠĠĠĠĠĠĠĠĠ
Ġhome less
ĠCD A
sun g
Ad ditionally
1818 1818
c ie
Ġp ythagoras
Ġmid night
d essert
Ġx s
ph ies
1010 1010
k no
ĠF C
Ġk ne
Ġcraw ls
Ġ15 7
Ġsub tended
Ġfresh men
sum mer
99999999999999999999999999999999 99999999999999999999999999999999
Ġstret ch
L P
in circle
Ġor chestra
17 76
u ettes
75 3
j immy
}) }$
Ġfri dge
ĠZ Z
ce an
ĠSy stem
al con
Ġinteg ration
48 1
n old
Ġ2 96
Ġma int
D ataFrame
ĠG raph
k im
Ġde tails
ĠC X
worm s
Ġsour s
us ter
25 20
ĠTo by
ann el
place ment
ĠNe il
bouqu et
Ġtub es
Le ila
u as
poly tools
aur ants
P N
10 101
bicy cle
27 8
point ers
ĠL eg
do es
c arn
ĠI Python
ĠBren dan
D avid
O x
Ġtra ffic
37 4
Ġ28 2
viol et
Ġdec ks
atto os
ell o
ĠF ern
Ġcom ma
D H
ats on
ĠBl ack
v ia
Ġs an
ge orge
Ġidenti fied
on ard
z a
Ġcar bon
rest aurant
Ġdom ains
ĠMega Ball
sh adow
Ġpo ssibly
ĠG ame
B er
ĠA U
St age
attend ance
Ġe ps
C y
56 8
ĠMon days
Sub tract
Ġeu ro
cur r
will iam
ĠL in
LO W
27 4
ol fer
Ġco ast
ĠH or
ĠF ace
Ġme chan
Ġ30 8
26 535
w ake
el im
m uch
Ġbowl ers
ge ck
39 7
Ġ199 0
he m
ĠE B
90 5
ĠW atson
Ġsemic ircular
co ons
Ġn inth
ĠB uffy
iffer enti
Ġcal orie
b ake
L uke
tol ist
F F
all igators
Ġfl ash
Ġorgan ized
Ġpo tion
rt le
Ġch alk
16666666666666 7
mac aroons
Ġassist ant
Ġcomp anies
com ic
s ne
Ġfro zen
ĠCon dition
Ġ2 121
( $
ĠC T
format ted
kil ometers
ussi a
d h
} ,-\
sp ider
ĠAll ie
bas tian
Ġinterpre t
Jan ice
Ġche erleaders
H o
Ġd ials
ĠRational ize
Ġstu died
cade mic
on ol
Ġsli de
) -\
Ġf ences
Ġto enails
Ġform al
fore ign
onol ulu
pl ays
ich olas
Ġad vanced
d il
ĠM ason
Ġsol vers
Ġcover ing
Y D
ad ing
46 3
m ixed
Ġc el
00 5
ici ous
exter ior
as per
tic a
Ġcater pillars
' }{
n as
ĠC om
kil o
measured angle
ĠE numer
compos ed
m akes
hol ds
ĠR T
past ries
Ġdeg enerate
3 200
Ġs ack
Ġsing ers
C EF
p b
} |\
ĠC ross
lo llipop
24 2
Tom my
S andy
co pies
cot ton
ĠDer ek
Ġjew els
co des
ag s
Ġ" __
ĠV iew
)} =\
comp atible
tiss ues
Ġmem ory
Ġround ness
Ġbra kes
.. .$
ins ert
Ġfig urines
ĠOliv ia
s lopes
z w
Ġa ffect
left rightarrow
th s
AC K
S pe
ht ub
Ġsec ant
S qrt
Ġdi ed
Ġac compl
Ġher on
5 87
ud rey
stat ues
O BC
ð Ł
St ate
Ġoccur red
b idden
Ġv ars
Ġsi zed
ĠW all
47 3
)))) $.
| (
po ss
}\| }
Ġran cher
9 50
l amp
it an
}) ^{\
arti st
N PM
s x
14 01
Ġpe ar
j on
ul s
Ġsh iny
Ġtur key
z o
ĠPro vide
ĠAmeric a
uni ors
R C
pan els
' \
Ġgeneral ize
625 681
" ):
Ġc iti
ĠJ ord
00000000000000000000000000000000000000000000000000000000000000000000000000000000000000000000000000000000000000000000000000000000 00000000000000000000000000000000000000000000000000000000000000000000000000000000000000000000000000000000000000000000000000000000
re arranged
Ġb und
Ġde mon
Ġal though
Ġj im
centric ity
C ol
b inder
Ġst ain
car rot
AH I
high lighters
F riday
ent ory
Ġsail ors
ĠM e
iol et
ĠStep hen
Te mplate
0 54
)) .$
ĠN amibian
m ask
ul ip
3333333333333333 3333333333333333
magaz ines
Ġs culpture
ci ally
5 14
Th ursday
to ppings
Ġ15 21
Ġsix es
Ġpri mary
iam i
Ġch ances
ĠAnton io
57 2
Ġconne ction
J ean
Ġs usan
Ġ$ ,
os ing
ĠJo an
l ion
ab by
Ġ48 9
add ers
ĠNik ki
Ġmel ted
Ġ5 00000
pon d
v onne
Ġdeterm ining
Ġsmart phone
Ġdi hedral
all ie
Ġfun ctools
Q C
Ġres ponses
inst all
Ġd art
ĠA K
ĠA symptote
eli hood
f udge
Ġanal yz
16 22
tex ts
cat tle
Ġtur keys
Ġra re
ĠĠĠĠĠĠĠĠĠĠĠĠĠĠĠĠ ĠĠĠĠĠĠĠĠĠĠĠĠ
fl ip
Ġmaxim izing
b io
bed rooms
ĠCh icken
Ġreach ing
ole an
ĠPat ty
Ġfor wards
Int ersection
Flo at
u x
da wn
rian a
ac b
(' ,
Ġm uffin
sco op
Ġnumer al
- ',
w ax
Ġ velvet
Ġ6 93
pen alty
vac uum
Ġj acks
so up
Ġgroup ing
che ap
Ġmis sion
10 40
bound ary
Ġgra m
Ġel igible
Ġappetiz er
ex pi
Ġche f
Ġnormal ize
fer ences
Ġsh ifts
Ġliz ard
ot te
Ġarri ving
w oman
ill age
ĠF iona
up hill
Ġconst rained
Ġrank ing
3 28
Ġsk ipping
coll inear
ĠCh ar
15 87
div mod
bi ology
ĠRa ise
ĠLe ast
Ph il
ĠInt roduction
ĠSpe cial
Ġmarker size
pro duce
mph lets
> ,
Ġthe me
et t
ĠS ep
Ġg ranola
CD B
center ed
double d
}) \\
Ġcol ony
ĠRo osevelt
C BD
60 5
tw igs
? ",
S ha
Ġcamp ers
Ġ2 11
Ġch rist
is close
Ġco bs
Ġ4 36
ĠM ickey
ĠRo sie
can oes
Jul ie
Ġx lim
ĠA melia
in line
ĠP romotion
Ġtw ins
Ġclaim s
al phab
Ġbet ty
Ġen code
Ġrun gs
95 9
co pper
Ġcoll e
)! }$.
Ġoct al
(\# (\#
l as
cap tion
mp ets
Ġ< -
sour ce
ĠEri ca
M an
ĠCh uck
arl otte
Ġun able
ĠHug hes
Ġmodul i
ĠPer fect
22222222 22222222
M arg
ĠE AB
Ġ/ **
Ġcl ams
ĠĠĠĠĠĠĠĠĠĠĠĠĠĠĠĠ ĠĠĠĠĠĠĠĠĠĠĠĠĠĠĠĠĠĠĠ
hot dogs
ĠVer onica
ĠApp end
centi meters
est ers
m ium
u ven
abc abc
Ġfire truck
Ġchamp ion
w olfram
en ses
84 00
limit ed
Ġ ^{
ĠS cott
icy cle
Start ing
Ġi mplicit
-- ')
}) ^{-
Ġbl onde
uper t
ĠMulti pl
Ġsumm and
cher ries
uven ir
: ')
ed y
_{ }^{
ĠW ong
Ġnew er
Ġenclo sures
w ages
Ġun cool
Ġhunt ing
Ġaccount s
Ġsnow board
ĠS mallest
5 26
substit ute
Ġsp icy
Ġro osters
Ġqu een
cor respon
Ġ35 00
Ġgrand parents
Ġact ors
Ġbur ritos
Ġpo ss
ĠT ory
Ġmon ot
b unnies
16 15
expression s
Ġim ages
Ġreflect s
Ġconv ince
t ubs
w ent
ĠStarb ucks
5 0000000000000
__ ":
Ġhundredth s
Res ult
f iles
ĠO laf
V al
ĠShe l
âİ ¢
path pen
stuff ed
ĠJ u
Ġser ious
iqu es
ke ep
Ġle ns
ach ing
Ġ20 8
Ġdirect or
La ura
Ġgira ffe
cale factor
ĠVariab le
S mallest
Ġf ancy
Ġd rain
0 25
j i
ĠM ate
guit ars
" )[
g rant
Ġsp ark
Ġbisect ed
Ġl inalg
Ġas paragus
)* ((-
ĠY e
dec agon
117 64
Ġaccess ories
Ġl imes
ĠL ore
ĠIn st
can es
ĠP lease
S ara
Ġplay off
iv al
ĠG a
Ġdres sed
M ad
} &
Ġburn ed
jul ia
ĠGeo Gebra
k ernels
ag ne
Ġpine apple
C L
ill ary
Ġup coming
mag inary
ĠA lec
Ġfo x
Ġbrown ie
All ie
K ate
Ġ{ :.
scar ves
Ġholid ay
ener gy
' ^
t aking
ug o
Ġ19 85
Co ord
Ġ3 27
Ġsw am
run ner
ed ro
Ġ3 38
Ġmo ons
fill ing
ĠMar ie
Ġve hicle
amount s
7 12
as hes
Ġbinomial s
n ips
Ġun occupied
ap an
KL MN
Ġep silon
ĠM b
sta tic
! .\]
F orty
cro issant
77 9
m eg
') *
\ },$
an other
ĠM ack
ĠAr ray
Rad ius
2210 73
M D
Ġj ane
os her
hed ra
Der ivative
44 6
AT C
( )**
il ia
ast e
Out put
Jam ie
um bt
Ġmarks man
ĠIr ma
Ġpl ums
Ġen s
1 125
s mo
ĠD aryl
Ġ3 10
Ġse venteen
Ġf ifty
Ġpass enger
Ġeduc ation
Ġf ul
Ġx i
S unday
Ġin door
ĠS ection
ĠF D
Ġadverti se
3 240
Ġt apes
Ġslow ly
ocad os
Ġta ught
Ġ5 678
ĠR egular
m us
Ġhik ing
C le
Ġ3 281
pro ps
: **
Ġcomp rom
| \]
Ġm or
}+ {
ĠGre ta
ben ch
h ypot
Ġinter iors
Ġtra ined
Ġmem or
Ġmistaken ly
k at
8 50
requ ests
OB ABILITY
Ġtex ts
ram s
const ants
ĠC athy
Ġhe avier
}) }{\
g ira
as min
Ġdecor ate
w edge
ath lete
Ġge ography
E DC
T est
}$ ",(-
M ulti
Ġj an
Ġch lorine
run gs
Ġrac hel
ĠCla ire
Ġrecycle d
F P
32 6
ĠHug o
in sects
Ġwork day
Ġp rank
ht on
Ġ6 75
ĠPro f
S ubstitute
p hed
our nal
to ss
ĠG racie
max imize
cccc c
ĠS imp
000000000000 01
Ġtransport ing
8 39
ĠH unter
96 5
ĠTony a
in ants
up iter
to e
for est
iss ue
ic ah
next prime
t as
Ġa ward
15 000
R L
ĠL izz
AT ION
tract or
AE DC
Ġrele ase
s lept
() }
Ġspeed ing
mid points
F o
A MN
ĠH ank
}\| }{\|\
E ric
d olphins
w art
Ġ ),
ĠMari an
4 125
Ġbur gl
Ġnap kins
ĠM itchell
long er
j ourney
Ġ17 9
E ri
ro ut
Ġun less
Ġ30 6
Ġtre as
Ġele phant
)))) ))))
ĠTim othy
D I
N UM
al m
ra i
Ġj x
}_ \
ĠTw enty
Ġg olfer
ĠBl ue
match ing
ust ers
Ex pr
jack et
I DE
Ġgra phed
comp lement
? \
ro bert
ir teen
}$ )
D ep
den ce
Ġpar ks
sub st
tur bo
9 000
37 36
333333333333 3
de ws
pro gression
ta co
33 4
in fo
Ġfol ds
Ġko ala
feb ruary
' .$
D O
J ay
Ġ= (
Ġan ti
ur ity
20 48
sal ads
3 18
Ġpa tient
ĠR oth
ucl id
ĠLy dia
Ġplay list
Ġcap ital
Ch ain
bath s
mow ed
L BL
d ish
ĠC and
do ors
Ġllam a
}. .{
ER CHANT
S implified
m andy
ĠN ate
Ġ23 00
cont act
Ġn est
tain er
ĠK arl
Ġhandsh ake
b ridge
ĠG il
Ġquarter back
r Ã©
ir us
44 000
jew elry
Ġle verage
run ners
Ġliz ards
ĠFactor ing
purch ases
oct ober
Ġest ab
po ds
Ch arles
Ġ29 4
Ġexpect ation
ĠSqu aring
Ġp elican
120 1
M arcus
23 80
D BE
Ġc u
ĠM ara
90 6
Ġcor ral
ĠSh aina
ĠP rice
cream ers
}\| .$
Ġpost cards
Will iam
le ne
Ġ17 76
ĠCh i
ĠMar co
Ġpa payas
26 1
Ġgl ue
Ġbarb ecue
Ġdr unk
2847 1
X C
ĠC ole
Ġhouse hold
bro ccoli
. _
w ere
Ġkey chain
ĠIm age
Ġbox cars
Ġann ulus
ĠCel tics
dc ba
H F
ĠB DE
459 459
ĠGra ham
p ups
Ġcon cepts
Ġlect urers
f ifty
g ary
rac t
Ġre ducing
-- (-
ys tick
resh ape
rai rie
ch arlie
la mbs
ĠTh in
Ġvari ety
g m
s an
28 800
S SW
] }.$
)! )
ze bra
ĠEqu ality
Ġnorm s
Ġperform s
Ġcharacter istic
Ġbol ts
object s
7 22
D ist
\ }.
l ips
in vert
Ġc redits
Ġs titches
13 50
ĠShe lly
Ġsoft ball
gener ation
ĠnC r
16 000
H el
Ġd ices
ush puppies
Ġ/** */
$ {
` :
ĠC ur
sub path
Ġau dience
Ġbre eding
Ġ+ -
6 55
)! $
Ġenumer ating
i phone
ll o
im ents
T r
cous in
Ġl n
Ġ4 29
' }$.
vers ation
rack ed
arry l
Ġcateg ories
T racy
Ġsy ste
Ġch inese
ten nis
Ġmeasure ment
x i
ĠK it
P od
ĠD CB
pe ak
ph ne
Ex pect
ĠD G
ĠQuad ratic
Ġ25 50
Ġunit circle
ĠNat asha
D ifference
ve gan
7 92
L ily
ĠP eggy
Ġsh rink
ĠL agrangian
pre p
Ġminim ization
Ġchief s
p si
ä ¸
ay enne
ins cribed
graph ies
47 9
Ġw alnuts
Ġmeas les
cat ches
plan et
A pp
as ic
Ġ129 49
a id
Ġt pen
49 3
' }\
) _
Ġb ark
ĠA y
ĠA mb
W endy
Ġs printers
Ġl b
Ġre view
Ġve gan
Ġconver ges
fre q
Ġto es
Ġfor t
elf th
" ;
5 10
35 4
.... ..
ol anda
ĠA G
fe es
Ġ$\ &
Ġformula e
rema in
Ro ots
W Y
uni per
Ġal cohol
Ġj acob
Ġanalyz ing
: |
d ance
Ġ\ }
um in
Ġspe lling
Ġag ent
school s
bus hes
p ythagorean
ĠP hoebe
ver ts
Ġ23 23
numer ical
Ġcab inets
27 2
Ġten uous
Ġ35 99
Ġche ddar
ean u
Ġj ill
Ġro bot
45 4
Ġbat tle
ĠB on
nom es
u als
shel ves
Ġcance ls
Ġ\ !\
ed Base
ĠS creamers
50 24
ĠIn verse
Ġfeed back
Ġreser ved
N ew
ĠD eg
Ġele vator
Ġlik elihood
compo und
ĠCl ark
Ġm ural
Ġtelevis ions
Ang ela
taloup es
ĠEnumer ate
ri ver
Ġâİ Ľ
r ise
Ġst ages
Ġen co
Ġmix ing
o vers
)/ \
ĠG rayson
J KL
with square
denom inators
Ġdevelo p
ĠN or
os lash
la tives
John ny
Ġprobab ly
Ġp s
ĠE lementary
Ġj son
Ġcros sing
][ "
Ex pected
ĠMar velous
Ġclean ed
ĠSep ar
, "$
po ckets
ĠSta mp
lat tice
d z
sh a
ĠCon ner
Ġ75 60
ĠAX E
Ġa wards
ĠS pring
offic ers
S ean
NN NN
satisf ying
Ġparametri zed
particip ants
s itting
u tils
9 56
be ach
Ġb ins
Ġh yp
Ġpo ckets
Ġal most
Ġdr um
Re writing
ch osen
ĠT y
}) =\
cor ners
Ġfold ing
# $
Ġth read
Ġun limited
55 8
37 37
ĠTrans form
Ġ= $
ra tive
Ġint withsquare
semic ircle
ĠC C
Ġ27 000
Ġfun ca
ĠS ieve
ĠBob bi
Div ide
5 96
ĠA kshaj
neighbor hood
J avier
Ġinst ruct
Ġintern ational
olog ist
bus hels
ĠRun time
E arth
F urther
Ð ´
dimension s
W anda
l brace
Ġpo or
Ġsq right
1 120
de v
zero es
Ġsq top
Ġex cluded
tles n
()) .
Ġopp onent
Ġpow mod
ĠPo sitive
ĠâĢ ľ
a Tan
Ġto ward
(' \
Ġexist ing
}/ \
Ġmode led
Ġno odles
CD P
Ġhigh ways
Ġpolly wogs
47 4
sur v
Ġart works
ER BS
Ġcrab apple
47 46
Ġhel met
Ġfun cd
ĠJon athan
} |$
ph alf
Ġcost ing
af ari
ĠâĢ ĭ
Ġhe dge
Ġ18 6
][ '
Ġh y
ĠAM B
fun ca
vamp ire
Ġl ily
ĠH oses
ĠF l
Ġmid way
Ġregard less
EF C
fe wer
separ ated
ĠT ri
get ting
ĠRh onda
ĠSp iderman
l agrange
Ġ18 21
func c
Ġfunc c
x els
Ġ3 11
ĠBC P
in correct
Ġ16 1
ĠĠĠĠĠĠĠĠĠĠĠĠĠĠĠĠ ĠĠĠĠĠĠĠĠĠĠ
dry ing
+... +
G I
Ġ4 39
R EE
p ins
Ġtut oring
\ &
bu ys
Ġwid er
grand children
fol der
Ġconvin ced
ph alt
11 97
ĠFer ris
Ġcros sw
Ġbe aring
risbe es
1515 1515
ĠS enate
ĠA ma
effici ents
mid pt
Ġeigen value
Ele ven
ĠH el
243 10
F loor
man u
sur fers
<! --
Ġt ony
ĠA Y
Ġ7 30
ĠK now
Ġobser ved
Ġbird houses
ĠMon ster
abil ities
Ġabbre viation
Ġl anded
28 2
Ġ_ ,
ĠPhil ip
ch ars
EN D
41421356 237
ick ball
met hod
en v
sho pping
Ġsen iors
se ating
60 7
par box
370 370
% ;
Ġmarath ons
U nit
ll ards
Ġcro ps
car la
-------------------------------- --------------------------------
C Y
et ext
Ġ4 25
fill rule
56 1
8 80
Ġellip tical
, )
un cle
math s
unc il
big triangle
Ġdistribution s
umb bells
Ġmonot on
quo ise
J essica
od ge
meat balls
j acks
Ġt arant
ĠE CB
ĠC ustom
Ġlower y
Ġre trac
Ġse p
em i
64 00
elf ish
Ġes cape
ĠOl ive
on line
ly de
Ġdiv s
\%$ &
98 00
Ġf solve
Ġupper y
M A
P ete
h al
Ġ2 65
Ġchamp agne
t ang
$", "
Ġthere after
Ġ17 00
ĠGar field
Ġg aps
ab i
Ġ100 6
$$ -
Ġdeterm inants
ĠPa co
strum ents
28 3
Ġspecific ally
77777777 7777
inet y
Ġmis ses
consist s
bigtriangle up
Ġtra des
Ġ19 1
Ġac cur
Ġcast ing
r brace
Ġol ives
av anna
54 3
de part
ĠD iam
ĠCon nor
bb ie
Ġl ic
}{ }\\\
100 10
par rot
o melets
p int
Ġ5 93
Ġdef ective
l bs
ho es
Ġupper x
âĢ¦âĢ¦ âĢ¦âĢ¦
. /
c ucumber
ĠD ale
ABCABC ABCABC
s m
E ST
Ġinter views
ĠK el
26 3
Ġincre ments
'' \,$
d uplic
ag les
Ġdan delion
k ayla
30 3
americ an
ĠShel by
J G
W ild
Ġe conom
ac ups
Ġoct opus
Ġprogression s
f en
Ġde er
Ġpen guins
hambur ger
f le
n i
Ġsy ntax
Ġar rows
89 8
133 7
Ġpist achios
dotted line
Ġmilksh ake
Ġ\ {\
en clo
const rained
umin um
Ġad minist
fun cd
Ġem ily
d orothy
Ġa ctive
ĠE ven
t ut
ab out
jul ie
alb ums
$"," $\$
Ġs lower
Ġlong itude
eng ine
Ġspace craft
j anuary
Ġ3 35
equ ilateral
Ġnetwork x
z er
ath alie
ĠTh anks
co gs
ri m
55 6
A U
co uples
)] ]
Ġlower x
= .
ĠIn tern
\% }$
Ġbull et
Th omas
Ġspe ars
Ġdeliver ing
O p
Ġj oint
Ġexhib it
89 5
11111111111111111111111111111111 11111111111111111111111111111111
Ġbe et
Ġ36 9
Ġcard board
iter ations
ĠDan a
Ġflash light
inv ested
Ġpre tzels
Ġcara mel
4 16
Ġ" ".
ry n
14 400
J acob
f ifteen
Ġbuy ers
Q Z
am in
set tings
St udents
Ġ.. )),
Ġs igma
ab or
color ing
P en
code cogs
Ġe man
Ġk etchup
() ),
76 9
normal ized
PQRS T
Ġal ice
35 8
Ġpre paration
Sh own
Ġo ats
Ġ100 4
Ġdo decagon
yl ar
water melons
67891011 12
Ġ10 17
da h
ĠSt ate
k er
... )
Ġr ises
met al
14159 26535
exper ienced
Ġse em
Ġun changed
burn t
ĠK elsey
multipl ied
bat tery
alphab et
ĠP ast
Ġsp read
ĠE st
Ġsail boat
Ġ' *
Ġ17 80
Ġf ields
Ġpro posal
11 52
36 1
90 8
Ġwo ol
ĠC entral
down hill
Ġt er
ĠT ex
A aron
10 25
Ġbu ffet
Factor s
Ġfil m
T ina
le o
Ġst ats
Ġ17 7
ĠT ara
fer ris
Car ly
Ġcom mut
Ġleft pt
Ġright pt
ĠAn t
ĠEliz abeth
k aren
y ou
ĠF ro
we aring
Ġbl own
54 321
Ġcraw led
ĠJac lyn
rove ment
Ġâ ķ±
f ume
at oms
Ġcomp ose
Ġstri ped
ĠSte wart
Ġ1 66
ĠP rin
99 4
Ġout ward
ell er
ĠTh rough
Ġev apor
al tern
ĠH ardy
19 60
ĠY ann
{ $\%$
ent rance
ĠB ella
D is
N a
s caled
)) -
Ġ15 62
Ġscienti fic
ber s
Ġtra dition
}, \\
Ġregular ly
call s
mac arons
Ġefficient ly
Ġg arlic
Ġcot tage
Ġtrac es
2 250
ĠP x
Ġ6 300
Ġhe ater
pro mpts
}= {
g rown
Ġcol on
dest ination
ay a
Ġk gs
---- -
pig gy
s ue
her n
Ġbrack et
Ġi vy
ĠC YX
Ġel der
CR T
gener al
m ust
Ġg em
pl ings
ĠT s
pro fits
Ġinter change
Ġ17 2
Ġfol ks
C alcul
si tions
'' '
h ive
)} =
Ex ample
L AR
v x
Ġpo ured
Ġhand made
ti ger
ĠD rew
44 7
ĠAB Q
64 6
Ġbird seed
le an
me et
CA T
F H
Ġtract ors
Ġcontract ed
ĠK aydence
ĠMar la
Ġtechn iques
c inated
Ġ48 6
Ġarrow props
ĠA round
suppl ier
e uclidean
Ġ5 70
Ġpump kins
h ide
ir ates
up ons
gra dient
sh ares
magaz ine
Ġ5 15
ĠSepar ate
Ġse lections
end points
mar tha
Ġcap abilities
Ġa ces
Ġp ad
65 43210
Ġrain y
ĠVenus ian
}{ (-
10 20
Ġ' \
ĠSe e
th ill
Ġprime pi
Ġbat htub
Ġ2 15
un finished
ĠC e
ĠT abitha
ĠEx ception
numer ators
bus iness
Ġsaf ety
428 125
7 70
graph ics
ĠComp are
ĠB T
roll ing
b ush
ir anda
count ries
ĠCo ach
Ġsumm ari
ĠB arb
am anda
}\ |\
ĠG loria
Ġam usement
Ġfix ing
i ology
Ġdeterm ines
Ġrece iving
ĠMar tians
N egative
j oseph
sen ior
Ġwid get
ĠIs abel
Ġec centricity
N P
t ina
âĢ¦. âĢ¦.
Dep rec
I S
s hed
Ġsol ar
appl ication
Ġbe akers
So me
Ġout door
lee ves
D iana
] }')
Ġm old
Ġbe anie
96 3
j ordan
w an
ick y
m ical
r ats
out ube
ĠN otice
pe cially
mm s
ho ps
ĠJ orge
Ġfam ous
pers ons
Ġful fill
5 31
V ariab
| }{\
Ġt ren
al y
Ġal uminum
ĠIn stead
Ġeff ect
b ug
ĠR iley
Ġ210 9
sent ences
Ed win
' }$,
m argin
w ave
}\ }$
Ġar gs
1520 150
recomm ended
9 33
ci ana
o st
o phone
ĠB isector
Ġk Pa
ĠG retchen
ond ers
5555555555555555 5555555555555555
Ġdemon str
E T
htt p
h i
Ġf ired
Wh ite
B arry
m c
Ġb one
hen es
ĠJo ules
Ġ$\# (\#(\#
ĠT ick
vamp ires
Ġ9 9999
11 1011
ĠEx pon
play ground
all as
to es
pa ws
tra ined
All en
f und
for ks
Ġ37 80
Ġgeck o
sli de
H B
Ġre tri
Ġ6 60
\[ {
Ġtables poon
Ð ¼
Ġw ing
Ġh ist
Ġla titude
blo uses
grand ma
:\ !
ĠTex as
v w
Ġtransport ation
si ls
(" {
666666666666 66
ib ald
5 16
Ġb ored
Ġte ars
Ġph ra
Ġtransl ates
ĠCP U
uten sils
Ġbra ss
Ġqu ery
Ġar m
incre ment
Mo del
7 200
23 43
v ory
Ġf ishes
st henes
Ġ20 5
Ġaccum ulated
Ñ ı
ĠP ablo
Ġor bit
Ġno ticing
Ñ ĥ
Ġ mpl
Ġ7 240
] .$
ul p
8 13
M R
un ny
Ġmax imal
Ġcro issant
\}, \{
r ating
Ġt iling
ĠI tal
turn s
Ġjo sh
plan ets
ĠN ational
ĠHa w
' =
Ġw onders
Ġ3 90
Ġtri cycle
Ġbl ind
Ġturn ing
med als
ato sthenes
B rand
ĠA de
Con st
\! :\!
Ġl ucas
requ ire
Ġmir rors
Ġm apping
67 2
high s
Ġcount ers
ĠV irginia
av irus
pat rick
a ugust
Ġ15 000
00 4
Ġb io
Ġsymmet rical
C arson
G D
a int
ĠS and
Ġi cosahedron
ent ry
Ġv oters
Ġdesign s
Ver tex
ĠW endi
Ġdistrib uting
Ġgig abytes
^ *
ĠB ED
elic ans
B eth
ï ¼
Ġr uling
Ġob j
Ġfro st
allow een
all eng
Ġposition ed
cra bs
er ance
Ġ5 34
ĠB I
---- ---
Ġcum ulative
1000 1
jo g
"> <
on avirus
ro be
et ri
}| |\
Ġspo use
con crete
H er
ĈĈĈĈĈĈĈĈ ĈĈĈĈĈĈĈĈ
ĠRuntime Warning
P I
Ġlook ed
Ġnone mpty
>> >
O ther
Ġcomp act
Ġ ÏĢ
Ġre petend
l Vert
ĠS ides
93 75
Ġ$ .\
Ġcar los
phant om
ĠHar riet
motor cycles
il o
f ran
re ps
ro bin
Ġanswer ing
text books
sal mon
Ġcolor ings
Ġh angs
le i
Ġcho pped
}} )^
ĠAlex is
ĠNum erator
he ro
ĠS now
Ġcon s
pro tein
s us
ĠJ a
tri angular
40 28
R ich
st acy
Ġde vice
Ġreg istered
Ġbound aries
Ġband ages
est e
AC T
ann ed
45 36
Ġ59 89
ĠAI ME
Ġllam as
t amika
Ġor phan
60 6
loss es
gu ide
ĠFace book
1520150 601
P art
& \\
M id
bl er
)] ),
Ġrest aurants
ĉĉ ĉĉ
Ġdesign er
Ġdrink ing
Ġsleep ing
M a
Ġj ason
Ġeq s
Ġcor rals
ĠPl uto
big ger
inst a
Ġ2 13
ĠA L
ad ie
Ġ13 56
38 74
lit ter
R I
Ġs nails
Ġb old
________ ________
) &=
L arry
Ġval ued
Ġ7 77
Ġlic enses
F ran
c ba
Ġin box
Ġsp reads
259 259
p eg
per form
ĠDe al
Ġbox ed
wo ods
Ġcompl aints
ĠAsh ley
Ġdre ams
ĠC OB
BP ACK
C ory
ĠS ant
Ġsun screen
Ġ[ \
Ġplace ment
Ġhe aring
Ġ199 7
Ġdisplay ed
Ġre views
Ġcontest ant
J F
L ucy
ax hline
Ġhigh light
comm ercial
C ross
Ġo atmeal
Ġe agle
Ġv est
}) ]
Ġbro chures
M c
ro ger
Ġwe ak
el an
Ġsa usages
ĠT rey
llel ogram
Ġspin ners
Ġd ust
me la
ĠM oses
Ġ45 00
Ġ$[ (
il ib
alleng ing
ĠR udy
33 28
ex ie
fire works
Ġpoison ous
Ġv s
Ġra ffle
707 1067811865
ere es
26 2
ĠY ear
J ose
trac y
{ |\
G reg
r Vert
ton a
brown ie
ĠR emy
Ġoper ators
Ġmove ment
O MP
] {(
Ġpo ds
Un fortunately
b bler
pay a
fol ded
) </
ĠB est
print ed
den s
Ġar son
own ers
ĠG ib
Ġhit ting
p iles
ĠD AB
8 99
ier ra
gener ated
Ġw atts
Ġj igs
AL L
5 88
Ġa str
ar ita
ig ator
remo val
j ury
ĠPop sicles
35 3
ig ers
Ġcondition er
Ġp rairie
)) )[
Ġcon cer
Ġele ction
down s
bul b
Ġin compatible
polynomial s
Ġrecomm end
flav ors
C ape
e lectric
v ari
ĠGet ting
Ġcontradic ts
ang os
our s
sp orted
Ġj ournal
ĠHo use
7 67
al mart
Ġde ductions
PR OBABILITY
4 29
stat ue
ĠS hop
ĠK L
fri ed
Ġhead count
ĠComb ining
$ ^{\
a ining
ĠP izza
Ġclo vers
}+ (-
Ġspin ning
âĿ¶âĿ¶ âĿ¶âĿ¶
cater pillars
ul ating
Ġse ek
Ġk itten
ĠV alley
Ġconf used
27272727 27272727
L ou
}. ')
no vel
ĠBow l
ĠThanks giving
ha ust
un defined
current ly
Ġ780 5
AB H
ĠPer u
hol der
Ġhandsh aking
Ġsi ded
bu lls
Ġspaces hip
A be
a ver
Ġcl ick
high way
build ings
lab or
Ġo cean
rac ers
ven n
Ġkil o
an uel
le aving
ĠC ara
ĠD exter
BC P
ev ents
1476 2
ed u
r ates
Ġ3 13
ĠB G
)} ]
Ġdan cing
Ġgot ten
short er
Ġref und
atur days
ĠMark us
7 24
Ġv t
ate ver
23 52
Ġ17 4
S imp
fe eding
duc ible
Ġc age
ac cept
Ġder iv
Ġbas ically
g room
Ġm ent
Ġfor bidden
'' $.
exer cis
Q B
sp acy
Ġ15 37
cl ar
six teen
Ġd inos
ĠR ED
Ġgymn asts
G J
ve locity
ĠN y
ty ped
problem solving
re at
ĠD og
Ġch allenging
f isherman
Ġon ion
ru ffy
57 8
Ġda isy
Ġin sist
th irty
-------- --
chie f
kil ometer
g abri
s che
Ġ\[ {
Ġcomb inatorial
Ġkey board
7 28
} ~
ent a
em ed
Ġpyramid s
Ġbelie ve
mat mul
Ġdis crete
{ [-
al do
Ġ& (
Ġ\ ].
of problemsolving
res sion
start swith
OO F
37 3
artic les
Ġveget arian
T ext
om i
ĠO M
mm anuel
Ġmed ia
Ġpast e
cu racy
lo sing
ise ction
f unds
Ġt ed
' +
tran sport
b ases
Ġ19 77
l ane
ķ ²
Ġwas n
Ġany one
Ġla va
Ġ$| {-
Ġsepar ates
)) ):
art ofproblemsolving
}, {
4 0000
: </
Ġun used
Ġhip pos
N e
n c
rs ula
ĠMate en
oti ents
Ġhoo die
O ver
Ġ(- (
cand le
ĠGre atest
Variab le
ex cess
Ġfunction ality
ugh s
ĠB HC
Ġsund ae
Ġinc enters
sun flower
bak ery
Ġorch ards
iv ia
ĠM ik
Ġpredic ts
Ġartic le
sp it
carn ations
L y
ĠL ip
DF E
Ġpopular ity
date time
Ġceil ings
ĠMar cia
ĠTV s
ĠS even
st an
Ġbob by
Ġconvin ces
)! }.\]
Ġstre ngth
Ġfire fight
ĠHar old
([ "
300 3
Ġgu inea
et hod
ĠA ss
ĠJ er
101 10
non negative
Ġingre dient
Ġ2 160
Ġlike wise
return s
185 185
l icense
Ġco uncil
cook ed
Ġbad ges
L S
Ġt abs
Ġb unches
Ġ15 36
ik ki
Ġk enn
Ġsk ates
Ġrecur ring
Ġsuc ce
F X
c redits
Ġa corns
Ġd ave
-------- -
ĠCal vin
ant el
sup ply
ĠAH B
transform ations
C ance
v s
Ġ2 77
ele m
Jack ie
44444444 4444
Ġord inary
ra sp
ag an
radi i
e e
al one
ĠM BQ
Ġcolle ague
4 35
= ['
J asmine
Ġp ines
Ġn at
def ault
Ġapp s
ĠâĢ ĵ
ĠLabel s
b arbara
ex pect
ph oto
d re
ĠE than
ĠGabri el
S usie
80 6
bar rels
C ON
K arl
Ġ2 100
min ar
Ġbuild ers
ĠJ r
da le
pull ed
un used
Ġparameter izations
Ġs cent
ĠE rich
Ġra tion
âĶĢâĶĢ âĶĢ
hen ry
no ve
3 11
g olf
Ġ rom
de er
ĠS ierra
Ġsh ifting
Ġre number
Ġsol vable
ĠG u
Ġph ot
gro cery
Ġparenthe sis
Ġview ed
Integ ral
a it
Ġv ests
Ġr anging
multi set
Ġtest ing
rel atively
d ye
Ġj ay
Ġbar rettes
Ġbabys it
Â Ń
Ġg ap
Ġli me
over lap
res e
u bert
it ney
ĠP MN
ĠV iv
stay ed
A EF
T X
k ate
ak i
Ġeat ers
ele ven
anch or
hog any
Ġco bbler
Ġ{ },
Ġcheese cakes
Ġ.. .$
Ġiron ing
Ġexercis ed
ll ie
ind ing
Ġhe aded
earn s
Ġsc ra
sun flowers
ĠS id
Ġemb roid
um bo
Ġy s
ĠE P
Ġjerse ys
y ogurt
Ġ\ ,\
don ut
Ġparticip ated
A bigail
Ġsol o
AE C
ĠM ove
uc cess
ĠUn der
che ddar
mar ath
ĠO scar
Ġdes ert
Ġdest royed
TE ACH
Ġtromb one
3 77
deliv eries
Ob serve
Ġhect ares
Ġappro x
hund reds
assign ment
jam in
Ġdead lift
transl ated
1666666666 6667
ĠP OQ
]) ])
97 8
ĠCh icago
Ġcontact s
Ġ$ <
ĠAl b
N orth
le go
ĠP ath
Ġgra b
Im age
t adpoles
v id
ĠD ennis
Ġes pecially
ing ley
Ġ30 1
oe lectric
Ġappetiz ers
Ġphot oelectric
f isher
ĠL yn
$ ")
ig el
po lly
ĠForm ulate
hambur gers
Ġh tt
to ast
Ġrest ack
Ġaccompl ish
6 89
b unch
ek ai
ĠK ira
ĠMar ta
Last ly
Ġinsta llments
s oft
Ġb z
ro kes
ur er
ent ered
ĠM oreover
ĠRed uce
b acteria
h h
)} ;
imb urse
charg ed
mp f
ĠR ita
Ġdenom inations
Ġcap tains
Ġappl ic
rat u
ce lls
Ġst ations
Ġcar l
ĠAdd ison
ĠMat thew
Ġgather ing
R M
â Ĩ
Ġcardinal ity
w alnuts
Ġ4 55
Ġj erk
rel ations
55555555 5555
in ic
18 20
c ran
ĠH al
Ġparti ally
ever al
Har old
Ġd ive
Ġpro bs
ic ure
ĠH alloween
Ġcoll ective
ĠAE C
anie lle
e ig
t etrahedron
ĠB iff
Ch ristine
Ġton ight
l ucy
mo ses
ess age
Ġgener ic
ĠConstraint s
5 11
á »
Ġme ant
40 2
Ġ19 89
Ġgall ery
const ruct
mpl itude
as an
60 75
ke es
ĠSte in
Ang les
blank ets
ag en
Ġk ennis
Ġfo cal
Ġsco ring
or ks
Ġ1 150
cis ely
ĠH illary
Ġneg l
Z W
cl ay
Cle arly
m ort
Ġs Ã³
ig olds
ĠB XY
to uch
ĠAl ma
ĠGe ogebra
Ġt rolls
! +
T yp
Ġro ut
quarter ly
: ]:
D T
J ustin
Ġg t
ĠQ S
)! $.
ĠH at
Ġ\\ [
ĠR eggie
rect or
56 9
ĠRo ll
68 3
ĠN O
Ġ89 60
In put
Ch rist
y ote
eterm inant
ĠMart y
D X
in center
en ia
Th ird
``` {
Jul ia
: "
B U
Ġth umbt
ĠC rate
has h
44444444 44444444
Ġguarante ed
Ġenjo y
0 11
Ġtri vial
35 2
Ġnon linsolve
to ads
ĠAB I
Ġeigen vector
G rand
ĠR eg
36 000
65 9
stand ing
ĠFactor s
ĠRy osuke
f ibonacci
ll ish
ice cream
air plane
Ġsim ulation
Ġ59 44
bad ges
ĠMAT H
5 34
Ġg inger
Ġ6 609
def ective
199 1
gg ies
lik ing
h ab
Ġt et
ĠC BA
ĠH am
ays on
20 22
Ġ' ').
Ġche mical
Ġperform ed
z ation
ĠM iriam
car ded
4 77
c able
g age
Ġbag el
ection s
no llish
ession al
Ġdeliver ies
ô ı
Ġhe lium
Ġk new
Ġinv entory
Re pe
Ġsil o
Ġminer al
individ ual
ph ase
Ġ" {
OD O
W E
ĠD CA
L I
Ġre phra
Ġ14 00
ĠMag gie
ĠPar is
S lope
sh ark
is osceles
al as
arrow s
Ro ger
Ġiss ues
Ġcarn ival
( ",
Ġf ails
ati al
arr ing
tro ut
Ġ Î
ilit ary
v ity
w atts
ri er
b g
Ġ2 27
ab a
Ġho pe
Consider ing
temp or
Ġcrow d
il der
ĠB ridget
ĠL L
ys sa
Ġfig uring
OMP T
R on
ĠDe fin
comp letion
s acks
Ġh abitable
ray mond
c indy
am az
an ta
Ġw and
rema ined
ĠFran cis
EST ION
6 32
Ġs lept
ĠS ch
Ġj ug
Ġparameter ization
alb um
ĠRef lect
ĠN M
ĠR est
dr ated
Ġdo ctors
4 30
m uffin
ĠEx tra
set ting
n C
ve get
ĠCa fe
! *
L ow
â Ļ
Ġ6 72
sy l
Ġperson ally
s nail
ap point
ĠZ oe
Ġpowder ed
hard cover
s titches
Ġ rt
ĠIn cluding
ĠK a
exp on
85 8
Ġcro issants
Ġc i
Ġg ems
Ġv illage
ĠR ex
ĠR upert
ĠVal ues
4 45
Ġch ris
Ġsumm ed
Ġaltern ates
Ġorient ations
ĠS asha
ul ance
Ġ20 9
Ġcl uster
500 2
Ġassemb le
u i
Ġth reshold
Ġqu ality
Ġstu dio
g ots
}$ "
ĠB AO
Ġcirc us
Ġge ogebra
## ###
ĠF elix
if ies
if ication
ĠE ight
Ġk im
ĠMon a
Ġbo olean
ĠAl together
G CF
Ġl ink
ma ra
Ġomelet tes
0 50
y les
Ġun ordered
43 20
Ġ' ',
trac e
)] :
co bs
80 5
Ġaver aging
am den
)! }$
Ġgradu ation
Mal colm
6 20
D D
Y es
Ġ4 30
Ġtooth pick
ĠP ri
AP D
77777777 77777777
Ġhe m
math it
ĠCount ing
\ ),
l ucas
Ġd t
Ġ- .
in radius
mes an
11 83
Ġclo sing
1415926535 8979
cle ver
ester n
Ġassemb ly
p red
st d
ok ed
ick i
ict ed
favor able
8 70
E S
Ġpl um
Ġevery where
wra pped
] ^
a ign
ĠF H
Ġ28 00
til da
const ruction
4 12
re placed
ck outs
16 29
by tes
A OC
Ġas phalt
89 7
rack et
ĠVin cent
Ġo pt
ĠF lat
ĠO wen
ĠJ en
Ġpe as
Ġpark ed
R O
][ -
Ġre tirement
Ġexper ienced
. '
Ġha wks
ĠR amanujan
og h
Ġdeb ts
ar ison
77 67
gres s
w atches
ĠS w
ĠN et
Ġab il
yn thia
Ġcur ry
Ġf lex
Ġw ard
Ġgl ued
Ġguarante e
Ġpo urs
Ġver t
Ġbr ushes
Ġadv ance
Ġ10 1000
Ġsubs cri
b ile
ĠG nollish
Ġlist ens
inde pendent
x A
ut tle
Ġ10 67
Ġqu its
})$ $
sam my
ĠCur tis
S ur
ĠR el
ĠPB Q
Ġess ays
ĠCurrent ly
org ia
Dist rib
C la
g f
j ax
987 9
elic ity
Ġsci ences
5 678
= ',
124 35
ĠPo lly
Ġj erry
iz a
Ġrest o
ĠJo y
; \
v oters
Ġcomp eting
8 24
y x
44 3
class room
ĠNew tons
b arry
Ġc ider
Ġi g
BC E
19 448
oles ale
ĠM ai
ĠD il
Ġsw apping
ĠSpecial ist
Ġf ight
ot ation
ĠO Q
Ġdel icious
go at
nthe tic
Tra pezoid
at tempts
S equence
Ġto dd
Ġho bby
Ġ28 6
end iture
================ ================
Ġn a
Ġe dition
Ġaccum ulates
Ġba mboo
tool kits
W IN
W orks
tra ins
v line
cheese cake
ĠF ido
ĠCo oper
Ġcre ases
Ġ7 84
do ctor
ĠSum m
Ġappe aring
$ {\
E ng
)) ],
cho pped
pay ing
Ġren ting
ran us
sup ple
nove mber
Ġd esserts
ĠD ummy
Ġadverti sing
H a
b renda
Ġn in
ig uel
âĭħ (
] *(
Ġ9 27
cre ws
Ġcare ful
Ġham sters
Ġc ayenne
}$ $.
30 95
cri ckets
ogh urt
Ġi ced
Ġmod ify
bik ing
Ġ3 76
Ġbe aded
TH H
' }+\
Ġ .\]
Ġf a
ur red
ĠD ays
13 60
Ġinterchange able
J oseph
a mb
b age
Ġf ashion
Ġ30 11
app s
Car rie
neigh bors
j azz
Ġp adding
all ets
am r
ray on
ilib eth
ĠM illy
oct al
Ġp ulp
ĠP E
pi p
ann on
Ġ3 72
Ġhe ard
ĠO R
agu lls
Ġw ilted
Ġb ene
}} }{\
olf g
Ġaccur ate
S tan
ĠH istory
oun ties
fol io
multiply ing
doub ling
5024 1201
Ġli ved
Ġelect ron
Ġobvious ly
Bra zil
H A
Ġpl umber
ĠPQ A
{ +
Ġ13 57
199 4
emb ed
z fill
not ation
Ġcar pets
Ġeight een
umbl ian
j ackson
ĠC amera
Ġche st
ĠApp ro
ĠH ERBS
sy rup
Ġ28 7
parti tion
Mod ulo
if rame
Ġ300 3
ĠJul ian
p unch
de cks
ra violi
Ġn ut
Ġg ar
ĠH AC
den ly
ĠO BE
Ġar rest
Ġrh inos
R ose
ĠEu rope
5 90
Ġc ere
24 60
apply func
M obile
Ġp anda
ram i
407 407
Ġg pt
Ġq s
ĠĠĠĠĠĠĠĠĠĠĠĠĠĠĠĠ ĠĠĠĠĠĠĠĠĠĠĠĠĠĠ
lang uage
Ġestab lish
Ġm esh
âİ Ł
tour ists
mon y
ment ed
Ġgarden s
was hes
doub les
' ]]
â ģ
Ġp rays
ĠP XS
Ġlaw yer
ABF CDE
M I
ĠC ircum
pre cision
Ġlower ed
bur g
Ġsuit case
Ġcare fully
Ġb riefcase
Ġpo em
radi an
Ġlad ies
ĠMb ps
ĠP edro
Ġcon sole
Ġsho ppers
ann ie
12345 6789
ĠS co
as ible
ĠF YD
Ġemp ties
succes ses
s andy
al ds
ĠR ain
Ġh iring
Convert ing
ĠAx es
ĠCA MP
33333333333333 4
\ :\
th reshold
Ġpri mer
tim ulus
tho use
Ġfall en
Ġ\; \
ĠMathema tica
E lement
K N
54 6
as cii
erm ost
Ġsli ppers
haust ed
ĠCo efficient
Con tainer
O therwise
ti eth
is cus
al mond
Ġ12 173
ge ography
Ġtrans mit
ĠMo ore
iped es
p am
Ã ¥
Ġt ent
Ġ6 0000
eq ref
CC CC
705 88
d ust
Ġ1 153
Ġsur faces
brand on
b iscuit
g race
Ġfin itely
Ro ot
Ġfinger nails
ĠKat rina
R un
Ġj uices
Ġj ags
ass an
Ġ16 000
'' .
15 31
ĠĠĠĠĠĠĠĠĠĠĠĠĠĠĠĠ ĠĠĠĠĠĠĠĠĠĠĠĠĠ
Ġedge color
E X
Ġ4 74
S tr
g olden
Ġpa ws
30 89
ĠABC DE
Ġpre cisely
Ġâ ĭħ
OX OX
Ġhtt p
sw ood
eu ro
us ually
ĠEx tracting
ĠPQ T
Ġarti facts
am y
X anthia
Ġv oting
Ġ99 4
380 8
Ġsword fish
Ġto te
Ġde pen
") +
ĠLe vi
Ġgu ard
u ko
il io
$$ |
ou lli
a unt
s poon
ad ma
ĠAD G
fig urines
Ġhapp y
Ġcr anes
Ġ( [
Ġâī ¡
ĠBro oke
Ġsqu ats
ĠW ild
Ġmechan ic
Ġe el
ĠH an
Ġm L
ĠE rin
ĠM ed
ĠD igit
ma ine
ĠL ola
Ġobtain able
bor is
Ð½ Ð¸
} ',
ĠM end
orig inally
âİ ł
S ides
le ments
om er
erm any
ĠPer centage
M iss
ant on
Ġ210 4
Ġdiscus sing
N ina
ĠM umblian
ĠG A
123 123
ĠAF E
} =(
mat hema
ho ppers
Ġch amber
pon se
Ġsw allows
ivers ity
{ "
ĠM M
Ġdown wards
()) :
Ġautoma tic
Ġcan teen
ĠM ac
ĠT igers
Re placing
ĠSe bastian
Ġ&+ &
k ibble
y ork
el ma
ĠRob in
A ut
z on
re ducible
am a
ta cos
ĠL A
ĠV iolet
Ġchick peas
ĠB or
Ġcur lers
rup t
ĠFre ddy
Ġ" ))
ĠRe ad
ĠRon da
Ġvolunte ers
Ġb h
BC FG
Ġup right
Ġpris ms
Ġb ass
Ġsales man
Ġcr aters
ĠDiagon als
ĠJ ed
In dex
88 6
Ġref erees
Ġsubs cription
Ġprom ised
Ġs out
88 5
ĠTru mp
4 36
Ġg erms
per imeters
ĠG H
fro sting
O penAI
et ry
Ġ9 57
Ġinv iting
AD II
ĠDi me
in cy
ôı °
ur pe
Ġal ias
:%.* :%.*
len n
5 92
e on
Ġt etra
Ġto t
Ġl il
irc ase
ĠEvery one
olfg ang
F ri
j ustin
Ġl inks
ate x
ax vline
io phantine
stri ped
loc ation
Ġburgl ary
45 1
Ġ133 2
R eg
R Us
is en
Ġ2 37
ti ties
ats RUs
g r
ĠO E
16 80
wr ites
ĠX OY
ĠBer engere
Ġa cademic
13 79
ĠEx am
col ai
BB B
K A
clean ed
k ings
ze k
Ġch annel
b ri
ar ina
ĠS herry
ĠL it
r ubber
in ara
le opards
Ġfoot prints
ĠE G
ĠD ifferenti
33 2
Ġback stroke
milksh akes
w ine
Ġo reo
Ġw olfram
lo op
Ġ100 3
Ġlimit ed
job s
er ks
\_ \_
ĠVer ify
pine apple
ĠTrump ington
p rom
ĠJan a
c nt
ĠA EF
Ġtri cycles
}} }.
attend ing
Ġwerew olves
L argest
d ont
ent agons
de ad
bra tions
19 84
Ġoff ices
Ġcircum ferences
Ġbath rooms
ren dan
Ġsur f
cont our
ĠMari on
tooth picks
h int
Ġgra bs
ĠEx tended
Ġpromo tions
K at
Ġexer ts
M elinda
er aser
Ġ1 111
ĠKat y
Ġsa ils
Ġdenom ination
Ġ23 000
Ġmanufact ure
pi ents
sp atial
Ġnot ed
ĠSt ar
enn ett
4 368
Ġex changed
AE B
Ġstay ing
{ ~\
ĠA YX
ĠLet s
AP I
Ġshop per
ĠKim berly
lad y
ti stics
ĠJ apan
ĠG LOW
ĠAl ison
AM A
ĠLou is
P ermut
c redit
s low
Ġj umbo
ĠK ent
Ġgarden er
Ġindic ating
there fore
Di ane
E uler
V X
j okes
w ings
Ġas sumes
Ġrad simp
Al bert
paper clips
seed lings
Ġaccept ed
Ġsurv ive
ĠI rene
Ġho op
ili ar
Ġbe au
divis ibility
fig caption
n A
Ġ20 7
Ġ14 92
34 00
ste aks
youn gest
ĠEri ka
Ġp antry
at tempt
art works
ÑĢ Ð°
ĠBuild ing
Ġapr ons
4 33
d ose
ĠA lyssa
ĠThe ory
Ġref ers
ĠCar men
ĠRob bie
round ing
Ġfr an
Ġcere mony
Ġ5 462
Ġwh ites
ĠL ondon
ass andra
sh arpen
L uc
v owel
Ġa e
Ġwh iskers
Ġ12 74
ar ded
(" ".
ĠT itle
min nows
44 00
veget able
W innie
Ġv i
Ġr um
}\] .
as sume
Ġco ating
ens us
Ġ33 182
ĠProf essional
C an
ĠP re
number ed
Ġmon omial
Ġcaps ule
state ments
rand y
P X
b ster
17 50
uff er
ĠC ap
dens ity
9 23
N ame
in vertible
\[ -\
comp onent
div ides
Ġ\% $.
mo dule
acci dent
= ["
k angaroos
m ega
'] :
Ġinspe ction
5 80
5 22
Ġ }$.
trans late
Tw elve
Ġappoint ments
1587 234
y ah
as semb
Ġwh atever
Ġcoast ers
mon keys
ivers ary
Ġgem stones
st ations
}} (-
sk ipped
Ġcraft ing
U S
_ .
o val
ART AR
T race
ĠA mong
ĠCon nie
ĠPh ysics
bb ons
ji bo
co on
Ġde lete
op es
)\ ,
ah med
Ġburn t
Ġfresh man
Ġappoint ment
al nut
ĠCh loe
eu ros
2352 36
Ġkenn el
ĠF uck
1 121
] }.
sw am
Ġinspect ing
Ġmon sters
LAR GE
148 148
wra p
Ġbon nets
. ?
| }.\]
el t
tis factory
du cklings
cent ral
Ġexp edition
)} }{\
])) .
liz a
bund le
ul ce
Ġhal ved
V in
cup board
ĠLe igh
ĠKath leen
s ci
at Works
Ġz x
15 12
len ce
ĠTo bias
Ã º
$\ \
carri ages
y ota
52 80
bo ats
ĠR ah
Int roduction
Ġ6 76
Ġ100 2
Ġ27 6
ĠJo sie
sell ation
er ald
Ġl adders
ch art
ĠB each
ke vin
cal orie
9 20
Ġp irates
')) [
lyss es
Ġpars nips
Para llelogram
E BD
Ġho pped
55 7
ĠMP H
S ue
ĠE valuating
tempor aries
b inders
Ġx p
Ġac curacy
Ġpowers et
vol unte
Ġrock ing
) >
t ents
Ġl ifespan
75 00
ĠSet up
@{\ ;}
Ġcommercial s
C RootOf
ĠE agles
Ġstack ing
Div is
Ġc rystal
ĠTo p
ĠCh ip
ilit ation
Ġload ing
tre at
f are
ol i
ri cul
bo unces
subs cri
Ġ" (-
De vin
ĠLuc ille
phe w
Ġsho ot
Ġy d
f ication
ĠS UV
Ġexpl oring
lat te
u ing
um ble
pl at
b ows
the ir
ĠJ asper
87 4
at us
Ġj okes
EE T
favor ite
dv d
END OR
D ay
Ġ13 45
Ġhand bags
Ġface color
Ġsem esters
ĠGabri elle
hab ilitation
us hed
mpl ot
jo gging
Mark er
k it
om on
Ġti led
pen up
Ġ40 3
666666666666 7
jump ing
Ġcraft s
6543 21
C K
g ig
Ġwork week
ref und
678 90
Ġstat us
Ġassoci ation
Ġ\ |^
old est
Ġtest ed
ĠSam son
open ed
ĠCel este
Bo ok
Ġsol diers
quad r
()) [
'' (
ĠĠĠĠĠĠĠĠĠĠĠĠĠĠĠĠĠĠĠĠĠĠĠĠĠĠĠĠĠĠĠĠ ĠĠĠĠĠĠĠ
Ġfire flies
ĠSpec ifically
ĠTam my
ĠDefin ition
G BG
S imon
b unches
k ristin
cl ient
Ġfire wood
ĠPR OOF
ĠBa iley
P si
len s
Ġgrand pa
Ġconversion s
re cip
âİ ŀ
Ġeng ines
ĠE den
we bs
ty ler
sam antha
Ġfund amental
duc tivity
T revor
ĠH ypotenuse
75 60
$- ,
ĠSo phie
fer til
mem ory
ĠIden tify
G race
Ġc ustard
ucc ino
I van
Ġs ally
Ġb len
def in
120 12
Ġatt ends
press ure
36 3
Ġpick up
z ones
ll ll
Ġp urses
quad rant
ren ada
backs lash
ĠBet sy
ĠH azel
throw ing
Dan ny
ĠP ond
We ll
ure l
ĠBC X
Ġvac cine
)| .\]
) _{-
p c
ex ce
ret el
ĠMarg uerite
k endra
ĠF E
50 8
ĠG en
ap ely
Ġdeduct ed
Ġenco ura
Z X
Ġformat ted
arg um
pre gnant
charac ters
appetiz ers
} >
ĠP O
Ġst ories
23 478
oh an
mark down
ĠRo ck
jo ined
Ġsuff er
co ffees
ĠâĪ ł
Ġment ally
r um
77 44
og le
Ġrac ing
oct ahedron
uri ous
P ythagorean
Ro berto
ĠG oo
Ġtre ated
ĠAB F
ĠCh ange
ĠMar vin
Ġbul b
h annah
Ġj ugs
sk irt
Ġintro duction
c rystal
Ġ3 17
Ġal i
56 16
tall est
k atie
ĠH asan
Ġ9 42
ĠR en
Ġsh ingles
]] ).
ĠLe ft
IN ATION
sc ipy
Ġesti mates
r anges
Ġst an
]) /(
len ol
HS ME
n ational
us d
if tieth
ĠC edric
Ġbag uettes
dry er
ĠIndex edBase
: ],
hen ny
65 8
Ġdu cklings
C arter
L u
Ġp ts
}} }}
eat on
Ġspark ling
ĠLit tle
Ġdist rict
sp in
sh ips
2380 95
Ġpro cessing
Ġpre cise
ĠGra de
k ay
s cholarship
Ġr ush
Ġaltern ately
ie ces
pick les
Ġ3 14
Ġr ated
Ġqu otes
Ġdefin itely
ĠBP D
marks calefactor
f p
ic ing
89 753
il ary
ĠM iranda
17 80
sh uff
Ġ3 2000
ag ers
)^{ (
Ġoffic ial
temp ting
ĠWill ow
Ġn au
ĠN i
ĠT OP
wo ol
Ġparametric ally
Ġclown fish
))* (-
ĠTim my
+ %
Â ³
Ġob st
Ġ27 3
hig her
arb on
Ġpre cious
Ġ75 8
Ġrestrict ing
Ġcoinc iding
guit ar
â ķ±
se ated
("$ "
Ġ{} '.
Ġdan cers
f rames
line ups
999 00
ĠRo berto
rad or
Ġspin ach
p tions
(' *
ĠM T
ĠG AC
incre asing
cool er
G retchen
L ondon
run ettes
occ urrences
was her
Ġtol erance
h appy
ĠS age
AB AMA
ref lections
lips tick
WE BPACK
7 15
ĠL ena
39 4
vers al
Ġren der
% "
Ġ ĉ
Ġw et
Ġh ushpuppies
Ġcl erk
ĠK urt
Ġread ers
Ġborder ed
c arbon
k ed
ĠS olver
Ġre paired
Ġ10 389
CD M
29 2
se lection
Ġper mut
em ic
An n
Ġnau tical
ig u
Ġj ury
}\| .\]
Ġcamp aign
Ġextreme ly
rese arch
ut ter
Ġpo ker
ĠD iophantine
B egin
C ube
] )*
| $$
Ġse venty
ĠD elta
ĠF abian
IL D
ĠRot ok
ĠO z
ans el
Ġcar p
ĠK o
ĠConsider ing
puzz les
ĠAny a
Ġl ane
66 1
cle ar
Ar thur
pand a
S tick
intersect ing
Ġgen res
Ġâİ Ŀ
Â° .
ĠMis sy
ĠQ CA
17 89
lay ing
ĠEr n
c ache
ol ives
Ġqu otients
D BA
M ore
ã ģ
Ġsp ools
Ġj uniors
ĠK eanu
br ing
Ġrese arc
Ð ±
ing le
clo vers
cat enate
Co ll
ĠA re
ĠS alt
Ġus ages
ma tic
con vex
Ġcont ents
marath on
s ack
ĠS im
ĠF at
Ġany where
triple t
Long leftrightarrow
Ġtes sellation
B angkok
ex pl
Ġ100 5
ĠG retel
Ġmarket ing
Ġcolour ing
Ġc ensus
EF CD
mar ried
ret ta
Ġorgan ism
Ġa aron
ign ets
}| .\]
check ed
Ġsmo king
Ġrasp berry
t revor
50 3
--- +
ĔĔ ĔĔ
Ġt il
ĠP CA
ola id
ĠPast or
B a
C a
arg e
ap se
ches s
ĠCh ord
ĠGe ometric
Ġeast ward
BI G
ĠM arc
2857 142857
cel er
ĠIncre ase
8 54
G ra
i ppings
ab its
Ġst alks
Ġat tempting
65 61
comp onents
Ġhigh s
St acy
Ġpost ed
Comp letion
} +(
Ġn uggets
it os
Ġl agrange
ĠJ e
75 2
Ġany way
)), $
grand mother
Ġrat tlesn
Ġh ikes
Ġres ist
Ġaccount ing
ĠGre at
est ones
Ġpres sing
Ġward robe
ti ed
ĠE man
Ġdig amma
Interval Marker
Deprec ated
Ġbook case
^{}_{ }$.
Ġbelie ves
Ġi b
di ego
15 44
ĠB ron
par ks
ur b
ĠB alance
Ch ris
' $",(
U T
') ])
Ġ`` $
Ac me
), \;
18 40
96 32
Ġ120 5
Ġdata frame
Ġcash back
omes tic
Ġreason able
Ġ512 000
; \$
G roup
ĠR P
Ġdri lled
Ġ2 999
ĠL at
'' \
ĠHo lly
T yler
Ġ2 64
Ġre ps
Ġas ci
ĠE mmanuel
cy an
Ġoff set
39 1
Ġnegl igible
iden ce
Ġdough nut
Ġorgan izing
ĠDivis or
Ġk en
Ġ" $",
Ġdon ating
Ġem ma
ĠSta tistics
Oliv ia
M n
ĠB oris
11 40
Ġ&= \
ĠBill ie
C al
a pr
Ġgeometric ally
Ġs orry
con v
ast ype
La uren
h atch
Stick IntervalMarker
w k
Ġa wake
ac ht
ĠT emp
Ġblo om
Ġaccording ly
christ mas
cla ws
Ġre wards
ĠR ichelle
Ġ< <
ale m
infl ation
he ct
Ġcon temporaries
ĠM em
ĠF am
ĠR Q
Ġschool ers
133 5
Oliv er
di ane
Ġharvest s
ĠĠĠ čĊ
)) )]
ĠC N
Ġcharg ers
Ġciti zens
Ġa de
Ġb ats
ĠS pace
Ġorgan ize
9 40
j ayden
o ody
ĠS eat
ĠF X
Ġpri m
Ġexce eded
G ary
K O
g if
Ġst ead
low s
ĠAdding ton
po ssibly
cho ir
27 44000
Al icia
buy ers
ĠChar lyn
c ros
Ġg rant
ck tail
car ol
prac ticed
Spe c
ĠS ize
ĠS aturdays
ĠM ounties
Ġsco ut
Ġ' __
tom my
11111111 1111
sn ickers
Ġclaim ed
Ġcollective ly
C hand
ĠG olden
Ġgre g
Ġ60 4
23 60
hel p
bow ling
le ash
st ory
In valid
in estones
Ġ( (\
Ġsal ted
es sy
am t
Ġsk irt
cont est
pat terns
E vent
de cade
ac ids
ĠA uto
lo vers
ĠB reak
100 111011
Ġj anet
Ġ28 35
bur ritos
cardinal ity
3 0000
Ñ ĸ
Ġ= &
Ġh arry
ad option
Ġ17 60
Ġ52 80
reg ions
dr ums
Co st
CR EF
tv s
b ca
Ġcl inic
sho uld
320 6
ķ² âķ±
Ġch arlie
Ġimp lements
ubl ished
g oes
bo id
Ġroom mate
gl uten
16666666666666 666
7 75
p ant
Ġl ids
Ġde merits
ĠN ada
18 000
27 12
190476 190476
Ġsc all
Ġair line
cont inu
ĠJeff erson
j ose
ent ries
Ġclar ity
cous ins
l ateral
Ġl umber
ag ent
ĠB us
do c
la ine
ĠPol ar
Ġsp an
Ġ> >>
Ġindivid uals
Ġgl uing
Ġcarri er
+... }}}$.
correspon ds
Grand ma
Ġ }}
Ġ2 200
Ġk at
Ġthan k
bus hel
Ġhealth y
L inda
a ven
rom e
Ġr ang
Ġ9 801
left most
sec s
list s
multipl ic
qu ake
), $$
ĠI mp
\] \[\
Ġlo ot
)** -
Ġfigure d
ier a
LE S
Ġas s
ĠH end
circum circle
Ġcriter ion
Ġbarb ell
7 30
Ġto ps
Ġre writes
17 68
Con vex
$ ''
x ic
ic nic
BC M
ĠY uri
lli ot
âİ ľ
cell aneous
satisf ied
Ġext rema
N T
Ġx scale
te ch
Ġbus hel
hol id
pher ds
qu el
qu een
Ġbet h
vest s
ĠJay len
987 3
Ġcla ws
Ġtil ings
ill in
to ilet
Ġang ular
Ġnot en
tri ed
be at
Ġrel ay
Ġformat ting
Ġequivalen ts
squir rel
Ġcrossw alk
y es
Ġb rian
Ġ$\ ;\$
print er
)] \]
)+ .
br anch
Ġbed bugs
ĠPh illip
I maginary
{\ \
Ġ17 89
Ġpre fix
ced es
ĠComp utes
ro osters
Ġun eaten
Ġmultiplic ities
Ġabil ity
sh ower
Ġ50 5
Ġbar ks
396 2
Y ear
ĠCo efficients
Ġblock ing
map sto
ship ment
qu af
res er
Ġmag net
l m
mat ed
ĠL av
35 99
check out
quaf aba
t of
in ue
55 00
Ġele m
tract ors
Ġcha ins
Ġrespon d
artic ip
mill iliters
5 77
V ol
ĠS core
To by
ĠG HI
yp art
Ġcur tains
fen cing
bl ic
000 4
Ġmon ster
Ġche fs
pa le
christ ina
j unk
ĠS ine
ian ca
Ġflo ss
Ġpet e
john ny
230 4
cra b
P P
Ġper eg
Ġdis c
Ġhor ns
Ġbell ies
ili ary
Ġ1 101
ug mented
col n
87 8
Ġchess board
ac le
10 17
ne ll
dan iel
make up
AB MO
ens on
ĠRound ing
Ġcon duct
^{ }$
}}{ |\
m ars
al ot
to tient
Ġcare er
Ġham ster
Ġin jective
10 90
di ana
ho se
Ġmark angle
Ġf alcon
(" ?
lls alot
Ġcast le
ĠYe llsalot
id ia
pro gram
Ġ .$
Ġa mplitude
Ġan na
ig ence
pre fer
dan cing
station ary
Dar ren
H G
on ion
ĠE ating
CD J
76 923076
Ġarti ch
b ubble
Ġre habilitation
Ġj enny
Ġar ange
ĠEx amples
49 2
Ġplant ation
ef eller
hel d
Ġsemi col
BQ W
}) ),
}}{ (
Ġdescri bing
Ġmemor ized
B ert
Ġl unches
Ġsp it
ĠN ipper
ĠL argest
ke lly
Ġback packs
Ġsimplif ications
Ġsn ap
1011 10010
B W
g ates
ĠE NE
87 9
Ġaccept able
1476 3
Ġst range
ĠRo y
rel ated
das hes
ĠCH X
ĠFern anda
4 21
S eptember
j unior
ĠĠĠĠ ĠčĊ
ĠF isher
clean er
Ġvers us
ĠSn ickers
Ġorphan age
Ġf iction
ĠC RT
Ġbig Hexagon
whe at
0 14
Ġg a
meric an
All ison
ĠAI E
- (\
ti ff
ues days
sh aring
ĠGeorg ina
ĠBX C
Ġa im
en y
ĠAB X
\, $.
ĠLiz a
ĠFl uffy
; =
b elyn
Ġcom ment
ĠL acy
ĠV ale
$( $
stat us
Draw ing
b rate
b ronze
ĠI sa
ĠN elly
ĠT ur
ey ton
Pl ay
147 65
esti val
4 34
ĠJul io
squir rels
B arbara
Ġpa mphlets
11 000
Ġgra d
Ġpack aged
Ġlow s
ĠPer iod
coef s
5 85
12 73
26 97
sa fe
C redit
Ġb ent
Ġde leting
ĠC u
ta ught
Ġgroup ings
class mates
LO SE
ĠDivis ors
4 11
co vers
ĠL indsey
da isy
quari ums
up ils
55 2
Ġhorses hoes
I M
ot hem
(( \
ĠB all
Ġk yle
ca ven
Ġtur quoise
yd range
}) +
sf ul
Ġnon prime
Ġsucce eding
ĠSeat tle
Ġ$\ {\
Ġint uition
(" ",(
Ġiter ates
ĠCh ase
she ll
x part
Ġi ons
ĠEx p
Ġtransfer red
ĠX OXOX
Ġcy cl
tooth brushes
prop to
C enter
k ule
Ġ6 67
ĠR uby
over nor
}} -\
96 59
ĠAl titude
m ere
ti st
Ġro ugh
Ġ14 40
109 87
Ġinfl ate
Q OP
ĠM ST
Ġper fume
ĠIntern ational
Ġp ilot
ĠV ol
sa usages
ĠJill ian
Ġdry ing
5 0000
ĠBe ck
Ġfur thest
B rad
Ġ4 48
ĠC PA
dri ves
grand daughters
470 1
, ,
ul der
Ġde emed
Ġwra ps
147 64
lik ers
Mart in
8 36
text book
la zed
Ġcr an
Ġ88 99
Cont inuing
. __
R ick
h aps
Ġbe l
ĠD CE
Ġsto ol
Ġex c
cos x
ne phews
Ġ25 75
Mar cy
113 259
ĠApp les
Ġclar inet
ĠMST ang
F in
Ġb ubbles
term inating
Ġsell er
Ġ43 20
D N
Ġsy nthetic
unt her
cale b
Ġcele brate
pale yellow
on el
us k
Ġh ints
Ġall igator
ĠKrist en
dd les
way point
Ġcould n
})) $.
tru mpet
Ġknit ted
l sf
p ans
all ison
ca ve
appro xim
Ġexec utive
ĠStephen son
Ġt attoos
Ġ3 77
Ġ19 50
Ġdefault dict
jerse y
J K
Ġth ri
Ġg or
ĠE ast
arg max
160 8
ĠBar ney
T iffany
qu anti
ĠA b
66 3
35 00
Ġstation ed
Ġfore cast
ĠMis sed
ĠLin coln
tiff any
f urniture
l ulu
Ġw rt
ch ase
draw ticks
Ġclothes lines
Ġau x
Bu y
MATH COUNTS
Ġl u
ug ges
Ġcaps ules
Ġadjust ed
camp ers
3 774
ĠA ce
est own
Ġj ugg
=' --')
ik ipedia
))); }
Ġpan cake
llam as
Ġlady bugs
bo ol
Ġr u
Ġad opt
ĠMulti ple
j essica
20 47
ep ing
90 4
ĠMel vin
}", ((
conom y
ĠMoh amed
express ed
g unc
min im
PR OMPT
tre asure
O riginal
Ġy ticks
Ġsa x
19 80
win ners
df dx
cum ents
stu died
n ament
Ġg unc
ig rams
Ġspe lled
Ġstep size
ĠAust on
Ġattrib utes
ĠGa ussian
Ġcha per
Ġâİ ŀ
Ġpq r
12 80
Ġgrand son
ĠAp ple
857 14285714
b n
Ġe mer
Ġtotal s
Ġcap able
106 1520150601
Ġleaders hip
)\, $,
- (.
B EFC
M ean
Ġt ab
ĠG olf
Re f
j ared
l imes
Ġf iftieth
Ġstock ing
ĠDon ny
Ġalign ing
ĠCol or
Ġ rig
Ġjo ystick
Ġunder l
phra im
sh ade
pher d
Ġsemicol ons
I V
M ason
it ted
42 75
ĠCra ig
le vels
Ġ3 200
-- ',
Ġde arest
Ġqu otation
Ġbirth days
Ġ87 38
âĤ ¬
Ġi gcd
Ġ Ē
ole on
no ught
Spec ifically
2 200
k enneth
ĠM AC
ĠD odge
)}. .{
Ġchar coal
_{}^{ }$.
Ġl ack
38 3
Ġplat form
Ġabsor bed
10 53
Ġlo vers
Ġ40 29
z part
Ġm ari
ge o
ici ency
Ġer rand
Ġide al
153 153
P articip
Ġwe ed
ch lorine
read nought
ĠRe ese
g athered
Ġ6 48
99 96
\\ -
55 9
pend own
Ġinst ant
Ġ$ ?
to phalf
ĠExpress ing
aps ack
gu ard
M essage
Ġx ticks
ĠD M
ext ern
Ġidentify ing
ige e
h um
ĠJ ob
ger ald
ĠEd na
Ġprofession als
f a
am ara
ĠL p
&& &\\
lock er
eli pe
milksh ake
3 124
H onolulu
Ġ ....
de leg
ĠB ess
ĠSo up
Ġsk ill
assi c
ĠAma zon
Ġbio graphies
\ }$?
de cember
face color
bottom half
B N
b onsai
m ugs
Ġw arm
99 00
ĠW ILD
Ġarc time
cccccccc ccc
gira ffes
depart ure
Ġdepen den
emic ircles
ĠMem orial
Ã §
25 0000000000000
)* .
ĠSet h
Ġfam iliar
sal aries
determ ined
ĠPi per
---| ---|
x n
Ġy acht
ĠI ris
Ġzo oke
Ġres olved
gra ham
ĠG iselle
Ġ24 9
((- .
Ġri val
ĠComp leting
Ġbabys itter
Ġportra its
T ION
Ġ2 66
)) )/(
mod ified
Le e
Ġsq r
$ [
j eremy
se an
Ġpoint ed
ĠT an
ĠTo dd
high light
6 88
o ven
Ġh anging
ĠM en
ĠH C
get context
AR ML
," $\
FG D
A pril
Ġhe ars
Ġwas hers
23 17
Ġrun way
coll ege
142857142857 1
Ġsugg ested
K en
le ans
ot ter
Ġpro grams
Ġse minar
$", -
Ġge orge
Ġvisual ization
kn acks
angaro o
as paragus
}\ )
Ġte acups
Ġrel ational
man n
Ġmother s
ĠFlat ville
% )
ra p
Ġst all
}$. )
=" ")
87 35
Al titudes
Ġ? $$
159 137
('.') [
J L
ugg ers
ru it
Ġreplace ments
$" };
ĠDi agram
kn ife
~ $\$
)^ ^
Ġmat ched
Ġexpand s
=" ./
Ġsupport s
um ont
Ġm apped
)$ ".
sol id
40 20
ep ad
Ġbath s
coin cide
22222222 2222
Ġhoney dews
ĠWolfram Alpha
( )*
Ġin line
Ġm int
ine e
lo yd
18 21
28 125
dan delions
snow flakes
h ana
| +
ĠB lock
ĠD allas
f il
p d
min i
Ġwork place
pan el
ĠMo ivre
Ġanaly tically
Ġvari ation
Ġsuff ices
Ġcomp ris
Ġgraph ing
Ġplug s
da vid
Ġpres er
man ager
133 9999
ala pen
dark color
Ġrack et
m al
in valid
re paired
it ation
am o
ĠL ang
}}$ ",(
ĠRo ots
imp rovement
ĠRot ate
ĠEr atosthenes
Ġinterpol ation
Ġration als
c rows
is lee
Ġ3 194
pi ed
Ġz inc
ĠL exie
ci en
Ġac c
âĢ Ķ
Ġwonder ing
T O
Ã Ĺ
Ġ utensils
ma ple
ĠSt age
comm ute
spit als
extern al
Ġt ack
ĠS ho
Ġ3 232
pa tient
BC DE
ever ything
ednes days
medium grey
ĠBra zil
ĠExam ination
) ?$
Ġwh olesale
Ġsh uck
big gest
Jo el
Ġopp onents
ĠRot ation
Begin Arrow
: }
Ġr yan
ĠJ uniper
29 70
PQ S
jo ey
{} '.
k elsey
Ġ3 31
Ġ3 967
}\ }$.
tri cycle
Ġsnow ing
nth root
dedu ction
ĠDVD s
S asha
l amps
Ġde tail
Ġcomp ete
25 25
ge e
ĠW ars
arrow start
hex labels
ĠPlot ting
}$" ),(
7 979
Ġ4 125
ĠR ey
Ġang elfish
ĠT Y
ject ory
Ġnormal ized
Ġtext size
vertical mark
Ġbold face
K rist
Q Y
th u
Ġ20 48
Ġqu ota
larg etext
ĠBea umont
re pairs
ĠM iami
Ġ7 149
Or der
Ġsax ophone
ang ela
Ġcan taloupes
ist lers
Ġ10 11
po ll
ĠR af
13 19
press o
arc eny
ĠCh antel
F ifty
Ġf elt
Ġcol s
Ġen sures
ĠRe ed
Ġcat fish
Ġreci pients
Ġtran sported
Ã ¶
ent on
ĠW ar
$\ #$
ĠDor is
on te
Ġco ding
ĠM os
Ġj ackson
sh ane
ĠK ay
ty p
ud itor
$ "+
ith ump
po gee
ĠO ff
Ġ87 36
Ġweather man
ĠAppro xim
uditor ium
F ully
l asts
ĠA OD
Ġso uvenir
Ġcre ased
util ity
" .)
c uffs
Factor ial
j ohns
47 2
Ġremo val
rest ri
cher s
smo oth
I B
h d
Ġv lift
Ġpar lor
cheese cakes
Ġinh abitable
Ġn urses
Ġlog ical
\% ",(
post cards
ĠJoh ann
' -
* -
u eg
Ġt racy
iv y
Ġfl ute
Ġri pped
ĠSe lena
Ġincorrect ly
Ġrac coons
Ġfre elan
ĠM L
Ġmini ature
" (
ti a
Ġb ond
ĠQ RS
ex ams
Ġup dated
ca ra
64 7
\% $?
Ġmar igolds
ush i
Ġtag ged
! []
** :
Ġde mand
ĠE DF
}$ }
Ġdis appe
Ġhist ogram
4 285714285714
m aria
n ancy
Ġs m
ĠP TR
ma el
hel sea
âİ Ŀ
f ives
Ġfactor izing
Ġwas her
Ġgo ose
string pair
blo b
ĠGe off
Ġperp Label
Mc Gwire
mo ons
Ġcl ip
Ġele ctions
ĠDist rict
Den ominator
C rest
C ameron
ĠP art
Ġres um
ĠX enia
}: \
enclo sures
" ;}
Q ueen
Ġt ina
ĠI sol
40 304
shuff ling
r oles
po ured
rel ative
EDC MO
b ruce
de mort
ĠS QR
ĠRo ad
ĠSh ara
ortho gonal
) }.$$
F red
Ġc indy
ĠG erry
ugg age
dri ft
Ġattain able
Ġpersonal ized
( ),(
M andy
Ġst eve
Ġche eses
che z
back pen
mag nets
ĠBen jamin
S P
fold ers
g ather
m ets
Ġpo ols
ĠC amp
Ġ... $.
liz ards
Ġparametri ze
4 26
is ol
sp ark
so dium
Ġ48 7
__ ':
Ġste al
circum center
66666666666666666666666666666666 66666666666666666666666666666666
accept ed
{ #
à ¸
he alth
ĠS D
si an
() [-
}}{ -
Ġla und
Ġmed ication
Ġdri vers
)))) ))$?
ĠMark ov
ĠDar cy
Kim berly
v stack
Ġt y
Ġas sort
ĠY XZ
Ġce ment
newsp aper
Ġsummari ze
Ãº blic
_ \_
Ġm ild
ĠE ve
Ġwr inkles
Ġ\[ (-
Al an
ful s
z ing
ct x
con ver
38 574
Ġdisplay ing
EC K
ĠJac ques
ĠSk ylar
Ġsh ades
Ġfin ance
ĠPaul ine
ĠMay a
Ġassort ment
ĠAr nold
fl ake
)*" $\#$
Ġ87 37
ĠJuan ita
******** ********
' (-
V ID
Ġ2 28
Ġg r
Ġtri mm
=\ {
with in
t abs
cl own
Ġ$| -
Ġjo gged
Ġtro phies
1212 1212
Ġtradition al
19 156
Ġquit ters
E ither
ĠO BC
Ġfit ted
m egan
o or
Ġa k
ĠA v
block ed
Ġscall ops
Ġs illy
Ġo aks
ĠB asic
sw itch
84 1
2 160
bo se
Ġ10 40
ĠB asket
Ġtooth paste
rich ard
ma ining
ĠAd dition
ĠTer esa
ĠDiagon al
Ġfail ure
L p
R odney
cy clic
18 90
Ġ17 29
rid ges
nel ia
mult inomial
Ġsurpr ised
Ġdis placed
Ġamong st
Ġlunch time
ĠVer tices
a uto
m inton
pa w
Ġir reducible
Ġd ial
po ses
Ġgra ham
know ns
Ġcheck ered
cut ting
AL S
xx xx
D J
E valuating
b rick
mp led
ĠC ody
Ġsta pl
\ }.\]
Ġwith draw
Ġread able
Ġdiagram s
ĠPop ular
ĠDifferenti ate
9 28
pro cessing
Ġver ified
Ġjog gers
/ )
25 88
150 280
tw os
10 293
sol ar
67 3
Ex pression
rele ased
Ġ24 4
fl ights
ac cum
Ġ7 148
sp illed
ĠG inger
cre ation
BF C
offic er
e agle
f av
el ia
ĠL ond
In cre
Ġplant ers
Ġson nets
fly ing
imburse ment
P enny
f an
l uke
16 33
CD EF
)] ).
sen iors
ĠWith out
uds on
p ublic
{ %
Ġex cess
pa ula
()) ]
ĠFin ley
Ġbott led
s usie
Ġro ds
Ġro oster
69 3
Ġtru mpets
AM CN
ĠA AB
ĠT yson
subject s
}. \
Ġfifth s
Ġspr inkles
Ġmod ified
Ġcru ise
19156 364
mo us
car pets
ĠZ oo
ÃĤÃĤ ÃĤÃĤ
} ,-
Ġde af
(' .
Ġj i
Ġbl isters
Ġcr ust
trig onometric
Ġ"" ).
Ġjerk y
Ġrout ine
Q x
Ġo ught
as ide
ĠA AA
arb ors
Ġ64 35
scar f
Ġresto ck
m arcus
le ila
ĠC MB
we b
llm s
ĠM D
ĠR ADII
cle ngth
96 00
Ġfeed er
sci enti
v anna
Ġ7 146
Ġtri pling
ĠG ina
ĠYZ X
Ñģ ÑĤ
sin x
umb bell
357 4574
D omain
g ross
z v
Ġ10 80
Ġsh apely
gra ded
Ġsit es
ĠQu inn
nap kins
3574574 4574
R os
c argo
Ġbe came
27 000
che mistry
xic illin
j k
ow es
ĠE uclid
ĠI ng
Ġeval f
Â Ŀ
Ġn ull
Ġamo xicillin
ef gh
Ġbre ast
G en
\ (
15 51
18 60
18 96
sq ft
eb an
iy ah
ĠJes se
quanti ze
Ġ7 147
Ġj ayden
iz ers
li me
Car los
ĠExpression s
k ers
ĠP ack
Ġnew s
arb it
Ġfl uffy
And rea
Sam uel
duplic ates
m ma
ti ful
Ġro ast
tri cycles
ĠZ Y
Car ol
ĠSan chez
Ġstret ched
cloth ing
N athan
Ġimport ing
actor s
Ġsa ra
Ġmark down
Ġtransport s
Ġskate board
Ġthumbt acks
A J
e arl
ie mann
ĠZ ig
gu inea
ez its
ch ihuah
Ġar cade
... ,
EF BA
An thony
AT E
D ot
b ubbles
r ds
Ġpol ka
ĠLe mon
LO G
ĠRS C
| \\
il ty
ĠF o
Ġav ocados
ĠT ARTAR
gre ta
be ad
t el
} %.
Ġ\ *
pre tzels
m row
Ġd umbbells
oh ann
eigen values
sne akers
Ġfox es
c math
d m
Ġint s
ĠB ret
V P
Ġh ib
ry s
Ġj on
Ġfall ing
Ġhib iscus
f iction
s me
Ġcl ips
Ġlik ing
ĠAX F
ĠMel inda
396 7
ĠSa int
ĠOl ga
q a
Ġc racked
Ġle o
ĠO F
Ġ' {
Ġcl usters
por k
ĠCh ildren
ĠChe mistry
Ġreve al
ĠR ussia
14 444
ĠW ise
Ġelect ed
ĉĉ ĉ
c ities
Ġb erry
Ġex posed
Ġj immy
ĠK ibble
29 00
sl ots
cur lers
V ieta
Ġre members
Ġ4 60
Ġ7 60
ĠN on
56 3
rece ives
Ġelectron ics
h rs
ab x
ĠM iguel
Ġpa tio
be e
Ġsk in
Mid point
Ġ( =
Ġst akes
CD A
olo zi
Ġtrac ed
D eg
l an
ĠS l
ĠC ary
con cert
mo ds
o a
Ġm ilitary
({ "
pic nic
format ters
Che ryl
Ġcommut ative
Y M
Ġp alm
Ġrequ est
dam age
246 35745744574
subtract ed
Ġaux iliary
ĠF B
ess ay
eb as
temp s
Ġ3 22
100 101110010
Ġ23 45
find all
llam a
7 145
S p
Ġj udge
)! }{(
Ġprogram matically
00000000000000 2
Ġgu y
Ġwait ers
arbit rary
$ (-
Ġb es
il ts
Min imize
ĠS avers
Ġle aks
ad verti
12 16
666666666666 6667
argum ent
ac tions
Ġdi apers
Ġtow ers
88888888 8888
6 16
Ġ3 554
ho ckey
Ġ13 69
Ġpizz eria
pie cewise
10987 6543210
j essie
Ġf ailed
th ings
24 40
Ang ie
ĠDor a
island s
ad y
ho ods
Ġgraph ic
âĢ ĵ
Ġcur b
ĠEarth lings
Ġoccup ies
Ġorient ed
Ġp b
Ġcomp arison
spe c
made line
Ġobst acle
s andra
ce lle
pha el
Ġimply ing
Sha wn
Ġ3967 149
' ;
i q
Ġ3 774
ĠM ount
ass istant
ĠK ai
999999999999 9
5 28
Ġe uler
ĠA k
cl ick
Ġen large
AE XD
00000000000000 1
153 25
Ġk osher
ĠJ emma
29 1
pick ing
Ġden tist
le tic
Ġg loss
ĠF O
bol ts
Ġshow ers
ĠAr man
ike wise
Ġtreas urer
s uv
Ġrot ates
cus sion
AM C
Ġbe avers
24 000
ile e
Ġsw aps
rack le
ĠMo del
arshmall ow
ur ley
ig go
Ġtra p
ĠPQR S
dan ny
post s
ĠRe ference
ĠCont inuing
Chand ra
N D
S uch
m np
ĠE van
64 1
âĶ Ĥ
Ġtable t
ĠVal erie
Ġparake et
f ires
g ri
ĠE ns
ĠB ennett
ie ws
Ġrece iver
clo set
project ed
fill er
54 3210
Ġcharg ing
ĠYou T
5 66
is abella
), \\
Ġchild less
Ġwild life
ĠCO VID
th omas
Ġx x
18 80
bl own
Ge ometry
ĠTra vis
+ -
ĠT ODO
Ġ40 8
Ġtop soil
110 65
sk i
Mon th
ĠStu art
Ġ8 0000
Ġsh uffle
ware house
235 294
Ġblow fish
geck os
M ag
M adeline
ĠL ara
35 3808
3434 3434
Ġw igs
Ġb isection
van ia
999999999999 998
K o
k illed
it ness
Ġcan died
ch inese
ĠR iemann
Ġti kz
Ġ17 28
v p
an che
ĠE mile
Ġlast ed
system s
ham ed
8 284
ĠC ast
save fig
S O
th us
ĠB ox
0000 5
\, (
summ and
ĠBl air
Ġ( |
tern ut
Ġbill boards
Ġelim inating
E P
ĠM aur
des cription
Ġste er
T ake
j ohnson
q ty
s und
v iv
AB YX
Ġmon it
init ely
/ |
all close
enve lope
5 000000000000
g ap
Ġb inders
ĠC lyde
Ġdown town
Ġearli est
car rie
Py x
ĠCor al
K B
de posited
M er
m t
omet own
Ġgro ve
AF B
FG IH
succes sful
ĠP uffy
Ġcollect ors
36363636 3636
Ġlil acs
al og
ber ation
ber ta
ĠC lo
time delta
Ġlin space
ĠLond olozi
T amika
Ġde leted
end o
ĠW oody
Ġ17 68
Ġdir t
Ġfin an
ĠAnd rena
big g
Ġsu d
ĠVenus ians
Ġthe r
Ġan thill
ow ls
Ġ3 96
Ġpo etry
ĠW idth
54 1
Ro sie
Ġmel ts
ÂłÂł ÂłÂł
~~~~ ~~~~
Ġre tain
ĠP utting
For m
Ġcol a
Ġ... )
edi ent
Ġrat simp
b one
f time
j ail
p silon
80 4
Ġpol ishes
sk ates
Jo y
w anda
qu eline
Ġ9 118
100 6
Ġad am
Ġroom mates
ĠC OM
Ġsumm ands
ĠMil ton
Coord inates
ĠRegular Polygon
Play er
}} }\]
len da
Ġtrans action
Ġconsist ed
jo gged
Ġstock ings
Ġbabys at
?? ??
electric ity
Ġe Book
th ick
): ",
Ġfe asible
def initely
Con dition
tenth s
Ġchihuah ua
: (
c z
Ġd ar
}\ ).
ĠG F
Ġstreet lights
La w
Ġattrib ute
ĠLore lei
ĠM acy
pt ures
Ġtra jectory
Number s
Jo an
l ilies
Ġa uditorium
un knowns
ĠU ber
ĠC Q
Ġ' /
XY CD
Ġmodel ing
none ers
ĠNe ville
State ment
ĠSpring field
6 84
M ickey
ĠY asmin
repe ats
urpe es
Ġco yote
Ġv enn
ph ia
19 76
Ġbusiness es
n ines
Ġe vi
ĠJ unior
ĠU pper
Ġchihuah uas
Ġc amera
ac cess
ĠB AP
Ġsh ips
mark ed
ĠYan kees
wolfram alpha
Ġpoint ers
Ġwor ried
Ġste als
ork ing
t readmill
14 000
fro zen
00 8
') ],
ĠF ri
], [-
=' ')
Ġclassi cal
Ġtren d
Ġtr uth
Ġsim on
sour s
uniform s
Ġparake ets
Ġst ole
Ġk elly
ĠG roup
Find ing
person al
bon nets
Str ing
5 24
n n
Ġt orch
ĠMar cel
cyl indrical
Ġequivalen ce
celer ation
9 0000
v are
Ġin definitely
ĠC K
po odle
Ġcar la
Ġwalk ers
pre fix
ĠSte lla
6 0000
Ġ6 66
Ġrais in
ĠDeg ree
u ette
Ġv iews
ĠG od
uff les
cer tain
f ingers
Ġx n
ĠA va
pe ar
Ġnum ba
ici ans
arb or
bird houses
Ġp itch
Ġbo oth
To gether
Ġun pack
des mos
67 20
Ġtri bes
Ġ50 2
6666 66
Ġpol o
bi us
No ah
ĠDraw ing
ĠStan ley
ĠTam ara
Ġn an
ĠR ather
Ġ40 1
input s
D igit
qu izzes
sw ords
ĠG ram
RR R
ĠNa omi
s sing
Ġfor get
Ġ4 44
Ġ88 139
b ass
ĠS ol
Ġsp ray
14 30
tra iling
Ġref lex
appl ications
S olver
j ess
Ġre covered
bin o
Ġdil ated
mari on
zek iah
5 29
Ġbu mper
ĠSt atus
Ġlight er
Ġmill ipedes
Ġblank et
Ġtack le
v ote
z lo
Ġwe ird
ĠE OD
37 13
ĠĠĠĠĠĠĠĠĠĠĠĠĠĠĠĠĠĠĠĠĠĠĠĠĠĠĠĠĠĠĠĠ ĠĠĠĠĠĠĠĠĠĠĠĠĠĠĠĠ
tro mb
Ġcab inet
Ġt ulip
ĠM ing
la ide
str ftime
Ch uck
match sticks
ĠMag ic
glo o
ac ute
mpl ing
Ġlat te
Ġpu lls
ĠDon ald
Ġisol ating
Ġfrequ encies
ĠMATH COUNTS
" ][
) `.
Ġ3 572
Ġ24 7
ĠBer nie
fire flies
er ra
ad ows
ĠB road
Ġocc urrence
ĠFactor ization
Ġmeat less
Ġfire crackers
3 19
Ġi gloo
ĠR ico
99 01
hor ns
mother s
Ġau dio
lot tery
substitution s
Ġnarrow er
![] (
f ail
Ġasy mp
stri ct
bir ch
Num erator
7 14
Ġ49 5
ĠPrin ciple
inter nal
; "
Ġs ending
Ġp ly
pen cer
j u
t we
Ġm ud
mo bile
ĠT es
Ġmon o
port ra
ern el
Ġwood wind
ĠSH ALL
M Q
c end
he el
Ġl ace
am ents
ĠN b
ĠT urn
Ġlabel ing
=- (
Ġcontinuous ly
ĠSqu ares
Ġcel ery
\ }\]
)) }{
ad o
Ġparameter ize
gg b
u di
Ġdec ision
ĠK ings
dedu ctions
Ġcran berries
: ]))
Ġ Î¸
16 800
ĠAP F
Ġport folio
7 25
14 50
Ġfold ers
ĠPower jet
Ġlion ess
vare psilon
a pt
co log
Ġ3 576
so s
Ġ25 4
For mat
73205080756 888
c ir
Ġun filled
ĠO H
Ġâİ ľ
ĠA ira
ĠT angent
ĠK ekai
Ġappear ance
Equ ality
ĠTrig onometric
Ġmonoton ically
ĠAL ABAMA
L OQ
Ġand rew
ĠS pencer
ort hern
ĠRe call
leg ged
= (\
z ia
Ġ$\ _\_
cl ients
Ġmay or
ut ations
Ġex its
Ġbo dies
Ġ25 7
Ġ24 1
ABC H
Ġsugg est
ĠEn de
Ġ3 21
ch ibald
ĠV eter
Ġg nomes
post age
thousand th
require ment
g cds
Ġin struments
ĠA saf
)) )=
ca rame
mod ul
Ġcre f
Ġpol ish
)! !}{(
contrib uted
m unks
\[ |\
24 69
() }")
77 1
}\| $
Ġext ends
Ġi phone
ind oor
Ġdis placement
Ġbr it
Ġexam ining
ĠNormal ize
Ġportra it
ĠA bel
Ġsymmet ries
chair man
Ġgolf ers
compe titor
Ġfirefight er
D AP
is qrt
Ġ4 62
cos A
ty ping
Ġour selves
back ground
ĠAm al
Cho ose
ĠIng rid
Y ann
m ills
10 56
sp inner
colog ist
5 15
ti al
Ġ$ ^
Ġrest ing
vers a
ĠAd idas
' ({
ber n
ine er
ĠF ield
gall ery
Ġ38 17
seat ings
tub es
ĠIsol ate
Ġply wood
Ġy label
ĠR ene
Ġdis carded
3333 3
Ġpre mium
kil os
ĠSur face
S oftball
um bre
ast y
bol as
TE AM
ĠTy lenol
I O
h j
ĠS cience
ĠO dd
op ardy
Ġfloor ing
pull ing
+ (\
E rin
z inc
Ġy iel
ĠA OP
Ġ8 192
Ġnew ly
Ġtreat ment
Ġm ower
ĠF AB
to dd
30 2
go ogle
bor ns
gift ed
Mo lly
syl vania
Ġ40 320
read mills
Ġroof ing
ĠPe ople
ĠR ule
Ġclo ud
Ġsign ing
ev apor
M AX
Ġm arg
70 1
70 20
ĠPo or
O l
h idden
s ites
is ses
ence ment
Ġla mbd
Ġ35 64
Ġsing er
ĠCre am
on to
ic ciana
{\ #
order ings
312 2
wid get
support ing
uls ar
ĠLizz ie
N C
e uler
he ater
ĠF elicity
ĠRef lection
324324324324 324324324324
I d
f resh
s gn
Ġt axis
le arning
ter ed
Ġlo bster
bar ks
S ay
Ġpro babil
ult y
Ġinv ites
68 75
' )).
) ==
U SD
ĠEx cell
te le
li quid
Ġ38 3
666666666666 666
Ġun ripe
24 87
Ġann iversary
Ġexper t
ĠEl mo
Ġphoto graphs
ĠMil o
alapen o
is son
ĠM ia
ax y
Ġdi aries
rad ic
Count er
ĠInter est
appetiz er
o ats
Ġk endra
Ġun covered
)} -\
av i
ĠAN D
ĠEliz a
Ġrephra se
V enus
me as
ho st
Ġ" <
Ġdis likes
98 19156364
))/ ((
Ġcompl ications
Ġemplo yed
Ġcu boid
ra ft
ĠE DC
ĠV eg
clo uds
blo od
ĠAT U
C and
Ġp entagons
Ġj ello
Ġquadratic s
cal vin
707 9632
Ġdependen cy
M S
mon ica
): .
Ġ25 20
ib by
gl ue
ubl ice
Ġlim o
ĠCOM B
k ris
us s
Ġ$\ &(
Ġcon current
Ġ30 2
tri es
iti zer
Ġda wn
Ġrestrict ed
wra pper
Di agram
ĠDiam eter
insta llment
9 84
m ad
de merits
col d
Al berto
sim ulations
Ġlap tops
n atural
om a
(' =
Ġsa plings
ting ency
ob s
ĠAr range
lay out
lift ed
N atasha
Ġd ances
Ġh uge
)) \\
ach sh
38 27
cap ital
Ġton nes
li as
work out
Con text
Tr ans
Ġ âĶĢâĶĢâĶĢâĶĢ
00 2
Ġsub way
=" #
Ġsur rounded
Ē Ē
ab e
sp icy
ĠV alent
BE GF
Ġmonit oring
W ed
m ersenne
Ġc b
Ġy A
ers hip
18 89
CD s
Ġho pes
iter able
Ġdinos aur
4 609
at alie
us cript
Ġre visit
and rea
ta iled
ĠR and
did nt
Ġamb ulance
F R
int endo
Ġse ws
inter national
St udent
Ġren ted
Ġfre estyle
! }$,
Ġ10 90
ĠT una
45 3
37 50
HH H
ĠLast ly
Ġforgot ten
S R
cent re
77 2
Ġ26 2
Ġsort ing
Ġfle as
Ġted dy
ĠCOMB INATION
E ven
ol ivia
Ġ3 47
So sa
Ġgiven s
Ġdownload ing
Simp ly
ĠT ank
wo oden
{- (-
89 60
ĠMax well
congru ences
silver ware
Ġconfir ms
Ġparametri zation
ĠMed ian
ĠVeter an
)$ )
ĠK atherine
ĠAB M
Ġ37 8
142857142857142857142857142857142857142857142857 142857142857142857142857142857142857142857142857
} ]$.
Ġd ies
end ale
mag ine
expect ation
ĠCircum ference
h ugo
ĠW X
Ġge ar
edi ous
o ak
Ñ Ī
he et
co uple
Ġc itations
5 17
= [-
ĠN eb
ext ended
ĠG overnor
till ed
ĠBD A
Ġpine cones
996 27
Ġrob ots
5 30
5 23
il ight
={ '
ĠCand ice
achsh und
0 17
7 40
ĠF REE
Ġpar mesan
99999999 999
ĠSam sung
Ġrele ases
g ranola
output s
ge ant
key e
Ġfac ial
Ġquadr ants
: %
L una
de mic
Ġhas h
23 40
butter fly
Ġâİ ł
n m
ro uts
ĠFrancis co
Ġco upons
ay ne
ĠE lean
Ġ88 135
ĠElean or
> $\
pa payas
Ġyour self
Ġ13 20
spe ars
Un its
inde er
Ġher s
Ġ" *
]/ [
9 44
f j
co ach
enn igs
tall er
ĠMich iko
urb ished
Ġs gn
Ġb ald
Ġ$\ {-
mat plotlib
17 71
Ġsco r
Ġsal ami
Ġ88 136
jerse ys
ber man
13 26
Ġ88 137
Ġaltern atively
Ġeff ort
ĠOr der
Ġglo b
Rich ard
c athy
Ã ¡
Ã Ń
si ties
17 22
Ġ| {-
blo use
Ġpartic les
Ġ88 138
ĠAd ult
shel ter
ĠColl in
Ġfed eral
twe il
ĠS il
Ġr st
ub en
Ġbo llards
pump kins
Don ald
Count ing
) _{
x c
ĠQ T
ĠE Q
yl on
ĠCel ine
Ġpur poses
rasp berries
ol and
pi ke
0000 1
or chestra
Ġw icks
Ġv erse
est one
xy gen
izz y
ah a
vin ci
]: .
ĠLu cia
Ġcab bage
indergart ners
yen as
D AC
Ġs leeves
ĠB iology
ĠIn itially
28 90
sub traction
Ġcamp ing
ictor ia
R ing
b ryan
ur tha
999999999999 996
orch ards
mem or
Eri ka
M argo
rac i
se wn
ator y
Ġwork days
Ġag ency
78 125
Ġpit bull
Ġzooke eper
da vinci
man ny
Ġsam my
ĠEst her
0 47
4 23
6 10
n ina
Ġimport ed
Ġtotal ing
sho ppers
uns el
Ġborrow ing
8 20
u ces
ĠS in
ĠM achine
Ġ" ",
xy f
Ġdrive ways
bur y
spo ols
eric ho
de tergent
if orn
im m
K ylie
w ich
Ġd ining
Ġ4 67
Ġfo yer
ou ble
96 1
' >
0 48
R G
d g
s call
Ð ¿
iv ine
the se
sp are
sk ate
Ġsam uel
Mart y
ĠSc ruffy
Ġc map
Ġ7 23
po pped
Ġphra ses
V anessa
c dex
ĠM organ
the resa
Ġdifferent ly
sand box
t ac
v iz
Ð ³
he len
or ic
Ġsp ade
Ġso d
20 21
Ġ24 2
88 134
av annah
dan delion
Ġsea weed
igu o
ĠM or
Ġwhite boards
ĠEns ure
ĠN ellie
den ts
pri mary
ĠĠĠĠĠĠĠĠ ĠĠčĊ
ĠKnow ing
41421356237 3095
Ġresum es
S at
Ġt aped
ĠC lay
ly ing
Ġla v
ĠRe verse
BE IH
sn ap
flat ten
ĠGener ating
y fish
ch ore
ĠL P
35 99627
fer n
stri ps
ĠCa mb
Ġg ep
-- |
19 59
ran ny
Ġvac cinated
Ġliter ature
Is abella
Ġscienti sts
ĠJust ine
] \
g ordon
y ummy
Ġg ratu
ĠA be
Ġtw elfth
)] [
Ġfl or
Ġclo ves
Ġconject ure
3599627 370
9 66
V G
f d
z ie
Ġpi xels
Ġlen tils
flower ing
hy drated
73205080756 88
Ġretrac ing
9 75
P G
ĠJ udges
ci ent
esto ck
Ġtarant ulas
Ġ2 18
Ġg enders
Ġfe atures
ke eps
Ġdis appear
Ġindex ed
ĠMathema tical
................ ................
0 27
y outube
Ġco pied
ent ree
tri vial
Ġup grade
ob tuse
Ġ45 3
})) (
sun glasses
rh inos
B rit
Ġh ives
Ġman icure
eng ines
repe tition
tran sition
Ġemplo y
ra lly
gum my
mpty Set
al cohol
ĠS ak
ĠEx clude
Ġgraph ics
verti bles
ĠAnn ual
1544 37
he t
out door
ĠD arryl
Ġk aren
Ġk ayla
6666 6667
EF D
pow der
calcul ators
abab ab
g le
l indsay
ill ian
17 64
Ġgrass land
Ġdam ages
Ġinvert ing
Check ing
f li
Ġcollect or
che erleaders
ĠMari us
ĠFrank ie
ĠBa o
iforn ia
Ġlav ender
Ġs me
Ġde vices
ĠN icholas
dd ing
bl isters
flo ats
usk ies
Ġre latives
Ġhe els
Ġ36 4
ĠPl anet
5555 5
stu dio
Ġinstall ation
AAAAAAAA AAAAAAAA
ĠC ube
Ġbu ck
sing ers
nd rome
ĠPro jection
e i
Ġ ])
Ġs or
cri be
ier re
Ġgift ed
Ġcame l
ĠKe ith
grand parents
Ġtes las
s ay
Ġf isher
Ġb cd
Ġpro p
Ġ5 25
ĠI D
ĠB FD
the med
Ġiden tically
sleep ing
Ġm andy
ĠW almart
Ġad j
center piece
Ġrain water
Ġanal og
ĠCl assic
ĠTrans late
ĠAustral ia
B onnie
H ead
Ġas cii
ach o
ĠH ugh
60 33
BC H
108 00
hunt s
compl aints
Ġinsta llment
Ġco worker
Ġle is
Bl ue
G ener
Ġf av
Ġsp rays
Ġrespon sible
Ġbol ded
etric ally
Ġ âĶĢ
Ġi P
Ġman ure
8888888888888888 8888888888888888
2 240
asy mp
=" $
Ġtank er
mar vin
Ġspl ash
th on
sw it
Ġra ke
ĠT C
Ġ16 80
}| =
AF C
span ish
stre ngth
Ġautom ate
re use
de ed
th rees
hes is
ave lli
}| $.
pat ricia
achi avelli
include graphics
Ġinstruct ed
ĠKel vin
4 24
j ah
u rice
Ġ1 143
ex planation
)$ ).
jam ie
Ġsyste matic
P ER
c ant
Ġ\ :
it amin
Ġlo u
ann en
Ġ )$
ĠQ M
Ġ30 3
cs v
Ġtodd lers
3967 149
T erry
Ġ4 19
Ġsur rounding
para ke
Ġopen ings
ĠEu ro
g ender
k nit
ĠP I
Ġhe ating
ĠB elow
Ġfour teen
ap ult
45 2
wh iskers
Ġmix es
LS QP
P Y
Ġas h
se w
ch amp
Ġ17 8
Ġappro ached
Ġbread th
ĠLength s
fort y
She ila
tol emy
ra ri
Ġro bert
Ġdiffer ential
18 49
ron es
lon a
864 00
Ġsurpr ise
Ġrattlesn akes
Ġgep ublice
G rant
H OU
Ġp uffs
Ġ6 80
22 80
Ġer aser
}: {
Ġsche mes
Jul y
Ġevi dent
b ridget
f ences
z el
Ġ ith
on so
per ry
Ġgra vity
na uz
54 00
CE D
ĠDa phne
TT TH
OO OO
QU ESTION
P ar
Ġ\ {(
ĠB rent
ĠG renada
Ġsin k
679 77
mir ror
r ref
}\ %$
Ġent rees
arl iz
Ġneigh bo
Ġt amika
Ġs timulus
Ġm ittens
th ias
el opes
Ġsi lent
Ġproper ly
49 48
Ġincrement ing
Ġf risbees
ĠC G
ru ised
23 00
Ġdifferenti ation
geck o
G erald
I CE
] +(
al gorithm
Ġb p
ĠIn side
47 1
comb inatorial
med ians
Ġam anda
Ġsuit cases
Ġant elopes
Ġpit ches
8 28
C XYZ
re views
ve led
ig i
ĠP ort
Ġha mm
ĠY B
Ġmanip ulating
Ġwest ward
Ġcance ling
ABH FGD
2712 4746
j ennifer
st arts
Ġex circles
ĠB ingley
Ġwhite washed
Ġsubs egment
Ġadvertise ment
expl icit
5 33
} &=\
Ġm al
pr ise
llow ing
Ġ29 7
Ġbas in
arri ved
ĠIden tity
m und
Ġb onsai
160 9
Co mbin
ĠOr leans
w ipes
ĠS us
}{ {\
ect angular
be anie
set up
Ġ` (
F iona
Ġn ature
)) \
end all
Ġup stairs
ram er
hot el
Ġt ic
ĠF I
Ġk atie
12 288
Ġbra id
arti al
Ġmeg abits
ĠBus iness
1319 365
sin h
sy dney
air ra
ĠGener al
Ġa ugmented
Ġ\ %$
Ġin ning
ĠS ales
Ġcon cave
20 40
ĠCh arlotte
ĠPro ject
tax i
ĠSuz y
uffer fish
on dies
Ġn b
Ġde tailed
Ġcho ps
Ġeven s
38 24
AE H
ĠZ ander
pay ed
char ity
sli ppers
Over all
N ick
T ry
is bury
ĠP enn
Ġ6 666
Ġdiam etrically
ĠSum ming
))** (-
enn edy
Ġpig eon
}| |
Ġdesign ing
O V
T er
re tail
}| }
ĠPar se
ĠPrompt Template
he lium
Ġh om
ĠEng ineer
Ġmultiplic ations
de composition
Ġm angos
ĠMel anie
F inal
ex clude
wor ld
Ġap othem
ĠĠĠĠĠĠĠĠĠĠĠĠĠĠĠĠĠĠĠĠĠĠĠĠĠĠĠĠĠĠĠĠ Ġ
cr it
Ġtele phone
ĠChe rie
Round ing
M EET
S LSQP
co ughs
de ca
Ġcon versation
Sy mPy
Ġorch ids
strum ent
Ġenvironment al
zebra s
n k
Ġy B
Ġsp rout
om y
Ġ6 16
ĠE mmy
ph p
ire ction
ĠZ ack
che aper
B ay
] ]])
Ġ$$ {
cab inets
ĠBay es
& $
m ich
t owel
Ġte ch
round ness
Ġcircum centers
ted dy
Ġsand stone
plant ing
Ġtetra hedra
Ġo xygen
ay et
86 1
Ġdeal er
Ġtrisect ed
\ '
e aster
ol ton
ĠC op
factor izations
use package
ank a
Ġed iting
St ore
bi ased
Ġreport s
Ġbrush ing
bik ed
ĠItal ian
0 123456789
p ray
Ġre no
ill ain
ad ia
pl anned
16 99
por ch
Ġsu ck
()[ '
Ġgor illa
Ġpo ur
}) }.
ser vation
5 7079632
9 27
L A
Ġf ights
ac ross
Ġ6 46
ĠH appy
Ġac celeration
)} +
DE A
h ives
Ð ·
si ders
100 9
Ġbu lls
44 2
dir t
tour nament
:| :
Ol ga
3599627370 496
} </
Ġ19 70
J ennifer
ĠL ion
Ġmust ard
Ġradi x
Ġfru iting
ĠCor nelia
ona ut
altern ating
ĠLat in
re becca
Ġpo ps
Ġ8 39
Ġ9 56
cre w
run g
Ġran ch
( )/
M ari
[ [-
r iting
Ġin consist
Ġd ip
Ġ3 89
ĠQ A
up y
ity n
Ġra king
Ġbro om
Ġmar tha
occup ancy
config s
brit tany
w att
Ġs ushi
mpl ates
Ġher d
Ġcos x
Ġkick ball
Ġ ){
st alks
ĠR IP
ĠK aylee
sto ols
enari o
transl ation
Ġalloc ated
Ġ2 39
int ermediate
49 50
Ġparticip ates
ĠVer tex
hunt er
ĠLeg os
ĠSho elace
v ase
| {-
ã Ģ
Ġint en
ĠR AM
ust rated
Al gebra
Ch ar
nauz ers
C li
Ġs ch
Ġth in
the ory
19 77
)} ^{
Ġmag enta
jan ice
Ġs ilk
Ġd omestic
Ġair planes
w ilted
}} }$,
") ]
6 31
A EFG
d aps
g ies
p ad
Ġt edious
ti r
ĠS oftball
Ġ4 37
ĠP icnic
ĠR etri
i pe
rix ton
Ġcl ippings
Ġlat tes
ĠFactor y
stri pe
P rint
ad on
17 04
$- \
minist rative
ĠMoh an
Ġover due
ĠK y
ĠK MAT
place ments
paint able
ĠDo ug
deleg ates
h ind
y y
Ġm ount
)) )*(
Ġro ger
Ġj eff
AD EF
ave lin
âĶ ģ
90909090 9090
8660254037844 39
S andra
| |\
Ġb b
Ġg un
ĠC BG
ĠN UM
ĠT ext
ces sities
Ġevery day
Ġins pi
Ġmy rtle
Ġscor pi
O PQ
b rac
w asted
z one
st ories
sh apes
spl ash
ĠGil bert
fle w
Ġastr onaut
D Q
X A
ve lope
Ġm os
ag ree
ple ase
Ġball et
air us
med al
Ġswe pt
Ġdart boards
ay ug
Ġpa paya
clo ud
ĠTrans l
Ġgri lled
ĠHat tie
V AL
r b
t ulip
ĠL N
Ġser geant
ately n
comm unity
build ers
Ġre tains
Ġde composed
ust ran
ne il
Ġpara graph
back packs
lay la
tro phies
Ġdise ase
cardinal s
contest ants
ve hicle
Ġd b
Ġv en
il iter
ĠR od
33 00
hip pos
ĠE conomy
ĠB ou
Ġwor m
op it
ule ts
repe titions
appe ars
Der ek
; </
B rendan
Ġan not
10 35
Ġun equal
ves ti
ĠBe au
Ġillust rated
B et
ĠE OF
') /
ĠR equ
25 47
ĠWe eks
Ġ40 305
240 1
sos celes
ĠR andom
16 40
cd f
Ġcheck out
Ġ/******/ âĢ¦
ĠV lad
similar ity
prep ared
Calcul ating
d esserts
Ġb n
Ġ5 46
ch allenge
ĠG age
Ġspe aking
ĠX ena
Sam son
" ].
L T
P CA
j uan
Ġp ing
al ison
ak imi
Ġqu al
pen guins
Ġ60 19
bo arded
im ath
Ġtwo s
tr unc
h l
Ġ4 10
Ġde pos
Ġadd ress
Ġ28 80
cut lery
Po sition
ĠSumm ation
ro oster
Ġx label
st atistics
Ġst oring
ĠD ataFrame
ĠR uth
Ġ% =
ĠJes sy
bri ar
ĠYouT ube
A ustin
o atmeal
ac les
ĠD BA
ĠF risbee
Ġli mbs
ĠMo st
N y
d ataset
Ġ !
Ġp es
qu ilt
ĠA riana
ĠJ aco
Ġreg ards
inv ers
ĠBob bie
Cal vin
ort ense
the ws
15 75
}} [\
ĠWill y
MO I
ĠOff ice
B R
Ġ5 29
ĠA udrey
ĠX C
har monic
Ġhum mus
Ġchair man
b ump
x ticks
ĠB K
Ġj avelin
17 20
ĠMar lon
î¤´ î¤´
100 100
In verse
19 200
Ġ. \
])) :
Brand on
" }
' },
X N
k ite
gra du
ge ms
ide on
Ġ48 2
ĠCar oline
ann ulus
isol ated
Ġc ir
Ġ5 57
18 69
ep po
19 88
car olyn
ĠĠĠĠĠĠ čĊ
off s
cer er
refill s
Ġsan itizer
am my
Ġor n
90 3
Ġfair y
{{ {
K atie
c ally
Ġl aces
Ġk illed
od ore
til ity
groom ing
Ġsor cerer
upy ter
_ [
b elinda
k ylie
á º
Ġm ince
Ġd orothy
ĠA dri
com ment
AA AAB
dan cers
sun ny
Ġsitu ations
Ġviol in
ĠBrit tney
N on
Ġs ake
Ġm s
ĠA ut
ĠM eat
ĠN athalie
ĠAll yn
Function s
arm acy
supple ment
Ġcan ned
six ty
ear ly
josh ua
d if
re covered
de w
se lls
cos h
Ġver bose
Ġcomplex es
pre mium
Ġhair s
Ġ115 2
swit ches
ĠS en
sp ines
Ġweight lifting
Ġhorse back
Ġbroom sticks
S n
Ġg erm
ind i
ĠH assan
ĠIn clusion
ĠĠĠĠĠĠĠĠĠĠĠĠĠĠĠĠĠĠĠĠĠĠĠĠĠĠĠĠĠĠĠĠ ĠĠ
Ġmatch books
Ġconven tion
Ġ118 3
{\ {
Ġbl acks
88 00
... ).
Ġperson a
ĠInteg rate
Den ote
Ġ\ ((
Ġto mmy
ĠS we
Ġz z
Ġsort s
distrib ute
Ġchat bot
UN D
ï»¿ ï»¿
a urs
n r
Ġb f
16 16
ĠW olfgang
Ġcy an
Case y
Ġdeal ership
ĠMad die
Distrib ution
sh ake
side walk
col a
Ġel abor
Ch icken
e el
el der
Ġde dic
ĠD ara
\% $-$
Ġhen ry
Ġstick y
ĠNat alia
Cor rect
p al
ĠM other
over flow
Ġdri ed
iche ver
rÃ© e
omer uns
S IDE
v olumes
Ġa my
Ġin circles
Ġle mma
ray an
9999 9
49 4
Ġkn ots
Ge ometric
ben ches
Ġtrisect s
Ġbuil der
| }^
Ġm as
for all
11 609
gra yson
tri al
rho mbus
Ġ", "
Ġfarm land
Ġcraw l
Ġkno ckouts
Med ian
caven ger
U Z
Ġg ad
Ġ3 18
ul if
Ġ4 73
do ctors
ib us
CE B
C entral
Q O
Ġn aps
ab elle
pl ums
14 47
Ke isha
aha wks
T V
... $.
65 3
rang er
B lake
h ang
z achary
Ġ2 00000
eg ments
air y
ĠSk ip
g arbage
al ong
Ġg aming
Ġ8 41
can onical
Q PR
Ġw aste
Ġse itan
ff iq
Ġreal ity
66 00
term ediate
Ġdef icit
na ti
half way
radi o
compos ites
\;\; \;\;
Ġsight ings
33333333333333333333333333333333 33333333333333333333333333333333
ħ Ī
en ix
Ġn ines
** .
ie ved
ĠJ KL
Ġch icks
}) }.\]
Re becca
333333333333 34
dra gon
prom o
9 36
j enna
de cess
ĠX B
fl utes
Ġ: ]
Ġpast ry
OT AL
ĠFlo rence
IT ION
olver ine
6 15
Ġm u
iva lent
Ġhit ters
ĠDo ll
fire crackers
ĠRS VP
b ins
} )))
Ġa quafaba
Ġm ason
si ah
ig an
Ġpo odles
ĠR ows
19 75
Ġcor onavirus
bas is
Ġconf idence
iy aki
ĠCol in
ĠMad ison
& -
S uper
Ġp ip
Ġre wind
Ġun icycle
ong ue
sa usage
ĠConst ant
ĠAssi g
LU TION
tir ling
Ġin vesti
Ġst rokes
Ste phan
& +
d inos
Ġin experienced
Th urs
Ġso aps
11 10
Ġal ien
log ical
ĠPack et
A lec
L og
Q M
T P
me e
39 3
Ġstu ck
ĠRa w
ĠDivis ion
ĠLav inia
$ =\
> (
T Y
g iant
Ġw x
Ġ5 20
el ina
15 88
ult inomial
__ _
Ste phanie
Ġhoo dies
Ġmask ing
ĠJu dah
Ġembroid er
Ġfreelan cer
q s
$. </
ĠQ x
Let ting
ĠH ilary
cd n
Ġpentagon al
Ġ133 7
lock ers
Ġbid der
Ġsurpr ising
et as
ĠD inner
ĠG G
av a
T erm
p ilot
ars ity
ĠL atex
Ġrece ption
Ġph armacy
f ridge
| >
ol ive
ĠR oman
Ġj ordan
ĠW LOG
ĠK am
ĠNo elle
Ġexpect ing
liz ard
8 33
C edric
K DC
Ġb arbara
Ġ1000 1
wh irl
Ġserious ly
9 88
A bby
ĠS ed
th irteen
34 1
Ġ199 1
IC S
ĠMai ya
de al
Ġc rayon
ĠZ eppo
Ġmeet ings
reg gie
Ġkn apsack
Ġsurf board
Ġpereg rine
M iriam
Ġc urious
ĠS uccess
Ġ6 561
24 26
90 1
be a
Ġviol ate
Ġmaint ain
ĠSimp le
tang ency
67977 499
Ġ== >
48 84
ĠPaul ina
Ð² Ð¾
p hoebe
w igs
ĠZ ion
Ġ64 00
Ġloop ing
ĠFlo retta
ĠFour th
3 2000
K enny
h w
ĠĠĠĠĠĠĠ čĊ
math jax
ĠT alia
ere z
sa tisfactory
Ġinf ections
2424 2424
d ging
ĠC Y
}} }}$.
âĢ ľ
Point Point
ĠMod ular
Ġc amps
Ġval s
ĠB our
ĠD x
ĠN ap
}) ')
45454545 4545
rim zi
dre ams
Ġh ula
pl a
Ġsh adows
bra d
hen ce
mom s
Ġallerg ic
rari ly
$$ $$
}} }{(\
Ġpara ms
sa ves
ĠBen ed
Comp uting
! }=\
( $\
ut y
ĠI g
ĠD utch
65 4
Ġh ydrange
15 60
ĠT rent
33 66
Ġte ar
enti re
ĠâĪ Ĵ
ĠMe asure
8284 27124746
ĠAssig ning
T anya
re call
ĠE nd
sw allows
prob a
Ġcomm encement
Ġwall paper
ĠBe er
hat ched
Ġmor ale
ĠS avanna
tic ia
Ġj ose
Ġdres sing
har ris
x B
Ġde co
Ġdo ves
ĠY ogurt
arc ie
evalu ation
!! !!
Ġâī ¤
5 95
ur sts
Ġdo deca
Ġ[ ('
In side
88 4
$: $
Ġtext coords
thousand s
9999999999999999999999999999999999999999999999999999999999999999 9999999999999999999999999999999999999999999999999999999999999999
Ha ley
âĶģ âĶģ
$ ):
P AD
T ues
Ġb iscuit
Ġh ive
ĠP N
me ows
ue y
ĠO AC
OC F
ĠRay mond
Ġtalk ing
Ġnat ura
| }$.
ĠN eg
Ġwould n
Ġpython s
lement ine
ĠMad y
Ġco coon
ĠW ash
sec ant
65 625
Te am
oc ab
config urations
âĸ Ī
67977499 79
! -(
Ġk ate
ĠPop sicle
ĠSage Math
hum ans
A b
j ude
Ġd airy
ĠS S
si ves
Ġgra vel
Ġ19 4
48 2
Ġpop sicles
Ġegg plants
iron ing
T ed
ex it
ĠD idi
ĠD eterminant
ĠH D
ĠG abby
appe ared
ĠRes ults
Ġvacuum ing
Ġrevers es
Ġse al
Ġqu e
Ġ11 101
35 1
Ġsing les
98 45
Mar la
Ġassemb ling
K now
M ill
k Q
Ġe ase
Ġha ven
Ġwh ichever
ĠN P
Ġ15 60
ĠPl ace
ĠLu ca
Â° ,
Ġemb ed
ona ws
symmet ry
Ġencounter ing
ke eper
ĠU rsula
Ġfre ely
elim ination
D orothy
es o
Ġd im
ĠS alem
Ġse wn
ah ra
Ġ12345 6789101112
66666666666666 65
S eries
Ġgener ally
Ġtrain er
RS C
190 9
AI ME
################################ ################################
ĠFO IL
modul i
v or
| +\
Ġ0 3
ĠE QU
)$ ')
Ġlo ved
Ġ19 20
Ġwalk er
vis ion
file name
Ġsmooth ies
expon ential
e ck
v ad
Ġ7 57
ors o
Ġ16 15
Ġ25 000
pre ci
33333333333333 2
ĠE lim
ĠW ays
be ca
__ ()
enn on
ĠAX B
iron ed
h ikes
t rolls
Ġt ying
Ġf red
ĠS ave
Ġcan noneers
\\ &
Ġ26 3
tur keys
ĠM uffy
Ġar clength
bl ow
ĠY oun
dr um
| .$$
Ġd ash
out ine
ĠL ana
ĠK ickball
pre t
ĠEll ie
v illain
er rors
Ġse agulls
00000000 01
ject ed
color ings
cars on
Ġbur row
but cher
Ġcamps ite
H uman
J ar
P ol
m ie
Ġh ay
}{ |\
der ek
98 3
deliv er
assi dy
Ġrefill s
aut hor
Ġbeet le
Ġbeet les
F lorida
J ame
ĠE AD
ĠM eg
pro duces
ray a
Ġri m
vel ing
ĠĠĠĠĠĠĠĠĠĠĠĠĠĠĠĠĠĠĠĠĠĠĠĠĠĠĠĠĠĠĠĠ ĠĠĠĠĠĠĠĠĠĠĠĠ
\\\\ \\\\
amaz onaws
Ġsud denly
Ġnatura lly
r ants
Ġ+ /-
real s
ape ck
cat eg
rational ize
satisf y
b ate
z illa
Ġb right
ma intenance
mis sible
ĠBrit ney
Ber tha
CCCC C
) |=
30 203
max ima
&= -\
ĠAnd erson
she ila
Ġstra ps
Ġgrand daughter
plant ers
organ ize
_ '
Ġ- ------
67 42
Ch loe
Ġtransl ations
Mar ta
ĠBo ok
Ġviol ins
4 13
N i
Ġ1 1111
ĠS ample
)) )=-
ĠC ub
ĠD ig
ĠO lympiad
Ġpen al
bag el
ĠAnd rÃ©
Ġbas swood
OD F
Ġerrand s
Incre asing
= $\
Ñ ĩ
}$ </
Ġk ris
ĠG ermany
em ies
ĠEm ilio
Ġsyste matically
C J
Ġs ue
Ġn cr
ĠC andy
am ien
ĠQu arter
Is abel
X T
Ġto ugh
it ating
ĠP eyton
Ġav ail
M illy
R PS
si dy
ĠA ub
ĠE arl
Ġfe els
ĠW W
Ġad apt
Ġsub division
che eses
110 67
Ġsnow drift
ĠInitial izing
7777 777
fall en
ĠLizz y
volunte ers
Ñ Į
on ge
Ġp upils
al axy
ĠP tolemy
ĠM icah
Ġj anu
ĠHe ad
vec s
Ġmark ing
Ġloc ate
ĠNo de
Ġcater ing
ĠBu lls
Ġproce eds
erg io
u let
x b
Ġc M
)) )),
88 55
Ġmar inara
Ġoper a
Ġcash mere
Ġkick ed
e arring
r z
or ick
tic ians
so uri
ĠHer acles
Ġnumer als
Ġgrass hoppers
d inners
j en
Ġc asts
ĠS ingle
ĠD ina
Ġ48 00
GH T
paper back
Ġbene ath
c row
Ġa er
us af
ĠE lliot
16 17
Ġtourn aments
Ġarcs ine
Ġdifferenti ating
Ġclar inets
staff ed
compe tition
ĠAde le
A ub
L ulu
ĠPa ige
Ġod ometer
ĠQR C
bund les
omy apeck
s cor
Ġj agu
9999 99
Ġtow el
g pa
Ġ26 00
âİ ¡
-------------------------------- ----------------
Ġinfl ates
ĠSha ffiq
A W
Y esterday
ĠSo ccer
tro users
Ġpure ly
GR GR
se lections
Ġpri vate
ĠW here
del ay
00000000000000 4
ĠWh itney
Marg aret
Fin iteSet
z ucchin
Ġpro gress
ad ine
$? ",
Ġinter changing
Ġincl ined
Ġspec ifies
Ġbon nies
Ġfort une
, )]
ï ¸
pp uccino
ĠL ow
Ġdraw ers
Ġsin us
89 00
123 456
sc ene
Ġflav ored
P izza
re am
Ġ5 64
') ^
ĠN N
33 60
)} ).
ceil ings
Ġplace ments
Ġgen re
ĠOlymp ic
ĠBet ween
rom at
Ġ[ *
ĠO ld
ĠG PA
list ens
Ġsl ab
bre ath
ĠExp ansion
% ?
t arant
Ġb runettes
Ġc ry
Ġ4 76
ĠB at
ĠB AG
12 24
Ġfo ods
ĠT E
ypoten uses
12345 6789101112
Ġenjo ys
e in
co prime
Ġd c
ĠSolution s
ĠI gn
Ġup to
Ġlist ened
Ġ% }
divis ions
ĠAnd re
Ġvis ually
Ġpat rons
Ġthickness es
Ġa mber
Ġb eg
Ġl anes
ur yn
ta ire
pick up
Ġmill igrams
<< <<
459459 459459
\ }.$$
p romotion
ex ec
Ġinteg rals
ou ad
ĠV an
AP M
Ġmen tions
ĠĠĠĠĠĠĠĠĠĠĠĠĠĠĠĠĠĠĠĠĠĠĠĠĠĠĠĠĠĠĠĠ ĠĠĠĠĠĠĠĠĠĠĠĠĠĠĠ
Ġpump ing
sto cks
ĠRob i
bowl er
Ġzucchin i
were w
e asy
Ġconst rain
cur y
Ġrespon ds
find ing
ĠAli x
153846153846 153846153846
Ġactive ly
Ġcolon ization
al so
Ġin ward
ĠS ergio
read ers
ĠCho colate
398 1633
Ġrenumber ing
B ound
C ylinder
Ġc tx
der ivatives
24 22
ĠW ednesdays
Ġsin h
Ġdes cent
car let
De an
< (
S chool
Ġpro ved
mat thew
ĠB N
Ġk et
99 3
Ġuni corns
babys itter
ui tive
L iz
P ri
g inger
ar lee
Ġk ill
ĠT able
ĠT rad
ok i
sh mael
mer y
lik ely
Sam antha
Ġrob ins
Ġbeau tiful
3 00000
l una
m ies
Ġw ww
ad ata
ak a
Ġj oseph
Ġfe ature
)] .
Ġsand ra
ingre dient
App les
% ">
f antasy
t attoos
ent rees
19 44
)))) ))$
pop sicle
] ^{-
Ġ( `
Ġco cktail
me ans
ĠB angkok
ult ry
ff od
Ġlo s
pend ing
mit ted
Ġesti mated
H mm
O ct
ĠS ci
st ruct
frac s
bra tion
Ġ\[ =
cri bes
Ġâİ ¥
3981633 97
R ay
h ike
Ġj alapeno
ĠG old
imb us
Ġarbit rarily
teas poon
ĠFam ilies
7 90
od ka
Ġpol i
190 45
9 30
)) }$.
Ġcon j
ĠI mm
ĠM S
con str
ĠInt ro
ĠTw ice
Pat ricia
/ (\
ul on
ĠN S
ĠN ine
Ġpl aid
Ġch ili
Ġmo tion
Ġtruck loads
ĠBP F
Ġem u
ZW CD
is co
Ġb arry
en ess
Ġm ars
Ġ5 28
)) .\]
Ġdo se
ho mbus
Ġq z
Ġstr ands
ĠCh ips
ĠSam ara
Ġsuccessive ly
Ġimmedi ate
ĠAmb ie
ulon imbus
Ġsp larg
0 98
a ith
k indergarten
ho on
ax on
te ll
icy cles
Ġbit coins
Ġcon ical
ere o
ĠTer iyaki
l ola
re latives
Ġ0 8
ug ars
Ġlo dging
Ġ} |
[...]
