{"<s>":0,"<pad>":1,"</s>":2,"<unk>":3,"<mask>":4,"!":5,"\"":6,"#":7,"$":8,"%":9,"&":10,"'":11,"(":12,")":13,"*":14,"+":15,",":16,"-":17,".":18,"/":19,"0":20,"1":21,"2":22,"3":23,"4":24,"5":25,"6":26,"7":27,"8":28,"9":29,":":30,";":31,"<":32,"=":33,">":34,"?":35,"@":36,"A":37,"B":38,"C":39,"D":40,"E":41,"F":42,"G":43,"H":44,"I":45,"J":46,"K":47,"L":48,"M":49,"N":50,"O":51,"P":52,"Q":53,"R":54,"S":55,"T":56,"U":57,"V":58,"W":59,"X":60,"Y":61,"Z":62,"[":63,"\\":64,"]":65,"^":66,"_":67,"`":68,"a":69,"b":70,"c":71,"d":72,"e":73,"f":74,"g":75,"h":76,"i":77,"j":78,"k":79,"l":80,"m":81,"n":82,"o":83,"p":84,"q":85,"r":86,"s":87,"t":88,"u":89,"v":90,"w":91,"x":92,"y":93,"z":94,"{":95,"|":96,"}":97,"~":98,"¡":99,"¢":100,"£":101,"¤":102,"¥":103,"¦":104,"§":105,"¨":106,"©":107,"ª":108,"«":109,"¬":110,"®":111,"¯":112,"°":113,"±":114,"²":115,"³":116,"´":117,"µ":118,"¶":119,"·":120,"¸":121,"¹":122,"º":123,"»":124,"¼":125,"½":126,"¾":127,"¿":128,"À":129,"Á":130,"Â":131,"Ã":132,"Ä":133,"Å":134,"Æ":135,"Ç":136,"È":137,"É":138,"Ê":139,"Ë":140,"Ì":141,"Í":142,"Î":143,"Ï":144,"Ð":145,"Ñ":146,"Ò":147,"Ó":148,"Ô":149,"Õ":150,"Ö":151,"×":152,"Ø":153,"Ù":154,"Ú":155,"Û":156,"Ü":157,"Ý":158,"Þ":159,"ß":160,"à":161,"á":162,"â":163,"ã":164,"ä":165,"å":166,"æ":167,"ç":168,"è":169,"é":170,"ê":171,"ë":172,"ì":173,"í":174,"î":175,"ï":176,"ð":177,"ñ":178,"ò":179,"ó":180,"ô":181,"õ":182,"ö":183,"÷":184,"ø":185,"ù":186,"ú":187,"û":188,"ü":189,"ý":190,"þ":191,"ÿ":192,"Ā":193,"ā":194,"Ă":195,"ă":196,"Ą":197,"ą":198,"Ć":199,"ć":200,"Ĉ":201,"ĉ":202,"Ċ":203,"ċ":204,"Č":205,"č":206,"Ď":207,"ď":208,"Đ":209,"đ":210,"Ē":211,"ē":212,"Ĕ":213,"ĕ":214,"Ė":215,"ė":216,"Ę":217,"ę":218,"Ě":219,"ě":220,"Ĝ":221,"ĝ":222,"Ğ":223,"ğ":224,"Ġ":225,"ġ":226,"Ģ":227,"ģ":228,"Ĥ":229,"ĥ":230,"Ħ":231,"ħ":232,"Ĩ":233,"ĩ":234,"Ī":235,"ī":236,"Ĭ":237,"ĭ":238,"Į":239,"į":240,"İ":241,"ı":242,"Ĳ":243,"ĳ":244,"Ĵ":245,"ĵ":246,"Ķ":247,"ķ":248,"ĸ":249,"Ĺ":250,"ĺ":251,"Ļ":252,"ļ":253,"Ľ":254,"ľ":255,"Ŀ":256,"ŀ":257,"Ł":258,"ł":259,"Ń":260,"čĊ":261,"Ġt":262,"he":263,"in":264,"Ġa":265,"on":266,"Ġthe":267,"Ġs":268,"ti":269,"er":270,"Ġ=":271,"es":272,"Ġ$":273,"co":274,"Ġo":275,"tion":276,"re":277,"ll":278,"de":279,"##":280,"==":281,"is":282,"ol":283,"ĠĠ":284,"Ġof":285,"an":286,"Ġp":287,"or":288,"Ġf":289,"le":290,"at":291,"al":292,"Ġw":293,"Ġ\\":294,"Ġb":295,"Ġc":296,"code":297,"Ġ+":298,"ut":299,"Ġan":300,"ra":301,"llm":302,"en":303,"ro":304,"Ġ1":305,"mp":306,"um":307,"Ġn":308,"Ġis":309,"ve":310,"Ġin":311,"Ġm":312,"Ġto":313,"it":314,"###":315,"Ġd":316,"Ġe":317,"Ġand":318,"et":319,"ar":320,"Ġth":321,"ed":322,"Ġ-":323,"Ġ2":324,"ing":325,"ri":326,"ĠS":327,"qu":328,"æ¢":329,"æ¢¦":330,"æ¢¦æ¢¦":331,"ot":332,"us":333,"ution":334,"olution":335,"Ġh":336,"as":337,"Ġsy":338,"00":339,"</":340,"ber":341,"ues":342,"Ġ(":343,"ir":344,"ac":345,"umber":346,"$.":347,"rac":348,"Ġg":349,"un":350,"ow":351,"Ġfor":352,"Ġco":353,"int":354,"ation":355,"ce":356,"Ġ3":357,"ĠQ":358,"'s":359,"ĠĠĠĠ":360,"Ġl":361,");":362,"th":363,"si":364,"Ġ*":365,"Ġwe":366,"uestion":367,"====":368,"ĠSolution":369,"ĠQuestion":370,"out":371,"=====":372,"Ġx":373,"st":374,"Ġare":375,"put":376,"Ġnumber":377,"frac":378,"Ġi":379,"olve":380,"}{":381,"output":382,"ul":383,"mpy":384,"Ġ$\\":385,"Ġre":386,"ang":387,"Ġthat":388,"Ġsympy":389,"**":390,"ur":391,"The":392,"ab":393,"ine":394,"ĠĠĠ":395,"mb":396,"Ġv":397,"Ġus":398,"ig":399,"æ¢¦æ¢¦æ¢¦æ¢¦":400,"Ġy":401,"),":402,"ent":403,"Ġ4":404,"Ġsolve":405,"pr":406,"bo":407,"rom":408,"Ġpo":409,"Let":410,"ic":411,"Ġcan":412,"Ġas":413,"Ġequ":414,"Ġpro":415,"ort":416,"eg":417,"ay":418,"iv":419,"--":420,"ind":421,"rt":422,"mport":423,"Ġle":424,"ers":425,"Ġ5":426,"qrt":427,"$,":428,"ble":429,"ĠP":430,"Ġ0":431,"me":432,"mbol":433,"box":434,"Ġon":435,"Ġbe":436,"ct":437,"boxed":438,"Ġint":439,"il":440,"Ġsp":441,"el":442,"Ġr":443,"if":444,"Ġthis":445,"Ġde":446,"ĠA":447,"Ġequation":448,"ue":449,"ht":450,"))":451,"ate":452,"id":453,"om":454,"sqrt":455,"im":456,"angle":457,"se":458,"ag":459,"Ġ6":460,"mat":461,"ĠE":462,"ch":463,"Ġval":464,"from":465,"ver":466,"mbols":467,"ith":468,"ĠC":469,"Ġex":470,"Ġimport":471,"Ġby":472,"all":473,"10":474,"of":475,"ex":476,"les":477,"Ġ/":478,"per":479,"\",":480,"Ġhe":481,"our":482,"Ġha":483,"(\"":484,"}$":485,"Ġwh":486,"dot":487,"raw":488,"ist":489,"('":490,"eq":491,"ill":492,"We":493,"Ġusing":494,"æ¢¦æ¢¦æ¢¦æ¢¦æ¢¦æ¢¦æ¢¦æ¢¦":495,"ach":496,")--":497,"pres":498,"((":499,"Ġse":500,"irc":501,"ft":502,"end":503,"est":504,"Th":505,"Ġst":506,"act":507,"unt":508,"ad":509,"')":510,"Ġtw":511,"ly":512,"Ġcon":513,"Ġsi":514,"are":515,"Ġwith":516,"tal":517,"ub":518,"abel":519,"yth":520,"Ġhave":521,"Ġit":522,"tive":523,"lo":524,"}$.":525,"Ġtotal":526,"Ġsymbols":527,"blem":528,"));":529,"ak":530,"ction":531,"Ġ10":532,"ĠI":533,"Ġproblem":534,"Ġne":535,"irst":536,"ĠB":537,"any":538,"Ġinteg":539,"Ġdo":540,"Ġhas":541,")--(":542,"ĠM":543,"ython":544,"Ġ8":545,"ĠD":546,"Ġ7":547,"Ġtwo":548,"Ġuse":549,"Ġmany":550,"the":551,"ore":552,"fine":553,"ĠH":554,"and":555,"Ġsum":556,"Ġeach":557,"sw":558,"draw":559,"Ġro":560,"Ġget":561,"rig":562,"am":563,"ĠF":564,"actor":565,"ĠPython":566,"Ġfind":567,"ts":568,"Ġk":569,"So":570,"ta":571,"label":572,"print":573,"Ġat":574,"12":575,"swer":576,"Ġtri":577,"ĠThe":578,"igit":579,"Ġ&":580,"^{":581,"Ġvalue":582,"ma":583,"ute":584,"Ġall":585,"mpl":586,"ng":587,"olutions":588,"Ġ[":589,"ks":590,"Ġpoint":591,"up":592,"ĠĠĠĠĠĠĠ":593,"Ġper":594,"Ġif":595,"cdot":596,"ĠN":597,"Ġ9":598,"sion":599,"Wh":600,"otal":601,"val":602,"cul":603,"rix":604,"math":605,"ngth":606,"Ġanswer":607,"Ġdiv":608,"alcul":609,"Ġwill":610,"What":611,"Ġso":612,"\\]":613,"total":614,"ity":615,"Thus":616,"Ġcomp":617,"bf":618,"pe":619,"tic":620,"we":621,"po":622,"mplif":623,"Ġfrom":624,"Ġfirst":625,"Ġarea":626,"ree":627,"di":628,"pi":629,")$":630,".$":631,"ase":632,"ry":633,"ight":634,"line":635,"ars":636,"ence":637,"(\"$":638,"for":639,"erm":640,"ext":641,"Ġwhe":642,"right":643,"Ġ12":644,"ange":645,"Ġ$(":646,"ho":647,"ays":648,"Ġlet":649,"Ġnumbers":650,"ds":651,"Ġsqu":652,"uch":653,"con":654,"Ġ\\\\":655,"Ġpa":656,"cos":657,"ite":658,"ich":659,"iven":660,"Ġra":661,"import":662,"$\",":663,"Ġposi":664,"mo":665,"Ġneed":666,"alculate":667,"equ":668,"Ġor":669,"ial":670,"pression":671,"number":672,"Ġone":673,"Ġpl":674,"ssi":675,"mon":676,"Ġcode":677,"unction":678,",$":679,"ies":680,"pl":681,"mes":682,"sin":683,"ĠEq":684,"Ġsa":685,"Ġtriangle":686,"den":687,"mathbf":688,"Ġfactor":689,"ded":690,"Ġz":691,"20":692,"æ¢¦æ¢¦æ¢¦æ¢¦æ¢¦æ¢¦æ¢¦æ¢¦æ¢¦æ¢¦æ¢¦æ¢¦æ¢¦æ¢¦æ¢¦æ¢¦":693,"Ġbo":694,"circ":695,"Ġpositive":696,"To":697,"art":698,"ph":699,"ĠR":700,"\\[":701,"ubs":702,"ssible":703,"du":704,"Ġpri":705,"Ġfunction":706,"ax":707,"Ġlength":708,"Ġform":709,"Ġwhich":710,"ance":711,"AB":712,"ple":713,"ug":714,"mplify":715,"11":716,")^":717,"Ġthan":718,"0000":719,"Ġfo":720,"Ġdigit":721,"egin":722,"ze":723,"Ġ20":724,"Ġsquare":725,"):":726,"Ġpossible":727,"matrix":728,"iff":729,"age":730,"Ġthere":731,"{\\":732,"ĠHow":733,"ment":734,"Ġthen":735,"15":736,"ĠIf":737,"Ġ100":738,"ack":739,"sum":740,"ince":741,"oly":742,"num":743,"ĠWhat":744,"begin":745,"day":746,"Ġqu":747,"Ġmin":748,"pp":749,"Ġhow":750,"to":751,"Ġgiven":752,"pri":753,"bab":754,"Ġli":755,"Ġang":756,"(-":757,"Ġinteger":758,"asy":759,"}.":760,"ĠDe":761,"ymbol":762,"Ġun":763,"ast":764,"babil":765,"ake":766,"Ġexpression":767,"25":768,"Ġdist":769,"Ġdefine":770,"Ġthree":771,"Ġvalues":772,"left":773,"Ġme":774,"urn":775,",-":776,"99":777,"Ġmat":778,").":779,"ult":780,"Ġintegers":781,"ots":782,"sp":783,"text":784,"Ġcirc":785,"theta":786,"ck":787,"}\\":788,"arg":789,"row":790,"pmatrix":791,"ĠĠĠĠĠĠĠĠ":792,"Ġterm":793,"bability":794,"Ġsh":795,"ulti":796,"Ġcalculate":797,"mall":798,"ĠDefine":799,"Ġshe":800,"_{":801,"Ġsqrt":802,"Ġdivis":803,"Ġal":804,")*":805,"Ġsolution":806,"ant":807,"der":808,"solutions":809,"her":810,"one":811,"times":812,"Ġequations":813,"ĠO":814,"Ġline":815,"])":816,"ĠSymbol":817,"sy":818,"],":819,"Ġ==":820,"$$":821,"nom":822,"ie":823,"ĠT":824,"llow":825,"duct":826,"bra":827,"Ġbet":828,"ors":829,"Ġnot":830,"Ġ<":831,"16":832,"iffer":833,"cond":834,"Ġwr":835,"Ġsuch":836,"33":837,"ect":838,"rint":839,"equation":840,"ween":841,"ff":842,"Ġres":843,"turn":844,"100":845,"ĠčĊ":846,"Ġ#":847,"Ġ15":848,"over":849,"ĠFind":850,"res":851,"Ġrange":852,"ces":853,"Ġcompute":854,"ign":855,"Ġpoints":856,"ans":857,"Ġj":858,"Ġbetween":859,"point":860,"ter":861,"Ġcost":862,")/":863,"Ġhour":864,"Ġprobability":865,"ari":866,"13":867,"ĠJ":868,"dd":869,"Ġsolutions":870,"now":871,"inat":872,"cost":873,"pro":874,"Ġmulti":875,"Ġsmall":876,"Ġ{":877,"Ġequal":878,"Ġlibra":879,"80":880,"Ġreturn":881,"idth":882,"$?":883,"und":884,"Ġside":885,"14":886,"ther":887,"Ġnum":888,"Ġcom":889,"solution":890,"Ġrema":891,"Ġbot":892,"Ġsimplify":893,"ice":894,"Ġfollow":895,"Ġwhere":896,"Ġlibrary":897,"Ġch":898,"ater":899,"ust":900,"Ġdiffer":901,"Ġlo":902,"Ġangle":903,"its":904,"Ġreal":905,"Ġout":906,"ides":907,"Ġamo":908,"press":909,"ok":910,"Ġwhat":911,"fter":912,"od":913,"hes":914,"align":915,"Ġamount":916,"Ġbase":917,"ord":918,"raction":919,"uden":920,"ĠL":921,")**":922,"ek":923,"pa":924,"solve":925,"^\\":926,"gra":927,"50":928,"This":929,"60":930,"Ġinc":931,"30":932,"ose":933,"ations":934,"sol":935,"Ġcircle":936,"ip":937,"ge":938,"ick":939,"Ġprime":940,"ure":941,"digit":942,"tit":943,"min":944,"Ġher":945,"Ġproduct":946,"ving":947,"66":948,"Ġye":949,"Ġhis":950,"ariab":951,"Ġpoly":952,"Ġar":953,"subs":954,")(":955,"symbols":956,"Since":957,"Ġcho":958,"own":959,"24":960,"ace":961,"BC":962,"Ġset":963,"Ġ30":964,"Ġvariab":965,"In":966,"fore":967,"Ġsol":968,"ive":969,"Ġwrite":970,"width":971,"cy":972,"Ġ\"":973,"Ġlarg":974,"Ġmore":975,"ĠG":976,"Ġsecond":977,"ne":978,"()":979,"Ġ&=":980,"Ġfe":981,"imes":982,"*}":983,"Ġfraction":984,"Ġgre":985,"Ġdoes":986,"tri":987,"Ġprint":988,"Ġwhen":989,"([":990,"Ġup":991,"æ¢¦æ¢¦æ¢¦æ¢¦æ¢¦æ¢¦æ¢¦æ¢¦æ¢¦æ¢¦æ¢¦æ¢¦æ¢¦æ¢¦æ¢¦æ¢¦æ¢¦æ¢¦æ¢¦æ¢¦æ¢¦æ¢¦æ¢¦æ¢¦æ¢¦æ¢¦æ¢¦æ¢¦æ¢¦æ¢¦æ¢¦æ¢¦":992,"There":993,"dius":994,"not":995,"def":996,"Ġdigits":997,"Ġdoll":998,"Ġinto":999,"inder":1000,"size":1001,"ass":1002,"eff":1003,"count":1004,"Ġroots":1005,"em":1006,"Ġknow":1007,"Ġdistance":1008,"Ġfour":1009,"utes":1010,"ular":1011,"loor":1012,"Ġcommon":1013,")$.":1014,"Ġdi":1015,"udents":1016,"****":1017,"overline":1018,"price":1019,"cle":1020,"Ġsides":1021,"red":1022,"If":1023,"erse":1024,"nomial":1025,"ents":1026,"Ġsame":1027,"Find":1028,"ining":1029,"Ġ>":1030,"imum":1031,"Ġboth":1032,"..":1033,"ount":1034,"eter":1035,"Ġ'":1036,"Ġver":1037,"quad":1038,"uld":1039,"Ġnp":1040,"factor":1041,"akes":1042,"Ġcar":1043,"Ġti":1044,"gs":1045,"ven":1046,"tio":1047,"Ġday":1048,"17":1049,"',":1050,"sh":1051,"Eq":1052,"inal":1053,"so":1054,"{(":1055,"ons":1056,"Ġtimes":1057,"Ġterms":1058,"Ġyour":1059,"40":1060,"ational":1061,"cent":1062,"use":1063,"Ġthese":1064,"Ġdollars":1065,"Ġleft":1066,"Ġgra":1067,"18":1068,"ĠEx":1069,"area":1070,"200":1071,"(\\":1072,"iz":1073,"Ġways":1074,"ep":1075,"Ġthem":1076,"Ġother":1077,"Ġexp":1078,"}}":1079,"log":1080,"Ġbu":1081,"ess":1082,"rue":1083,"Ġdraw":1084,"Ġtime":1085,"Ġmuch":1086,"time":1087,"Ġpolynomial":1088,"Ġvariables":1089,"Ġhours":1090,"alf":1091,"Ġwor":1092,"olum":1093,"Ġ16":1094,"ca":1095,"amount":1096,"cycle":1097,"Ġ25":1098,"inom":1099,"Ġonly":1100,"=(":1101,"ins":1102,"Ġits":1103,"bl":1104,"linewidth":1105,"iti":1106,"ĠLet":1107,"Ġdivi":1108,"os":1109,"Ġfollowing":1110,"Ġmath":1111,"Ġ200":1112,"vect":1113,"ople":1114,"Ġpair":1115,"Ġsmallest":1116,"ĠWe":1117,"olume":1118,"Ġmax":1119,"ren":1120,"Ġpara":1121,"}$,":1122,"value":1123,"Ġ11":1124,"Ġthey":1125,"Ġ\\[":1126,"Ġradius":1127,"mbin":1128,"ru":1129,"imal":1130,"gre":1131,"ere":1132,"CD":1133,"Ġnow":1134,"Ġeq":1135,"\\[\\":1136,"Ġpe":1137,"[/":1138,"ird":1139,"Ġright":1140,"Ġdec":1141,"iles":1142,"ula":1143,"pha":1144,"Ġwas":1145,"ets":1146,"ible":1147,"tan":1148,"ative":1149,"Ġ50":1150,"real":1151,"agon":1152,"ary":1153,"vert":1154,"dist":1155,"19":1156,"ys":1157,"ied":1158,"oint":1159,"hour":1160,"Ġlist":1161,"pen":1162,"floor":1163,"})":1164,"Ġresult":1165,"tions":1166,"ĠIn":1167,"Ġheight":1168,"Ġcub":1169,"Ġ60":1170,"ĠW":1171,"Ġ|":1172,"heck":1173,"triangle":1174,"ally":1175,"\",(":1176,"75":1177,"ĠExpress":1178,"omp":1179,"Ġ13":1180,"Ġminutes":1181,"cho":1182,"sf":1183,"ici":1184,"Ġinter":1185,"Ġmust":1186,"ubstit":1187,"pair":1188,"000":1189,"ught":1190,"Ġunits":1191,"Ġcount":1192,"ĠRational":1193,"Ġtheir":1194,"Ġstudents":1195,")[":1196,"Ġpi":1197,"Ġdenot":1198,"ong":1199,"oks":1200,"$\\":1201,"}{\\":1202,"Ġorder":1203,"ants":1204,"dots":1205,"Ġvect":1206,"length":1207,"Ġconst":1208,"Ġsequ":1209,"ark":1210,"ugh":1211,"\")":1212,"Ġformula":1213,"Ġcl":1214,"ĠSolve":1215,"ard":1216,"Ġless":1217,"tisf":1218,"bol":1219,"verage":1220,"Ġcoord":1221,"Ġmake":1222,"Ġ24":1223,"Ġ40":1224,"ey":1225,"Ġcos":1226,"Ġremainder":1227,"oney":1228,"te":1229,"Ġapp":1230,"alpha":1231,"Ġdid":1232,"Ġsatisf":1233,"ric":1234,"ion":1235,"Ġrepres":1236,"Ġhalf":1237,"effici":1238,"22":1239,"Ġquad":1240,"ated":1241,"Ġlargest":1242,"arn":1243,"stem":1244,"Ġcent":1245,"ĠCalculate":1246,"Ġalso":1247,"\\\\":1248,"ments":1249,"ish":1250,"Ġratio":1251,"Ġweek":1252,"Ġleast":1253,"Ġ(-":1254,"div":1255,"ĠĠĠĠĠĠĠĠĠĠĠ":1256,"term":1257,"Ġpeople":1258,"Ġbl":1259,"ain":1260,"Ġrect":1261,"Ġmoney":1262,"pt":1263,"ile":1264,"Ġte":1265,"ages":1266,"Ġbox":1267,"Ġ14":1268,"Now":1269,"ompute":1270,"Ġab":1271,"inates":1272,"Ġtake":1273,"ives":1274,"Ġdays":1275,"Ġdenote":1276,"Ġ**":1277,"Ġstart":1278,"Ġad":1279,"Ġdifferent":1280,"Ġtra":1281,"ye":1282,"Ġfactors":1283,"Ġdivisible":1284,"ĠHe":1285,"ten":1286,"ats":1287,"cd":1288,"Ġafter":1289,"*(":1290,"Ġfeet":1291,"00000000":1292,"Ġreg":1293,"range":1294,"Ġorig":1295,"ator":1296,"Ġ18":1297,"inator":1298,"Ġcomple":1299,"27":1300,"36":1301,"$\",(":1302,"very":1303,"ane":1304,"Ġsequence":1305,"low":1306,"ves":1307,"Ġvolume":1308,"45":1309,"Ġsho":1310,"ap":1311,"Ġmon":1312,"+\\":1313,"form":1314,"AC":1315,"Ġmultiple":1316,"ray":1317,"Ġadd":1318,"ratic":1319,"app":1320,"ings":1321,"arrow":1322,"Ġno":1323,"Ġcombin":1324,"For":1325,"28":1326,"Ġsin":1327,"angles":1328,"Ġany":1329,"Ġgraph":1330,"Ġques":1331,"tain":1332,"Ġyears":1333,"Ġsome":1334,"=\\":1335,"ares":1336,"Ġ%":1337,"max":1338,"Ġnew":1339,"grees":1340,"bola":1341,"expr":1342,"Ġsee":1343,"Ġdown":1344,"}.\\]":1345,"ersection":1346,"result":1347,"sing":1348,"ĠPoint":1349,"Ġinches":1350,"90":1351,"black":1352,"Ġball":1353,"Ġprice":1354,"omet":1355,"Ġbut":1356,"get":1357,"Ġsystem":1358,"cl":1359,"ates":1360,"circle":1361,"Ġlabel":1362,"ize":1363,"mplified":1364,"amp":1365,"Ġvertic":1366,"mod":1367,"side":1368,"Ġrepresent":1369,"ting":1370,".\\]":1371,"},":1372,"axis":1373,"imeter":1374,"Ġmo":1375,"Ġdifference":1376,"Ġcoeffici":1377,"arb":1378,"23":1379,"Ġdivided":1380,"Ġcol":1381,"^{-":1382,"Ġgo":1383,"Hence":1384,"Ġho":1385,"ke":1386,"Ġmiles":1387,"fill":1388,"Ġtwice":1389,"do":1390,"len":1391,"Ġcheck":1392,"da":1393,"Ġq":1394,"prime":1395,"ends":1396,"Ġthird":1397,"Ġover":1398,"Ġgives":1399,"Ġevery":1400,"Ġcoordinates":1401,"distance":1402,"als":1403,"dition":1404,"Ġen":1405,"^{\\":1406,"cm":1407,"Ġdef":1408,"expression":1409,"wo":1410,"ines":1411,"}}{":1412,"Ġmultip":1413,"Ġdegrees":1414,"Ġcor":1415,"ices":1416,"Ġaverage":1417,"Ġroot":1418,"squ":1419,"week":1420,"Ġmid":1421,"Ġlast":1422,")*(":1423,"Ġmeans":1424,"rough":1425,"Ġcenter":1426,"æ¢¦æ¢¦æ¢¦æ¢¦æ¢¦æ¢¦æ¢¦æ¢¦æ¢¦æ¢¦æ¢¦æ¢¦æ¢¦æ¢¦æ¢¦æ¢¦æ¢¦æ¢¦æ¢¦æ¢¦æ¢¦æ¢¦æ¢¦æ¢¦æ¢¦æ¢¦æ¢¦æ¢¦æ¢¦æ¢¦æ¢¦æ¢¦æ¢¦æ¢¦æ¢¦æ¢¦æ¢¦æ¢¦æ¢¦æ¢¦æ¢¦æ¢¦æ¢¦æ¢¦æ¢¦æ¢¦æ¢¦æ¢¦æ¢¦æ¢¦æ¢¦æ¢¦æ¢¦æ¢¦æ¢¦æ¢¦æ¢¦æ¢¦æ¢¦æ¢¦æ¢¦æ¢¦æ¢¦æ¢¦":1427,"Ġ}":1428,"Ġred":1429,"Ġ+=":1430,"$-":1431,"lls":1432,"ero":1433,"points":1434,"be":1435,"Ġwere":1436,"ĠSo":1437,"Therefore":1438,"by":1439,"Ġdecimal":1440,"Ġthrough":1441,"Ġdenom":1442,"**/":1443,"ame":1444,"cri":1445,"******/":1446,"ps":1447,",\\":1448,"ild":1449,"Ġmonth":1450,"Ġremaining":1451,"Ġ/******/":1452,"{-":1453,"}.$":1454,"Ġangles":1455,"here":1456,"first":1457,"``":1458,"ss":1459,"able":1460,"inomial":1461,"Ġmaximum":1462,"Ġquestion":1463,"Ġeven":1464,"atest":1465,"ls":1466,"lect":1467,"Ġquadratic":1468,"Ġrow":1469,"eta":1470,"qquad":1471,"ift":1472,")$,":1473,"arbles":1474,"Ġmod":1475,"ower":1476,"Ġdivisors":1477,"Ġpie":1478,"ĠK":1479,"ctive":1480,"rect":1481,"ath":1482,"Ġwant":1483,"Ġwo":1484,"valu":1485,"inct":1486,"Ġcm":1487,"hen":1488,"Ġsubstit":1489,"ABC":1490,"ram":1491,"ty":1492,"ating":1493,"trac":1494,")]":1495,"Ġdis":1496,"ames":1497,"Ġ17":1498,"Ġexact":1499,"Ġchoose":1500,"ality":1501,"Ġla":1502,"hours":1503,"Ar":1504,"unds":1505,"ases":1506,"bove":1507,"How":1508,"exp":1509,"Ġabove":1510,"Ġplay":1511,"Ġob":1512,"21":1513,"Ġbuy":1514,"Using":1515,"reate":1516,"cks":1517,"/(":1518,"Ġinv":1519,"Ġlong":1520,"hed":1521,"Ġsquares":1522,"Ġgreatest":1523,"}}$.":1524,"ined":1525,"ci":1526,"atrix":1527,"Ġvertices":1528,"Ġminimum":1529,"Ġneeds":1530,"textbf":1531,"Ġdistinct":1532,"erator":1533,"Ġpar":1534,"ou":1535,"Ġlengths":1536,"ased":1537,"days":1538,"35":1539,"with":1540,"Ġdenominator":1541,"ĠShe":1542,"32":1543,"Then":1544,"nd":1545,"orm":1546,"col":1547,"Ġ1000":1548,"44":1549,"ĠĠĠĠĠĠĠĠĠĠĠĠĠĠĠĠ":1550,"andom":1551,"AD":1552,"&=":1553,"umpy":1554,"Ġwork":1555,"Ġfri":1556,"Ġfactorial":1557,"Ġnon":1558,"Ġrespe":1559,"Ġend":1560,"base":1561,"((-":1562,"Ġwould":1563,"Ġ$-":1564,"Ġexpress":1565,"Ġpen":1566,"Ġsince":1567,"Ġhad":1568,"Ġmatrix":1569,"Ġtriangles":1570,"wh":1571,"read":1572,"Ġma":1573,"Ġyear":1574,"lope":1575,"Ġodd":1576,"money":1577,"xy":1578,"}(":1579,"ĠThis":1580,"ities":1581,"eded":1582,"Ġoriginal":1583,"55":1584,"3333":1585,"Ġconvert":1586,"Ġtakes":1587,"First":1588,"Ġintersection":1589,"eters":1590,"Ġnumpy":1591,"Ġvector":1592,"op":1593,"Ġperimeter":1594,"Ġexactly":1595,"igh":1596,"Ġfive":1597,"Ġsolving":1598,"Ġseg":1599,"Ġ19":1600,"urren":1601,"Ġ<=":1602,"dir":1603,"ball":1604,"Ġop":1605,"Ġsco":1606,"old":1607,"ĠPrint":1608,"ads":1609,"ily":1610,"Ġfl":1611,"Ġsatisfy":1612,"plot":1613,"fect":1614,"29":1615,"Ġel":1616,"ils":1617,"air":1618,"roots":1619,"cal":1620,")+":1621,")=":1622,"values":1623,"ian":1624,"Ġclass":1625,"True":1626,"array":1627,"Ġsub":1628,"Ġrandom":1629,"Ġmeas":1630,"ĠThere":1631,"Ġblue":1632,"Ġcomplex":1633,"rema":1634,"Ġol":1635,"valuate":1636,"other":1637,"after":1638,"180":1639,"itial":1640,"Ġ180":1641,"ob":1642,"Ġlog":1643,"----":1644,"chool":1645,"Ġbooks":1646,"Ġac":1647,"dfrac":1648,"Ġcase":1649,"tick":1650,"Ġax":1651,"rows":1652,"ank":1653,"ĠV":1654,"square":1655,"orem":1656,"sec":1657,")}":1658,"Ġcards":1659,"factors":1660,"ĠAB":1661,"poly":1662,"Ġnext":1663,"Ġrespective":1664,"ude":1665,"ups":1666,"Ġcube":1667,"ave":1668,"Ġdot":1669,").$":1670,"ns":1671,"70":1672,"Ġ36":1673,"Ġexpand":1674,"Ġinequ":1675,"Ġcombinations":1676,"Ġspe":1677,"6666":1678,"binom":1679,"Ġ90":1680,"\"\"":1681,"eger":1682,"Ġpart":1683,"ĠThen":1684,"answer":1685,"gether":1686,"aces":1687,"ĠCompute":1688,"48":1689,"implify":1690,"Ġbinomial":1691,"ega":1692,"ise":1693,"ener":1694,"Ġrectangle":1695,"Ġele":1696,"wor":1697,"okies":1698,"26":1699,"icks":1700,"ĠABC":1701,"Ġcalcul":1702,"yp":1703,"la":1704,"height":1705,"oh":1706,"inter":1707,"Ġrel":1708,"sider":1709,")..":1710,"eks":1711,"Ġearn":1712,"Ġrespectively":1713,"itten":1714,"li":1715,"Ġstr":1716,"ircle":1717,"ateral":1718,"ters":1719,"Ġmarbles":1720,"88":1721,"ner":1722,"Ġparabola":1723,"...":1724,"raint":1725,"Ġgro":1726,"ole":1727,"Ġcoll":1728,"tex":1729,"({":1730,"Ġpairs":1731,"Ġlines":1732,"Ġage":1733,"beta":1734,"Ġsubstitute":1735,"month":1736,"dis":1737,"ses":1738,"Ġrun":1739,"mber":1740,"Ġshould":1741,"ĠFor":1742,"77":1743,"1000":1744,"Ġperfect":1745,"second":1746,"Ġsix":1747,"Ġwater":1748,"ide":1749,"Ġser":1750,"Ġdivisor":1751,"Ġdeterm":1752,"tract":1753,"Ġpercent":1754,"Ġpay":1755,")),":1756,"64":1757,"ding":1758,"Ġten":1759,"ning":1760,"par":1761,"llel":1762,"Ġshown":1763,"Ġfollows":1764,"alse":1765,"Ġcoefficients":1766,")))":1767,"'t":1768,"ards":1769,"Ġplane":1770,"formation":1771,"divis":1772,"urrent":1773,"egative":1774,"Ġlen":1775,"digits":1776,"ont":1777,"Ġ(\\":1778,"simplified":1779,"abc":1780,"ell":1781,"Ġbought":1782,"9999":1783,"unc":1784,"mm":1785,"Ġincre":1786,"ĠU":1787,"wr":1788,"Ġrest":1789,"str":1790,"ĠMatrix":1791,"Ġ80":1792,"Ġap":1793,"igure":1794,"ired":1795,"Ġbag":1796,"Ġ$|":1797,"ABCD":1798,"Ġ$$":1799,"34":1800,"Ġ45":1801,"ote":1802,"Ġregion":1803,"gray":1804,"gon":1805,"ous":1806,"Ġge":1807,"ohn":1808,"Ġmultiply":1809,"inv":1810,"Ġsymbol":1811,"ither":1812,"simplify":1813,"Ġtang":1814,"]{":1815,"mut":1816,"Ġvertex":1817,"ĠY":1818,"Ġold":1819,"Ġyou":1820,"ull":1821,"reak":1822,"Ġhand":1823,"av":1824,"append":1825,"Ġinequality":1826,"bot":1827,"Ġinformation":1828,"ĠX":1829,"Ġsimp":1830,"uting":1831,"ometric":1832,"Ġdiagon":1833,"yl":1834,"gree":1835,"weight":1836,"},$":1837,"âĢ":1838,"ĠEach":1839,"sume":1840,"lfloor":1841,"=\"":1842,"rfloor":1843,"erson":1844,"alk":1845,"ia":1846,")\\":1847,"Ġoff":1848,"ersect":1849,"Ġapples":1850,"ĠTo":1851,"Ġteam":1852,"omain":1853,"Ġ27":1854,"product":1855,"omega":1856,"ection":1857,"-\\":1858,"Ġpick":1859,"utive":1860,"ms":1861,"tom":1862,"Ġgreen":1863,"Ġpass":1864,"metic":1865,"ilar":1866,"ĠBC":1867,"Ġvectors":1868,"Ġcosts":1869,"Ġback":1870,"equiv":1871,"els":1872,"angular":1873,"Ġtheorem":1874,"Ġschool":1875,"ithmetic":1876,"Ġpaint":1877,"spent":1878,"inate":1879,"rid":1880,"aded":1881,"Ġdivide":1882,"ratio":1883,"Ġselect":1884,"Ġmidpoint":1885,"cause":1886,"ely":1887,"ict":1888,"Ġconta":1889,"students":1890,"}\\]":1891,"Ġsmaller":1892,"percent":1893,"Ġgreater":1894,"mpt":1895,"Ġsegment":1896,"ĠCon":1897,")}\\":1898,"ross":1899,"Ġslope":1900,"Ġour":1901,"aking":1902,"ips":1903,"37":1904,"Ġmeasure":1905,"enti":1906,"120":1907,"mbda":1908,"ved":1909,"cor":1910,"Ġtick":1911,"imilar":1912,"96":1913,"Ġparallel":1914,"ries":1915,"Ġpre":1916,"secutive":1917,"tra":1918,"//":1919,"Ġpieces":1920,"year":1921,"Ġpounds":1922,"Compute":1923,"nter":1924,"Ġ21":1925,"list":1926,"Ġiter":1927,"bed":1928,"ĠAC":1929,"rightarrow":1930,"Ġtogether":1931,"Ġsl":1932,"cc":1933,"books":1934,"two":1935,"Ġarithmetic":1936,"Ġgcd":1937,"=-":1938,"prob":1939,"mplies":1940,"57":1941,"Ġbelow":1942,"Ġgener":1943,"Ġintersect":1944,"Ġzero":1945,"Ġwho":1946,")/(":1947,"Ġtry":1948,"uts":1949,"Ġproper":1950,"tional":1951,"][":1952,"ales":1953,"Ġ120":1954,"set":1955,"numbers":1956,"Ġfigure":1957,"hs":1958,"Ġconsider":1959,"play":1960,"shift":1961,"Ġcolor":1962,"Ġtangent":1963,"round":1964,"Ġmed":1965,"ify":1966,"ink":1967,"irls":1968,"pmod":1969,"ythag":1970,"Ġconsecutive":1971,"ĠSince":1972,"Ġtrave":1973,"sold":1974,"}}$":1975,"Given":1976,"Ġmean":1977,"cept":1978,"Ġstore":1979,"Ġballs":1980,"new":1981,"\\%":1982,"Ġspent":1983,"Ġboxes":1984,"gcd":1985,"Ġroll":1986,"}^":1987,"place":1988,"Ġmade":1989,"Ġarrange":1990,"coeff":1991,"work":1992,"Ġbreak":1993,"Ġcreate":1994,"arc":1995,"ipse":1996,"Ġsold":1997,"150":1998,"Ġplot":1999,"Ġwhose":2000,"**(":2001,"Ġwritten":2002,"$:":2003,"38":2004,"Ġread":2005,"fer":2006,"Ġed":2007,"plt":2008,"Ġused":2009,"Ġunit":2010,"49":2011,"olving":2012,"Ġpages":2013,"Ġbro":2014,"ches":2015,"Ġwhile":2016,"denom":2017,"Ġshow":2018,"ser":2019,"pose":2020,"Ġordered":2021,"Ġ`":2022,"pend":2023,"fo":2024,"comes":2025,"Ġdir":2026,"arest":2027,")}{":2028,"Ġelse":2029,"|\\":2030,"ior":2031,"Ġ//":2032,"Ġdomain":2033,"Ġpower":2034,"Ġspeed":2035,"Ġdefined":2036,"Ġ>=":2037,"pos":2038,"Ġincl":2039,"unces":2040,"39":2041,"Ġ28":2042,"Ġcookies":2043,"ical":2044,"ĠOn":2045,"na":2046,"Ġnumerator":2047,"Ġfloor":2048,"pon":2049,"gru":2050,"ample":2051,"cre":2052,"anges":2053,"Ġfinal":2054,"way":2055,"Ġcondition":2056,"Ġiden":2057,"dy":2058,"Ġnearest":2059,"spe":2060,"Ġassume":2061,"),$":2062,"Ġtr":2063,"Ġletters":2064,"mutations":2065,"Ġdon":2066,"Ġgall":2067,"Ġinterval":2068,"Ġag":2069,"diff":2070,"æ¢¦æ¢¦æ¢¦æ¢¦æ¢¦æ¢¦æ¢¦æ¢¦æ¢¦æ¢¦æ¢¦æ¢¦æ¢¦æ¢¦æ¢¦æ¢¦æ¢¦æ¢¦æ¢¦æ¢¦æ¢¦æ¢¦æ¢¦æ¢¦æ¢¦æ¢¦æ¢¦æ¢¦æ¢¦æ¢¦æ¢¦æ¢¦æ¢¦æ¢¦æ¢¦æ¢¦æ¢¦æ¢¦æ¢¦æ¢¦æ¢¦æ¢¦æ¢¦æ¢¦æ¢¦æ¢¦æ¢¦æ¢¦æ¢¦æ¢¦æ¢¦æ¢¦æ¢¦æ¢¦æ¢¦æ¢¦æ¢¦æ¢¦æ¢¦æ¢¦æ¢¦æ¢¦æ¢¦æ¢¦æ¢¦æ¢¦æ¢¦æ¢¦æ¢¦æ¢¦æ¢¦æ¢¦æ¢¦æ¢¦æ¢¦æ¢¦æ¢¦æ¢¦æ¢¦æ¢¦æ¢¦æ¢¦æ¢¦æ¢¦æ¢¦æ¢¦æ¢¦æ¢¦æ¢¦æ¢¦æ¢¦æ¢¦æ¢¦æ¢¦æ¢¦æ¢¦æ¢¦æ¢¦æ¢¦æ¢¦æ¢¦æ¢¦æ¢¦æ¢¦æ¢¦æ¢¦æ¢¦æ¢¦æ¢¦æ¢¦æ¢¦æ¢¦æ¢¦æ¢¦æ¢¦æ¢¦æ¢¦æ¢¦æ¢¦æ¢¦æ¢¦æ¢¦æ¢¦æ¢¦æ¢¦æ¢¦æ¢¦æ¢¦":2071,"Ġfact":2072,"needed":2073,"Ġstep":2074,"bb":2075,"agram":2076,"Ġsatisfies":2077,"Ġ[]":2078,"Ġlook":2079,"elf":2080,"bs":2081,"pm":2082,"Ġdegree":2083,"65":2084,"Ġsimplified":2085,"Ġquart":2086,"Ġ35":2087,"iel":2088,"uit":2089,"vi":2090,"acks":2091,"ceil":2092,"ways":2093,"ask":2094,"ĠPythag":2095,"Ġjust":2096,"Ġweight":2097,"Ġbecause":2098,"write":2099,"rate":2100,"unit":2101,"Ġfill":2102,"Ġclo":2103,"Ġrequ":2104,"eqn":2105,"des":2106,"tical":2107,"Ġbefore":2108,"uppose":2109,"Ġseries":2110,"67":2111,"Ġwidth":2112,")--(-":2113,"graph":2114,"Ġcall":2115,"Ġvariable":2116,"ypot":2117,"Ġconstraint":2118,"Ġgets":2119,"remaining":2120,"Ġexpressed":2121,"tles":2122,"ĠAl":2123,"Ġrece":2124,"graf":2125,"Ġ32":2126,"mbers":2127,"Ġpack":2128,"radius":2129,"irts":2130,"coord":2131,"Ġcoefficient":2132,"Ġcontains":2133,"pendic":2134,"'ll":2135,"Right":2136,"Ġcurrent":2137,"conds":2138,"led":2139,"face":2140,"ization":2141,"Ġdiam":2142,"Ġ48":2143,"fit":2144,"small":2145,"ĠNumber":2146,"ny":2147,"ildren":2148,"add":2149,"Ġeg":2150,"Ġconstant":2151,"tern":2152,"llipse":2153,"Ġwants":2154,"EF":2155,"ults":2156,"Ġcontain":2157,")..(":2158,"Ġcubic":2159,"teger":2160,"[-":2161,"cdots":2162,"Ġregular":2163,"Ġinverse":2164,"Ġcongru":2165,"Ġ23":2166,"ara":2167,"Ġlarger":2168,"Ġ$\\$":2169,"Ġfriends":2170,"Ġcomm":2171,"Ġeat":2172,"Ġcircles":2173,"tle":2174,"pendicular":2175,"leq":2176,"ontsize":2177,"minutes":2178,"earn":2179,"Ġwhite":2180,"orean":2181,"factorial":2182,"```":2183,"center":2184,"Ġu":2185,"Ġcard":2186,"='":2187,"comp":2188,"Ġweeks":2189,"Ġmodul":2190,"Ġway":2191,"ypoten":2192,"room":2193,"Ġdiagram":2194,"del":2195,"Ġref":2196,"ump":2197,"cribed":2198,"por":2199,"Circle":2200,"where":2201,"cale":2202,"ypotenuse":2203,"}+\\":2204,"Ġsize":2205,"Ġwhole":2206,"oes":2207,"ject":2208,"Ġorigin":2209,"vec":2210,"Ġshaded":2211,"fty":2212,"Ġinitial":2213,"Ġrectangular":2214,"47":2215,"fe":2216,"Ġcorrect":2217,"Ġgeometric":2218,"Ġput":2219,"Ġdes":2220,"Ġround":2221,"Ġrepe":2222,"infty":2223,"izz":2224,"combin":2225,"ols":2226,"Ġsur":2227,"let":2228,"atur":2229,"Ġtan":2230,"Ġhex":2231,"Ġcyl":2232,"Ġph":2233,"imize":2234,"Ġexample":2235,"Ġeither":2236,"Ġcould":2237,"airs":2238,"Ġspend":2239,"Ġstand":2240,"From":2241,"+(":2242,"Ġhouse":2243,"Ġmultiples":2244,"ens":2245,"mark":2246,"til":2247,"BD":2248,"overrightarrow":2249,"ĠPoly":2250,"bil":2251,"abs":2252,"oid":2253,"Ġcone":2254,"Ġanother":2255,"Rightarrow":2256,"no":2257,"Ġ.":2258,"Symbol":2259,"uring":2260,"Ġfin":2261,"ĠCh":2262,"root":2263,"Ġcoins":2264,"!=":2265,"func":2266,"Ġobtain":2267,"iqu":2268,"Ġche":2269,"[]":2270,"ilateral":2271,"ix":2272,"gram":2273,"Ġhome":2274,"Ġfar":2275,"Ġrate":2276,"atch":2277,"Ġpython":2278,"meters":2279,"}^{":2280,"ldots":2281,"cils":2282,"Ġcont":2283,"Ġblo":2284,"Ġperpendicular":2285,"Ġlike":2286,"Ġbased":2287,"Ġellipse":2288,"udent":2289,"speed":2290,"Ġwords":2291,"'),":2292,"lex":2293,"Ġmultipl":2294,"cess":2295,"Ġ-\\":2296,"Ġtheta":2297,"Here":2298,"Ġhim":2299,"ĠThus":2300,"}=":2301,"87":2302,"Ġabout":2303,"Ġtop":2304,"eval":2305,"Ġdice":2306,"iva":2307,"Ġelements":2308,"differ":2309,"sa":2310,"Ġmakes":2311,"atively":2312,"wise":2313,"volume":2314,"54":2315,"Ġblack":2316,"uc":2317,"sco":2318,"Ġ150":2319,"ĠPythagorean":2320,"choose":2321,"Ġevaluate":2322,"Ġeggs":2323,"eat":2324,"Ġwin":2325,"Ġprimes":2326,"Ġremo":2327,"ences":2328,"Ġfunctions":2329,"np":2330,"SE":2331,"].":2332,"42":2333,"300":2334,"uble":2335,"Ġwalk":2336,"Ġgame":2337,"inary":2338,"56":2339,"gn":2340,"respon":2341,"Ġ!=":2342,"Ġdiameter":2343,"Ġim":2344,"Ġlarge":2345,"Ġequilateral":2346,"Ġnegative":2347,"discount":2348,"ault":2349,"Rational":2350,"ĠConvert":2351,"Ġgot":2352,"Ġhexagon":2353,"ties":2354,"Ġperson":2355,"zero":2356,"}+":2357,"sist":2358,"Simplify":2359,"89":2360,"people":2361,"py":2362,"divisors":2363,"An":2364,"Ġpow":2365,"Ġsepar":2366,"ĠSum":2367,"ĠNow":2368,"Ġappro":2369,"Ġcollect":2370,"Ġcases":2371,"Ġsubtract":2372,"rown":2373,"Ġfaces":2374,"]])":2375,"}\")":2376,"Ġ22":2377,"NE":2378,"third":2379,"true":2380,"Ġgirls":2381,"years":2382,"ik":2383,"alind":2384,"Ġbook":2385,"alindrom":2386,"Ġareas":2387,"Ġpizz":2388,"mer":2389,"ometry":2390,"pect":2391,"blue":2392,"NW":2393,"Ġ500":2394,"Ġdetermine":2395,"ique":2396,"Ġinterest":2397,"Ġins":2398,"Ġmembers":2399,"ĠGiven":2400,"rea":2401,"Ġdiscount":2402,"sen":2403,"72":2404,"Ġbill":2405,"When":2406,"vers":2407,"ĠCreate":2408,"uesday":2409,"lent":2410,"Ġtrip":2411,"Ġseconds":2412,"ger":2413,"Ġ26":2414,"ditions":2415,"ĠĠĠĠĠĠĠĠĠĠĠĠĠĠĠ":2416,"46":2417,"81":2418,"Ġreceive":2419,"rand":2420,"Ġdogs":2421,"It":2422,"Ġrot":2423,"Ġsphere":2424,"Ġrewrite":2425,"DE":2426,"fri":2427,"Ġ++":2428,"each":2429,"ire":2430,"Ġ...":2431,"31":2432,"fraction":2433,"my":2434,"ivative":2435,"Ġfish":2436,"Ġfound":2437,"wn":2438,".)":2439,"come":2440,"Ġscore":2441,"Ġabs":2442,"multi":2443,"ĠRe":2444,"ures":2445,"Ġcircum":2446,"race":2447,"Ġcut":2448,"Ġsell":2449,"ges":2450,"Ġder":2451,"Ġ70":2452,"Ġ400":2453,"ual":2454,"Ġplayers":2455,"Ġchosen":2456,"eds":2457,")^{":2458,"Ġformed":2459,"norm":2460,"unitsize":2461,"Ġ99":2462,"85":2463,"aultpen":2464,"four":2465,"ĠSimplify":2466,"Ġ$(-":2467,"pie":2468,"apples":2469,"evalf":2470,"rees":2471,"fin":2472,"yper":2473,"arts":2474,"jection":2475,"Ġtrans":2476,"difference":2477,"Ġ\\[\\":2478,"top":2479,"Ġequiva":2480,"ced":2481,"Ġhypotenuse":2482,"ilk":2483,"}$?":2484,"Ġstarting":2485,"ĠPro":2486,"Ġfew":2487,"tools":2488,"tity":2489,"Ġradi":2490,"ĠAr":2491,"Ġ300":2492,"pez":2493,"Ġcenti":2494,"pages":2495,"Ġgames":2496,"pes":2497,"car":2498,")**(":2499,"ories":2500,"Ġdr":2501,"ference":2502,"Arrows":2503,"Ġce":2504,"Ġcomput":2505,"Ġlinear":2506,"Ġgallons":2507,"oti":2508,"Point":2509,"Ġtest":2510,"Ġparti":2511,"vings":2512,"half":2513,"__":2514,"com":2515,"ĠSy":2516,"Ġrelatively":2517,"urch":2518,"Ġthose":2519,"Ġ\\]":2520,"Ġapply":2521,"ĠJohn":2522,"ssibil":2523,"$$\\":2524,"Ġfractions":2525,"ĠLine":2526,"larg":2527,"AE":2528,"Ġneeded":2529,"Ġmedian":2530,"Ġequivalent":2531,"Ġletter":2532,"Ġfourth":2533,"yperbola":2534,"ĠTrue":2535,"Ġdrawn":2536,"())":2537,"Ġcorrespon":2538,"ĠEqu":2539,"isect":2540,"Ġdiagonal":2541,"ĠZ":2542,"1111":2543,"Ġbuys":2544,"ris":2545,"ĠBob":2546,"Ġpy":2547,"anded":2548,"Ġfriend":2549,"intersection":2550,"Suppose":2551,"phi":2552,"Re":2553,"Ġmar":2554,"ĠCo":2555,"sl":2556,"const":2557,"Ġmeters":2558,"ĠIt":2559,"}$$":2560,"([[":2561,"Ġsing":2562,"Ġrec":2563,"Ġmodulo":2564,"bag":2565,"ĠCD":2566,"Ġcents":2567,"Ġounces":2568,"pezoid":2569,"ĠWhen":2570,"Ġsym":2571,"Ġboys":2572,"step":2573,"}\\|":2574,"Ġent":2575,"76":2576,"part":2577,"Ġslices":2578,"ĠCheck":2579,"Ġbeing":2580,"Ġpaper":2581,"ason":2582,"':":2583,"Ġexpon":2584,"cub":2585,"ĠGet":2586,"000000000000":2587,"fl":2588,"path":2589,"Ġgroup":2590,"By":2591,"imit":2592,"Ġsumm":2593,"know":2594,"125":2595,"has":2596,"Ġwithout":2597,"Ġpolygon":2598,"hline":2599,"Ġ75":2600,"ized":2601,"ubstituting":2602,"Ġpaid":2603,"Ġlit":2604,"unded":2605,"mid":2606,"ĠTh":2607,"84":2608,"(.":2609,"PQ":2610,"ramid":2611,"ever":2612,"gy":2613,"Ġconditions":2614,"Ġcentimeters":2615,"pping":2616,"Ġgive":2617,"Solving":2618,"ather":2619,"sympy":2620,"ĠAn":2621,"ashed":2622,"Ex":2623,"Ġaxis":2624,")$?":2625,"--------":2626,"start":2627,"pay":2628,"aken":2629,"Ġaddition":2630,"amps":2631,"colate":2632,"Ġbus":2633,"aren":2634,"Ġcomb":2635,"\\%$":2636,"ĠMon":2637,"Enter":2638,"ffe":2639,"Ġdouble":2640,"Ġchoices":2641,"Ġri":2642,"ory":2643,"Ġtrue":2644,"bu":2645,"âĶ":2646,"cand":2647,"Ġpermutations":2648,"filldraw":2649,"vious":2650,"Ġminute":2651,"Ġ64":2652,"Ġcolum":2653,"Ġcre":2654,"Ġbrother":2655,"ĠSet":2656,"Ġitem":2657,"nes":2658,"Ġinscribed":2659,"ĠAfter":2660,"dle":2661,"probability":2662,"ruct":2663,"white":2664,"lit":2665,"Ġthus":2666,"cimal":2667,"ĠInteger":2668,"Ġrational":2669,"oons":2670,"combinations":2671,"soln":2672,"numerator":2673,"urs":2674,"Ġarc":2675,"Ġcylinder":2676,"Ġinterior":2677,"Ġshort":2678,"Ġrepresentation":2679,"lowers":2680,"aves":2681,"Note":2682,"space":2683,"fish":2684,"Ġrad":2685,"Ġ42":2686,"intercept":2687,"ĠTherefore":2688,"Ġsingle":2689,"SW":2690,",\\,\\":2691,"Ġstandard":2692,"para":2693,"ĠAnd":2694,"imilarly":2695,"ail":2696,"Ġsurface":2697,"Ġplace":2698,"rm":2699,"three":2700,"plus":2701,"Ġroom":2702,"ted":2703,"Ġcongruent":2704,"ash":2705,"33333333":2706,"999":2707,"Ġgave":2708,"ĠNE":2709,"denominator":2710,"zz":2711,"Ġgetting":2712,"43":2713,"ĠSW":2714,"celes":2715,"As":2716,"Ġoper":2717,"Ġdri":2718,"52":2719,"Ġkil":2720,"crimin":2721,"portion":2722,"ype":2723,"ssibilities":2724,"down":2725,"bought":2726,"ril":2727,"orig":2728,"ws":2729,"criminant":2730,"Ġrandomly":2731,"eros":2732,"Ġcans":2733,"Ġcars":2734,"ednes":2735,"cot":2736,"Ġdog":2737,"integer":2738,"ticks":2739,"Ġcubes":2740,"ery":2741,"cap":2742,"Ġ$\\{":2743,"amma":2744,"cakes":2745,"âĶĢ":2746,"Ġemp":2747,"balls":2748,"pack":2749,"Ġtrapezoid":2750,"Ġtrig":2751,"Ġrows":2752,"clo":2753,"Ġstate":2754,"ables":2755,"Ġpyramid":2756,"ready":2757,"expand":2758,"Ġ72":2759,"Ġexpressions":2760,"Ġcoordinate":2761,"inner":2762,"Ġitertools":2763,"geq":2764,"Ġdie":2765,"Ġinside":2766,"Ġchildren":2767,"ĠCar":2768,"uff":2769,"ids":2770,"osceles":2771,"Ġate":2772,"implies":2773,"sive":2774,"andw":2775,"ednesday":2776,"And":2777,"duce":2778,"yle":2779,"fontsize":2780,"ield":2781,"scale":2782,"ike":2783,"Ġbx":2784,"cus":2785,"Ġmark":2786,"pected":2787,"oth":2788,"perimeter":2789,"Ġ29":2790,"Ġfull":2791,"Ġhor":2792,":\",":2793,"ifth":2794,"Ġplan":2795,"iding":2796,"before":2797,"Ġoptions":2798,"Ticks":2799,"Ġ37":2800,"Ġdiff":2801,"Ġisosceles":2802,"Ġstudent":2803,"posi":2804,"Ġones":2805,"Ġselected":2806,"Ġlambda":2807,"Ġsw":2808,"dies":2809,"Ġda":2810,"Ġyellow":2811,"alary":2812,"500":2813,"ush":2814,"Ġ\"\"\"":2815,"Ġpalindrom":2816,"Ġvis":2817,"400":2818,"Two":2819,"lest":2820,"inally":2821,"Ġceil":2822,"Ġhyperbola":2823,"Ġ--":2824,"water":2825,"ron":2826,"Ġ52":2827,"irt":2828,"Al":2829,"Ġexist":2830,"ĠAD":2831,"she":2832,"Ġfactorization":2833,"ese":2834,"101":2835,"Ġcontin":2836,"riangle":2837,"Ġsymbolic":2838,"Ġ((":2839,"âĢĻ":2840,"360":2841,"Ġsimplest":2842,"negative":2843,"Ġcups":2844,"Ġdivides":2845,"Ġdiagonals":2846,"Ġunknow":2847,"given":2848,"dex":2849,"Ġcross":2850,"posite":2851,"asket":2852,"possible":2853,"Ġcle":2854,"average":2855,"Ġproperty":2856,"eaten":2857,"sed":2858,"unch":2859,"aced":2860,"weeks":2861,"ond":2862,"})^":2863,"Ġfoot":2864,"BE":2865,"ral":2866,"vel":2867,"Ġface":2868,"ata":2869,".\\":2870,"Ġman":2871,"86":2872,"remainder":2873,"}=\\":2874,"Ġweigh":2875,"omen":2876,"Ġasy":2877,"Ġtook":2878,"hand":2879,"Ġrolls":2880,"inverse":2881,"Ġtable":2882,",.":2883,"Con":2884,"ogram":2885,"Ġmonths":2886,"Ġsimilar":2887,"Ġprevious":2888,"Ġdel":2889,"rang":2890,"Ġpencils":2891,"Ġlegs":2892,"Ġbags":2893,"Ġimplies":2894,"otient":2895,")-":2896,"Ġmet":2897,"inch":2898,"Ġca":2899,"}}{\\":2900,"Ġquadril":2901,"ones":2902,"}{(":2903,"vector":2904,"asing":2905,"tice":2906,"Ġhel":2907,"Ġstring":2908,"ĠSE":2909,"anan":2910,"marbles":2911,"Ġcoin":2912,"66666666":2913,"Ġfam":2914,"used":2915,"Ġpasses":2916,"Ġonce":2917,"Ġbisect":2918,"Ġbir":2919,"''":2920,"ustom":2921,"Ġduring":2922,"0000000000000000":2923,"jac":2924,"Ġplt":2925,"Ġpres":2926,"}-":2927,"âĶĢâĶĢ":2928,"lambda":2929,"Ġpowers":2930,"elly":2931,"Ġsit":2932,"last":2933,"Ġpizza":2934,"nit":2935,"Ġsem":2936,"Ġchange":2937,"Ġtriple":2938,"Ġlcm":2939,"Ġtall":2940,"sign":2941,"Ġheads":2942,"equations":2943,"book":2944,"ĠFalse":2945,"Ġparts":2946,"bc":2947,"Ġchairs":2948,"Ġseparated":2949,"even":2950,"eng":2951,"âĢ¦":2952,"Ġsells":2953,"Ġnorm":2954,"Ġflo":2955,"ĠMonday":2956,"ĠEnter":2957,"41":2958,"Ġtaking":2959,"Ġfood":2960,"go":2961,"Ġpossibilities":2962,"dent":2963,"Ġinfin":2964,"ances":2965,"Ġ,":2966,"Ġalready":2967,"jacent":2968,"run":2969,"ĠTotal":2970,"Ġaround":2971,"Ġjo":2972,"ques":2973,"Ġequals":2974,"ton":2975,"ĠFirst":2976,"Ġpath":2977,"Ġaway":2978,"97":2979,"AP":2980,"det":2981,"Ġedge":2982,"primes":2983,"zen":2984,"Ġasympt":2985,"ension":2986,"Ġmag":2987,"Ġpercentage":2988,"Ġaltit":2989,"aligned":2990,"ugg":2991,"Ġconsist":2992,"ĠRo":2993,"score":2994,"Ġke":2995,"Ġfru":2996,"iting":2997,"Ġedges":2998,"Ġsay":2999,"Ġagain":3000,"Ġopposite":3001,"Ġspends":3002,"Ġposition":3003,"son":3004,"ĠThey":3005,"ĠAdd":3006,"Ġ49":3007,"Ġpat":3008,"ctions":3009,"Substituting":3010,"ĠSt":3011,"Ġcombined":3012,"ina":3013,"Ġprob":3014,"imals":3015,"sub":3016,"Ġmilk":3017,"Ġarrangements":3018,"pies":3019,"Ġnote":3020,"Ġsubs":3021,"ffee":3022,"Ġprojection":3023,"Ġfactorint":3024,"Ġocc":3025,"Ġ360":3026,"cases":3027,"Ġoutcomes":3028,"bx":3029,"acity":3030,"suming":3031,"Ġpolynomials":3032,"rib":3033,"Ġmost":3034,"]))":3035,"ĠUse":3036,"che":3037,"pairs":3038,"Ġcandy":3039,"Ġcannot":3040,"Ġxy":3041,"gebra":3042,"Ġcandies":3043,"comb":3044,"Ġunique":3045,"Matrix":3046,"lass":3047,"Ġlaw":3048,"}_":3049,"Ġcommas":3050,"Ġunder":3051,"Ġgenerate":3052,"Ġ:":3053,"Py":3054,"imension":3055,"73":3056,"iod":3057,"Ġderivative":3058,"Ġtickets":3059,"mpify":3060,"cup":3061,"plane":3062,"Ġsup":3063,"58":3064,"cards":3065,"initial":3066,"Ġsocks":3067,"boxes":3068,"]--":3069,"ier":3070,"Ġbow":3071,"male":3072,"pre":3073,"Ġvalid":3074,"Ġtree":3075,"Ġhold":3076,"Ġitems":3077,"ply":3078,"Ġoranges":3079,"Ġsteps":3080,"rical":3081,"inequ":3082,"quadratic":3083,"Ġbuild":3084,"ĠHence":3085,"Ġquadrilateral":3086,"Ġtravel":3087,"till":3088,"Ġsegments":3089,"Ġcer":3090,"minute":3091,"final":3092,"98":3093,"lower":3094,"99999999":3095,"vie":3096,"Ġparty":3097,"miles":3098,"color":3099,"while":3100,"icture":3101,"ately":3102,"tire":3103,"aring":3104,"Ġquarter":3105,"lib":3106,"ward":3107,"Ġcal":3108,"ĠOne":3109,"Ġconstraints":3110,"ĠĠĠĠĠ":3111,"Ġmen":3112,"rot":3113,"Ġuses":3114,"bottom":3115,"Ġadding":3116,"92":3117,"Ġhoriz":3118,"cookies":3119,"Ġworks":3120,"Ġsto":3121,"ĠMr":3122,"Ġchocolate":3123,"bor":3124,"}\\\\":3125,"Ġbr":3126,"berries":3127,"Evaluate":3128,"Ġcat":3129,"Arrow":3130,"Ġeats":3131,"95":3132,"inant":3133,"Ġcomplete":3134,"Ġquestions":3135,"Ġhol":3136,"green":3137,"Ġ33":3138,"ansion":3139,"jo":3140,"ication":3141,"Ġprofit":3142,"Ġworth":3143,"Ġadded":3144,"Ġeas":3145,"Ġrequired":3146,"squares":3147,"\":":3148,"ĠEquation":3149,"squared":3150,"Ġuntil":3151,"Ġcup":3152,").\\]":3153,"ah":3154,"Ġdivision":3155,"bill":3156,"eterm":3157,"False":3158,"199":3159,"Ġmetho":3160,"hema":3161,"Ġreceived":3162,"\",(-":3163,"slices":3164,"\"\"\"":3165,"Ġturn":3166,"110":3167,"Ġgoing":3168,"self":3169,"Ġradical":3170,"240":3171,"Ġbegin":3172,"Solve":3173,"Ġgues":3174,"Ġearned":3175,"Ġsist":3176,"uses":3177,"63":3178,"Ġquarters":3179,"Ġsummation":3180,"Ġchoos":3181,"ĠHer":3182,"Ġplant":3183,"))*":3184,"ough":3185,"On":3186,"solute":3187,"Ġev":3188,"lcm":3189,"veset":3190,"Ġvertical":3191,"constraint":3192,"aturday":3193,"sq":3194,"swers":3195,"Ġinst":3196,"which":3197,"ored":3198,"Ġmeet":3199,"Ġcover":3200,"ĠJo":3201,"Ġpiece":3202,"Ġcombination":3203,")\\]":3204,"Ġgrid":3205,"Ġbottles":3206,"ĠAs":3207,"gamma":3208,"Ġrepresents":3209,"mmet":3210,"ĠAt":3211,"2008":3212,"Ġzeros":3213,"ition":3214,"tickers":3215,"ĠPl":3216,"Ġnumer":3217,"hedron":3218,"Ġcur":3219,"uding":3220,"Ġreplace":3221,"Ġbeen":3222,"eggs":3223,"Ġshirts":3224,"Ġ10000":3225,"Ġcertain":3226,"Ġ[(":3227,"Ġeight":3228,"prod":3229,"coordinate":3230,"etermine":3231,"bro":3232,"Ġhigh":3233,"ontal":3234,"neq":3235,"Ġlooking":3236,"rack":3237,"Ġpol":3238,"acher":3239,"arden":3240,"ords":3241,"return":3242,"Ġconstants":3243,"Ġadjacent":3244,"HS":3245,"mathrm":3246,"ration":3247,"Ġmy":3248,"ĠNW":3249,"Ġshare":3250,"Ġpark":3251,"fig":3252,"mper":3253,"Ġask":3254,"usive":3255,"Ġminimize":3256,"Ġcharg":3257,"Ġdirect":3258,"Ġable":3259,"decimal":3260,"ubstitute":3261,"Ġradians":3262,"ires":3263,"cs":3264,"rection":3265,"Ġmiddle":3266,"Ġ&\\":3267,"mathbb":3268,"ium":3269,"Ġ$[":3270,"Ġnotation":3271,".$$":3272,"Ġbig":3273,"://":3274,"?$":3275,"One":3276,"Ġresulting":3277,"person":3278,"power":3279,"entagon":3280,"Ġcolumn":3281,"Ġcorresponding":3282,"Ġspace":3283,"requ":3284,"XY":3285,"slope":3286,"250":3287,"replace":3288,"earnings":3289,"ib":3290,"iving":3291,"æ¢¦æ¢¦æ¢¦æ¢¦æ¢¦æ¢¦æ¢¦æ¢¦æ¢¦æ¢¦æ¢¦æ¢¦æ¢¦æ¢¦æ¢¦æ¢¦æ¢¦æ¢¦æ¢¦æ¢¦æ¢¦æ¢¦æ¢¦æ¢¦æ¢¦æ¢¦æ¢¦æ¢¦æ¢¦æ¢¦æ¢¦æ¢¦æ¢¦æ¢¦æ¢¦æ¢¦æ¢¦æ¢¦æ¢¦æ¢¦æ¢¦æ¢¦æ¢¦æ¢¦æ¢¦æ¢¦æ¢¦æ¢¦æ¢¦æ¢¦æ¢¦æ¢¦æ¢¦æ¢¦æ¢¦æ¢¦æ¢¦æ¢¦æ¢¦æ¢¦æ¢¦æ¢¦æ¢¦æ¢¦æ¢¦æ¢¦æ¢¦æ¢¦æ¢¦æ¢¦æ¢¦æ¢¦æ¢¦æ¢¦æ¢¦æ¢¦æ¢¦æ¢¦æ¢¦æ¢¦æ¢¦æ¢¦æ¢¦æ¢¦æ¢¦æ¢¦æ¢¦æ¢¦æ¢¦æ¢¦æ¢¦æ¢¦æ¢¦æ¢¦æ¢¦æ¢¦æ¢¦æ¢¦æ¢¦æ¢¦æ¢¦æ¢¦æ¢¦æ¢¦æ¢¦æ¢¦æ¢¦æ¢¦æ¢¦æ¢¦æ¢¦æ¢¦æ¢¦æ¢¦æ¢¦æ¢¦æ¢¦æ¢¦æ¢¦æ¢¦æ¢¦æ¢¦æ¢¦æ¢¦æ¢¦æ¢¦æ¢¦æ¢¦æ¢¦æ¢¦æ¢¦æ¢¦æ¢¦æ¢¦æ¢¦æ¢¦æ¢¦æ¢¦æ¢¦æ¢¦æ¢¦æ¢¦æ¢¦æ¢¦æ¢¦æ¢¦æ¢¦æ¢¦æ¢¦æ¢¦æ¢¦æ¢¦æ¢¦æ¢¦æ¢¦æ¢¦æ¢¦æ¢¦æ¢¦æ¢¦æ¢¦æ¢¦æ¢¦æ¢¦æ¢¦æ¢¦æ¢¦æ¢¦æ¢¦æ¢¦æ¢¦æ¢¦æ¢¦æ¢¦æ¢¦æ¢¦æ¢¦æ¢¦æ¢¦æ¢¦æ¢¦æ¢¦æ¢¦æ¢¦æ¢¦æ¢¦æ¢¦æ¢¦æ¢¦æ¢¦æ¢¦æ¢¦æ¢¦æ¢¦æ¢¦æ¢¦æ¢¦æ¢¦æ¢¦æ¢¦æ¢¦æ¢¦æ¢¦æ¢¦æ¢¦æ¢¦æ¢¦æ¢¦æ¢¦æ¢¦æ¢¦æ¢¦æ¢¦æ¢¦æ¢¦æ¢¦æ¢¦æ¢¦æ¢¦æ¢¦æ¢¦æ¢¦æ¢¦æ¢¦æ¢¦æ¢¦æ¢¦æ¢¦æ¢¦æ¢¦æ¢¦æ¢¦æ¢¦æ¢¦æ¢¦æ¢¦æ¢¦æ¢¦æ¢¦æ¢¦æ¢¦æ¢¦æ¢¦æ¢¦æ¢¦æ¢¦æ¢¦æ¢¦æ¢¦æ¢¦æ¢¦æ¢¦æ¢¦æ¢¦æ¢¦æ¢¦":3292,"percentage":3293,"ananas":3294,"--(":3295,"name":3296,"Ġruns":3297,"venue":3298,"Ġsign":3299,"ders":3300,"Ġseven":3301,"Ġcollection":3302,"Ġentire":3303,"Ġshoes":3304,"Ġalways":3305,"Ġexpected":3306,"]]":3307,"Ġtrees":3308,"Ġdiscriminant":3309,"John":3310,"coeffs":3311,"pand":3312,"Ġdro":3313,"oun":3314,"tps":3315,"med":3316,"Ġfamily":3317,"Ġelement":3318,"Ġconstruct":3319,"pped":3320,"01":3321,"ĠUsing":3322,"egment":3323,"tr":3324,"Ġsk":3325,"coeffici":3326,"Ġgoes":3327,"babilities":3328,"Ġ2000":3329,"ĠAll":3330,"Ġcosine":3331,"Ġkeep":3332,"Ġpurch":3333,"Ġfinding":3334,"Ġproperties":3335,"Ġonto":3336,"more":3337,"Ġpop":3338,"Ġdistrib":3339,"Ġrepresented":3340,"Ġtank":3341,"ele":3342,")!":3343,"2007":3344,"Ġaltitude":3345,"ĠJames":3346,"lhs":3347,"class":3348,"ions":3349,"otes":3350,"ĠSubstitute":3351,"minus":3352,"aches":3353,"ulation":3354,"aps":3355,"ĠCircle":3356,"ape":3357,"Ġspec":3358,"Ġlow":3359,"\".":3360,"rhs":3361,"Ġfewer":3362,"Ġrain":3363,"Ġplates":3364,"Ġhere":3365,"Ġoutput":3366,"mong":3367,"plotlib":3368,"Ġ31":3369,"Ġkey":3370,"Ġincrease":3371,"ually":3372,"doll":3373,"Ġresults":3374,"Ġ55":3375,"arrange":3376,"shirts":3377,"Ġfocus":3378,"ĠSam":3379,")}$.":3380,"odd":3381,"polynomial":3382,"mPy":3383,"ĠTicks":3384,"ithm":3385,"Ġsymmet":3386,"ĠTuesday":3387,"Ġtrigon":3388,"current":3389,"Ġdeterminant":3390,"Ġfoci":3391,"tim":3392,"Ġbottom":3393,"Ġ&&":3394,"rew":3395,"ĠProbability":3396,"Ġchick":3397,"ĠNone":3398,"Ġadditional":3399,"pieces":3400,"paint":3401,"Ġstamps":3402,"Ġoct":3403,"Ġ[-":3404,"ature":3405,"sest":3406,")));":3407,"Ġabsolute":3408,"Ġtyp":3409,",\\]":3410,"Similarly":3411,"Ġ56":3412,"Ġhaving":3413,"ĠFraction":3414,"clude":3415,"Ġreflect":3416,"oper":3417,"gall":3418,"Ġfinish":3419,"Ġparallelogram":3420,"),(":3421,"Ġwomen":3422,"ĠMar":3423,"dashed":3424,"'re":3425,"At":3426,"ĠSymPy":3427,"Ġlies":3428,"ert":3429,"ilter":3430,"vals":3431,"Ġav":3432,"Ġmethod":3433,"duced":3434,"ytop":3435,"ugar":3436,"####":3437,"ursday":3438,"Ġ$$\\":3439,"ugging":3440,"arrowsize":3441,"Ġinput":3442,"])**":3443,"Ġtype":3444,"$(":3445,"mis":3446,"MN":3447,"paid":3448,"Ġmatplotlib":3449,"Ġbasket":3450,"Ġ34":3451,"defaultpen":3452,"Ġpage":3453,"Ġleaves":3454,"made":3455,"sided":3456,"Ġstill":3457,"pow":3458,"foot":3459,"integ":3460,"Ġscored":3461,"Ġplug":3462,"2857":3463,"Ġ81":3464,"Ġsolved":3465,"Ġimag":3466,"Ġ39":3467,"2000":3468,"tracting":3469,"ĠArea":3470,"Ġexpr":3471,"ails":3472,"))))":3473,"je":3474,")])":3475,"cars":3476,"Ġalong":3477,"Ġtenth":3478,"Ġsc":3479,"pic":3480,"78":3481,"Ġexpansion":3482,"Ġlie":3483,"Ġlower":3484,"oo":3485,"Ġsandw":3486,"Ġarri":3487,"Ġpentagon":3488,"Ġreci":3489,"Ġmathema":3490,"Ġintersects":3491,"Ġpattern":3492,"Ġsplit":3493,"\">":3494,"args":3495,"nitude":3496,"Ġwall":3497,"terms":3498,"69":3499,"nums":3500,"Ġdividing":3501,"hex":3502,"Ġbor":3503,"meter":3504,"Ġwent":3505,"ĠPa":3506,"incre":3507,"OB":3508,"expanded":3509,"Ġhorizontal":3510,"Ġdefin":3511,"Ġequally":3512,"Ġallow":3513,"sines":3514,"Ġfair":3515,"Ġfifth":3516,"Ġexten":3517,"orning":3518,"Ġsister":3519,"Ġmeasures":3520,"ickels":3521,"mbd":3522,"Ġliters":3523,"68":3524,"ĠBill":3525,"Ġinclusive":3526,"Ġprobabilities":3527,"show":3528,"profit":3529,"Ġ600":3530,"05":3531,"else":3532,"Ġsets":3533,"Ġassign":3534,"Ġalgebra":3535,"Ġnor":3536,"Ġappe":3537,"function":3538,"nies":3539,"Next":3540,"inequality":3541,"51":3542,")*\"":3543,"Ġimp":3544,"uple":3545,"DC":3546,"alities":3547,"ĠĠĠĠĠĠĠĠĠĠĠĠĠĠĠĠĠĠĠĠĠĠĠĠĠĠĠĠĠĠĠĠ":3548,"Ġdone":3549,"orted":3550,"Ġdimension":3551,"mathcal":3552,"eth":3553,"umer":3554,"Ġsure":3555,"lin":3556,"Ġextra":3557,"Ġthink":3558,"dogs":3559,"Ġsympify":3560,"Ġscores":3561,"diam":3562,"ule":3563,"quart":3564,"))/":3565,"Ġnormal":3566,"artes":3567,"lim":3568,"Ġrecur":3569,"Ġamong":3570,"unday":3571,"Ġ65":3572,"star":3573,"Ġjar":3574,"coordinates":3575,"Ġsimply":3576,"Ġhelp":3577,"Ġstarts":3578,"Ġiterate":3579,"enny":3580,"Ġcolors":3581,"arry":3582,"Ġtax":3583,"Ġcircumference":3584,"sides":3585,"Ġproblems":3586,"Ġgarden":3587,"Ġblock":3588,"Ġice":3589,"Ġbowl":3590,"coll":3591,"pizz":3592,"permutations":3593,"erry":3594,"Ġfr":3595,"reg":3596,"beans":3597,"MP":3598,"Ġparen":3599,"xmax":3600,"79":3601,"Ġplus":3602,"sequ":3603,"=(-":3604,"ĠHis":3605,"imag":3606,"artesian":3607,"Ġperiod":3608,"can":3609,"Ġdesired":3610,"Ġsolveset":3611,"Each":3612,"mbdify":3613,"Ġsales":3614,"!$":3615,"Ġapart":3616,"vin":3617,"*(-":3618,"Ġquotient":3619,"Ġcoffee":3620,"iches":3621,"rist":3622,"Ġapproach":3623,"Ġblocks":3624,"Ġupper":3625,"Ġbecomes":3626,"jug":3627,"alks":3628,"Ġreturns":3629,"Ġreach":3630,"man":3631,"Ġtaken":3632,"Finally":3633,"inks":3634,"Ġsums":3635,"don":3636,"().":3637,"Ġalpha":3638,"Ġ$(\\":3639,"Ġplaced":3640,"Ġdeck":3641,"(*":3642,"system":3643,"Ġmaking":3644,"Ġstri":3645,"Ġcook":3646,"Ġtiles":3647,"Ġmile":3648,"Ġcustom":3649,"ultiply":3650,"uted":3651,"Ġsimplif":3652,"Ġflowers":3653,"rad":3654,"Ġobtained":3655,"Ġgeneral":3656,"ixed":3657,"late":3658,"lection":3659,"Ġgoal":3660,"Ġcalories":3661,"\\}$":3662,"Ġperform":3663,"Ġsuc":3664,"(\"$\\":3665,"ered":3666,"Ġanimals":3667,"inders":3668,"Ġobject":3669,"ĠLa":3670,"Ġdeliv":3671,"Ġve":3672,"Ġidentity":3673,"iter":3674,"Ġcheese":3675,"Ġlowest":3676,"Ġclosest":3677,"bar":3678,"loye":3679,"binomial":3680,"rayons":3681,"big":3682,"....":3683,"ctor":3684,"tices":3685,"Ġmidpoints":3686,"53":3687,"Ġcircular":3688,"cis":3689,"ĠSolving":3690,"}}.":3691,"Ġplants":3692,"fourth":3693,"Ġenough":3694,"urther":3695,"ailable":3696,"Ġword":3697,"Ġbc":3698,"smallest":3699,"Ġjelly":3700,"600":3701,"gres":3702,"Ġhig":3703,"months":3704,"ĠAbs":3705,"mperature":3706,")).":3707,"Ġlik":3708,"Ġisprime":3709,"Ġopen":3710,"Ġsu":3711,"|^":3712,"Ġbound":3713,"Ġ250":3714,"br":3715,"ense":3716,"Ġballoons":3717,"Ġleg":3718,"Ġ101":3719,"positive":3720,"160":3721,"St":3722,"numer":3723,"cross":3724,"Ġbrown":3725,"Ġinfinite":3726,"ĠAM":3727,"59":3728,"save":3729,"Ġ54":3730,"Ġmay":3731,"rel":3732,"Ġwon":3733,"Ġdirection":3734,"https":3735,";}":3736,"arcsin":3737,"Ġunknown":3738,"lceil":3739,"false":3740,"\\[(":3741,"rceil":3742,"mar":3743,"anna":3744,"Ġdimes":3745,"gro":3746,"Ġincreasing":3747,")$\",":3748,"PA":3749,"ĠMary":3750,"Ġoption":3751,"Ġaccount":3752,"house":3753,"Ġlemon":3754,"CM":3755,"rho":3756,"anglemark":3757,"vis":3758,"rooms":3759,"Ġceiling":3760,"My":3761,"Ġmonthly":3762,".,":3763,"Ġdoesn":3764,"Ġsale":3765,"ade":3766,"Ġdefaultpen":3767,"bmatrix":3768,"74":3769,"Ġow":3770,"girls":3771,"142857":3772,"']":3773,"leep":3774,"earned":3775,"Ġmis":3776,"Ġpacks":3777,"$\",(-":3778,"|$":3779,"Ġwell":3780,"xright":3781,"lli":3782,"aster":3783,"TicksAr":3784,"bags":3785,"Ġnonzero":3786,"Ġdimensions":3787,"Number":3788,"Ġpicked":3789,"ĠEvaluate":3790,"iam":3791,"Which":3792,"Ġteacher":3793,"tho":3794,"light":3795,"Ġinvest":3796,"string":3797,"arah":3798,"Ġcollected":3799,"Ġdozen":3800,"}.$$":3801,"Ġsimple":3802,"friends":3803,"Ġmodel":3804,"solvers":3805,"ilt":3806,"gression":3807,"cular":3808,"Ġremove":3809,"ĠAlex":3810,"ony":3811,"))**":3812,"Ġgold":3813,"walk":3814,"Ġtrain":3815,"Ġdefinition":3816,"Ġsoda":3817,"plit":3818,"Ġ*=":3819,"mean":3820,"Ġtraveled":3821,"vmatrix":3822,"Ġimaginary":3823,"Ġidentical":3824,"that":3825,"children":3826,"back":3827,"Ġgroups":3828,"Ġempty":3829,"ĠĠĠĠĠĠ":3830,"Ġidenti":3831,"Ġcats":3832,"together":3833,"five":3834,"Ġlimit":3835,"Ġenumer":3836,"bound":3837,"AA":3838,"ef":3839,"ĠMark":3840,"&\\":3841,"Ġparticular":3842,"Ġ\\{":3843,"Ġgas":3844,"QR":3845,"ided":3846,"Ġtru":3847,"Ġcream":3848,"()[":3849,"Ġfontsize":3850,"pts":3851,"Ġson":3852,"Ġ38":3853,"blo":3854,"ĠArrows":3855,"Ġ\",":3856,"Ġstra":3857,"Pl":3858,"change":3859,"Ġincreased":3860,"without":3861,"Ġdistances":3862,"dog":3863,"Ġ199":3864,"Ġcalculated":3865,"Ġpicture":3866,"comm":3867,"ĠWednesday":3868,"Ġpalindrome":3869,"simp":3870,"ĠMax":3871,")=\\":3872,"Ġminus":3873,"Ġfruit":3874,"itte":3875,"extend":3876,"Ġdecre":3877,"Ġanswers":3878,"CA":3879,"arl":3880,"rank":3881,"riday":3882,"operator":3883,"ĠTheorem":3884,"atan":3885,"Ġrule":3886,"Ġsave":3887,"Ġbottle":3888,"Ġarray":3889,"Ġrho":3890,"Ġsn":3891,"urple":3892,"rx":3893,"ĠAng":3894,"144":3895,"Ġsequences":3896,"Ġbread":3897,"xyz":3898,"Ġland":3899,"Ġbisector":3900,"Ġtomat":3901,"Ġ\\,":3902,"tab":3903,"Ġchoosing":3904,"Ġneigh":3905,"Ġmarble":3906,"items":3907,"OC":3908,"Ġyards":3909,"rite":3910,"'$":3911,"inalg":3912,"Ġdecides":3913,"ror":3914,"Ġbutter":3915,"question":3916,"Ġremoved":3917,"Ġhen":3918,"140":3919,"bp":3920,"Ġ41":3921,"Ġdata":3922,"After":3923,"hel":3924,"Ġdollar":3925,"Ġband":3926,"){":3927,"ĠTom":3928,"jugate":3929,"ha":3930,"Ġapple":3931,"Ġpolar":3932,"salary":3933,"Ġprogression":3934,"Ġstraight":3935,"Ġfunc":3936,"uice":3937,"original":3938,"Ġhot":3939,"Ġpositions":3940,"equals":3941,"However":3942,"!}{":3943,"sho":3944,"atural":3945,"ead":3946,"Ġ63":3947,"ney":3948,"multiple":3949,"ann":3950,"Ġloop":3951,"Area":3952,"Triangle":3953,"Ġoperation":3954,"Ġ43":3955,"boys":3956,"atoes":3957,"Ġkids":3958,"Ġrelation":3959,"Ġclean":3960,"io":3961,"Ġholds":3962,"quare":3963,"Ġelif":3964,"Ġshop":3965,"grams":3966,"Ġbananas":3967,"td":3968,"Ġcap":3969,"Ġhund":3970,"Ġpens":3971,"Label":3972,"Ġshift":3973,"ĠCount":3974,"2004":3975,"Ġbirth":3976,"Ġbur":3977,"normal":3978,"Express":3979,"feet":3980,"display":3981,"83":3982,"mag":3983,")):":3984,"91":3985,"antity":3986,"ints":3987,"De":3988,"AM":3989,"Ġname":3990,"onds":3991,"Also":3992,"ref":3993,"tabular":3994,"Ġfro":3995,"Ġticket":3996,"duction":3997,"2009":3998,"Ġconsists":3999,"avor":4000,")+(":4001,"Ġmultiplying":4002,"Ġstates":4003,"Ġ51":4004,"Ġevent":4005,"Ġhands":4006,"pop":4007,"Ġlunch":4008,"Ġpor":4009,"Ġhapp":4010,"increase":4011,"}/":4012,"nect":4013,"ĠLe":4014,"^^":4015,"Ġpartic":4016,"93":4017,"Ġpants":4018,"But":4019,"ove":4020,"than":4021,"Ġstickers":4022,"ything":4023,"rame":4024,"tend":4025,"Ġmove":4026,"Ġasymptote":4027,"ĠFriday":4028,"Ġdrink":4029,"Ġchips":4030,"bottles":4031,"ners":4032,"ymin":4033,"ael":4034,"Ġ2004":4035,"Ġgrand":4036,"trib":4037,"doit":4038,"))*(":4039,"Ġbab":4040,"food":4041,"index":4042,"leg":4043,"enn":4044,"cket":4045,"less":4046,"emp":4047,"rain":4048,"Ġwalks":4049,"cat":4050,"xmin":4051,"$)":4052,"]**":4053,"Ġtext":4054,"Ġlambdify":4055,"Ġbills":4056,"EE":4057,"Ġsine":4058,"ised":4059,"Integer":4060,"units":4061,"linalg":4062,"vex":4063,"bet":4064,"off":4065,"Ġrectangles":4066,"Ġmaximize":4067,"2010":4068,"jor":4069,"pyplot":4070,"deg":4071,"Ġenumerate":4072,"Ġpris":4073,"Ġlonger":4074,"img":4075,"item":4076,"Ġpies":4077,"cewise":4078,"limit":4079,"Ġplaces":4080,"Ġ${":4081,"rots":4082,"]);":4083,",-.":4084,"Question":4085,"Ġflour":4086,"Ġgeometry":4087,"():":4088,"Ġstre":4089,"Ġseats":4090,"Ġshirt":4091,"Ġbank":4092,"Ġformul":4093,"Ġtherefore":4094,"ĠTwo":4095,"ichael":4096,"CE":4097,"Tick":4098,"Ġworking":4099,"sales":4100,"Ġbeta":4101,"condition":4102,"Ġfield":4103,"ymax":4104,"andy":4105,"Ġhence":4106,"Ġbinary":4107,"fact":4108,"Ġstatement":4109,"Ġkind":4110,"Ġrepeating":4111,"ticket":4112,"games":4113,"2006":4114,"tics":4115,"Ġdrawing":4116,"Ġnatural":4117,"alance":4118,"Ġbars":4119,"Ġ2007":4120,"Ġmultiplied":4121,"ĠAP":4122,"Ġ_":4123,"Ġeaten":4124,"Ġwithin":4125,"ctan":4126,"Ġobser":4127,"ows":4128,"\\,":4129,"Ġfloat":4130,"common":4131,"six":4132,"Ġtens":4133,"Ġpassing":4134,"next":4135,"Ġconnect":4136,"calories":4137,"Ġcha":4138,"Ġarrang":4139,"geometry":4140,"nie":4141,"saved":4142,"ĠFunction":4143,"dule":4144,"Ġact":4145,"Ġolder":4146,"Ġeasily":4147,"Ġjob":4148,"ĠMP":4149,"Ġtrigonometric":4150,"(\"%":4151,"Ġlost":4152,"large":4153,"]*":4154,"Ġcontinue":4155,"Ġcentered":4156,"Consider":4157,"]:":4158,"})$":4159,"rightanglemark":4160,"Ġloc":4161,"Ġbuying":4162,"elta":4163,"format":4164,"Ġcalculations":4165,"Ġnight":4166,"iecewise":4167,"degrees":4168,"Ġproducts":4169,"ndArrow":4170,"Ġcri":4171,"Ġcompos":4172,"coords":4173,"lon":4174,"ester":4175,"integers":4176,"Ġneither":4177,"xim":4178,"cans":4179,"62":4180,"tickets":4181,"odes":4182,"Ġteams":4183,"ators":4184,"Ġdecided":4185,"pounds":4186,"Ġpound":4187,"108":4188,"Ġselling":4189,"split":4190,"Ġ47":4191,"ĠIter":4192,"Ġshows":4193,"Ġrecursive":4194,"largest":4195,"ingu":4196,"Ġprism":4197,"625":4198,"Ġexists":4199,"ĠMod":4200,"cube":4201,"Ġcompany":4202,"plan":4203,"Ġgallon":4204,"Ġpig":4205,"anda":4206,"hip":4207,"Ġbi":4208,"capacity":4209,"(\"%\",":4210,"Ġmorning":4211,"ĠSte":4212,"Ġcosines":4213,"but":4214,"-(":4215,"key":4216,"pencils":4217,"arch":4218,"inguish":4219,"130":4220,"Ġ[...":4221,"LM":4222,"Ġlight":4223,"BP":4224,",(":4225,"Ġtriangular":4226,"Ġclub":4227,"flowers":4228,"ĠBD":4229,"under":4230,".\")":4231,"Ġâ":4232,"Ġnickels":4233,"cepts":4234,"Ġlogar":4235,"Ġnumbered":4236,"pick":4237,"Ġnonnegative":4238,"61":4239,"lled":4240,"income":4241,"ĠSaturday":4242,"Sum":4243,"}^\\":4244,"Ġglass":4245,"Ġflag":4246,"hest":4247,"oranges":4248,"Ġearnings":4249,"tax":4250,"ĠAE":4251,"pound":4252,"Ġpackage":4253,"appro":4254,"arget":4255,"Ġpays":4256,"Ġconclude":4257,"Ġ240":4258,",(-":4259,"210":4260,"ĠĠĠĠĠĠĠĠĠĠĠĠĠĠĠĠĠĠĠ":4261,"ĠJan":4262,"Ġown":4263,"Ġcr":4264,"Ġtow":4265,"eve":4266,"win":4267,"style":4268,"inguishable":4269,"Ġsubstituting":4270,"Ġ210":4271,"radi":4272,"|,":4273,"bi":4274,"divisor":4275,"10000":4276,"Ġnine":4277,"Delta":4278,"Ġcy":4279,"Ġprogram":4280,"Ġsimplifies":4281,"Ġproject":4282,"coefficients":4283,"PR":4284,"Ġrelations":4285,"Ġincluding":4286,"Ġann":4287,"ineq":4288,"non":4289,"Ġ$\\|\\":4290,"ics":4291,"udes":4292,"etra":4293,"mile":4294,"ley":4295,"cups":4296,"ĠIterate":4297,"degree":4298,"Ġfemale":4299,"]),":4300,"gers":4301,"lish":4302,"5555":4303,"stand":4304,"Ġconvex":4305,"Ġasks":4306,"monday":4307,"ybottom":4308,"['":4309,"Ġcontaining":4310,"edge":4311,"Ġcalled":4312,"gum":4313,"vertices":4314,"flo":4315,"Ġsal":4316,"Ġrotation":4317,"ept":4318,"ĠBy":4319,"Ġwhether":4320,"ĠSe":4321,"midpoint":4322,"card":4323,"une":4324,"grid":4325,",\\!":4326,"irds":4327,"Le":4328,"ples":4329,"brother":4330,"shakes":4331,"af":4332,"Ġfree":4333,"land":4334,"axispen":4335,"axisarrowsize":4336,"Ġ96":4337,"origin":4338,"Ġexponents":4339,"Ġpost":4340,"Ġsatisfying":4341,"Ġwriting":4342,"Ġren":4343,"Ġplayer":4344,"ĠTriangle":4345,"Ġweighs":4346,"mutation":4347,"Ġinequalities":4348,"Ġbas":4349,"Ġpot":4350,"Ġmother":4351,"Ġ144":4352,"ared":4353,"Ġcoeff":4354,"ken":4355,"Ġmatch":4356,"Ġsalary":4357,"Ġcompo":4358,"iden":4359,"order":4360,"Ġnecess":4361,"Ġfarm":4362,"Ġchild":4363,"ounces":4364,"cording":4365,"Ġprocess":4366,"delta":4367,"Ġexcept":4368,"Ġ46":4369,"Ġsolid":4370,"Ġmultiplication":4371,"ife":4372,"ĠJack":4373,"BA":4374,"uel":4375,"Ġswe":4376,"pply":4377,"No":4378,"Ġwins":4379,"Ġoo":4380,"Ġtre":4381,"herical":4382,"uppies":4383,"}-\\":4384,"pops":4385,"Ġpool":4386,"Ġrolled":4387,"Ġortho":4388,"Ġwa":4389,"ckl":4390,"Ġrepeated":4391,"imb":4392,"cover":4393,"Ġ\\|\\":4394,"org":4395,"Ġexponent":4396,"dict":4397,"ometers":4398,"cil":4399,"sk":4400,"arccos":4401,"taken":4402,"Ġknown":4403,"Ġexpen":4404,"ific":4405,"Ġorange":4406,"Ġrace":4407,"Abs":4408,"ĠHowever":4409,"ĠPaul":4410,"[(":4411,"sur":4412,"irl":4413,"Ġchance":4414,"correct":4415,"Ġapproxim":4416,"135":4417,"Ġparents":4418,"rc":4419,"Ġstack":4420,"Ġadults":4421,"keys":4422,"94":4423,"lly":4424,"tha":4425,"Ġbar":4426,"ĠGe":4427,"Ġcand":4428,"Poly":4429,"both":4430,"Ġcurve":4431,"Ġtemperature":4432,"Ġran":4433,"Ġhead":4434,"]$.":4435,"Ġtails":4436,"Ġcorner":4437,"ĠJul":4438,"Pro":4439,"Ġer":4440,"Ġself":4441,"Ġstarted":4442,"Ġroses":4443,"parabola":4444,"[:":4445,"approx":4446,"png":4447,"Ġraise":4448,"urrence":4449,"rice":4450,"chick":4451,"loyees":4452,"trees":4453,"Ġrounded":4454,"valid":4455,"Ġpprint":4456,"ew":4457,"âĢ¦]":4458,"required":4459,"yellow":4460,"Ġ44":4461,"acing":4462,"llipops":4463,"Ġseeds":4464,"lement":4465,"jective":4466,"rotate":4467,"rawberries":4468,"revenue":4469,"Ġreflection":4470,"Ġsnow":4471,"Ġendpoints":4472,"Ġ110":4473,"unce":4474,"}|":4475,"Ġshape":4476,"proj":4477,"Size":4478,"Ġenclo":4479,"written":4480,"words":4481,"tuesday":4482,"Ġends":4483,"ĠGCD":4484,"case":4485,"121":4486,"Ġpast":4487,"og":4488,"rd":4489,"Ġlead":4490,"Ġsugar":4491,"tw":4492,"Ġ85":4493,"ĠDE":4494,"enerate":4495,"Ġinde":4496,"triple":4497,"\\{":4498,"'))":4499,"Ġ125":4500,"Ġ84":4501,"Ġ160":4502,"Ġ$\\$$":4503,"enty":4504,"Simplifying":4505,"105":4506,"00000000000000000000000000000000":4507,"Ġextension":4508,"mbus":4509,"Ġcalculating":4510,"isa":4511,"Ġlat":4512,"James":4513,"Ġbuilt":4514,"lost":4515,"Ġcritical":4516,"etrahedron":4517,"},\\]":4518,"11111111":4519,"0000000000000":4520,"Ġmp":4521,"Ġmodule":4522,"ĠComp":4523,"solns":4524,"Ġinvers":4525,"Ġmagnitude":4526,"lopes":4527,"Ġgray":4528,"Ġfollowed":4529,"candies":4530,"}}\\":4531,"Ġbed":4532,"ited":4533,"Ġhar":4534,"cing":4535,"Ġdrinks":4536,"Ġcome":4537,"AT":4538,"Ġ88":4539,"Ġ92":4540,"Ġsemi":4541,"lets":4542,"Ġbuilding":4543,"ĠInitial":4544,"AF":4545,"Ġearns":4546,"Ġorders":4547,"2005":4548,"port":4549,"};":4550,"gor":4551,"corn":4552,"Ġregions":4553,"fru":4554,"ĠFactor":4555,"Ġ[...]":4556,"Ġsymmetry":4557,"free":4558,"ĠMat":4559,"Ġtables":4560,"Ġsandwiches":4561,"Ġnumerical":4562,"ĠDetermine":4563,"Ġsavings":4564,"ores":4565,",\\,\\,\\,\\":4566,"Ġstu":4567,"Ġdu":4568,"Ġfilled":4569,"Ġsoln":4570,"home":4571,"Ġplayed":4572,"Plugging":4573,"student":4574,"Ġkm":4575,"123":4576,"Ġrecipro":4577,"Add":4578,"Ġreads":4579,"}$\",(":4580,"Ġcenters":4581,"Ġride":4582,"vest":4583,"Ġfurther":4584,"333":4585,"Ġkilometers":4586,"bull":4587,"between":4588,"dget":4589,"Ġacos":4590,"ency":4591,"Ġoutside":4592,"Ġ[âĢ¦]":4593,"most":4594,"Ġsaved":4595,"Ġsucces":4596,"purch":4597,"gues":4598,"ran":4599,"\\}$.":4600,"Ġmeat":4601,"Ġ108":4602,"Ġages":4603,"dotsb":4604,"}}.\\]":4605,"Ġpainted":4606,"Ġcake":4607,"$'":4608,"arctan":4609,"Ġlab":4610,"Ġcomputing":4611,"Ġfence":4612,"Ġair":4613,"Ġ2008":4614,"problem":4615,"ati":4616,"EndArrow":4617,"Ġom":4618,"08":4619,"Ġrunning":4620,"Ġever":4621,"Ġyoun":4622,"----------------":4623,"diamonds":4624,"Ġdirectly":4625,"ascal":4626,"]));":4627,"00000000000000":4628,"Ġdots":4629,"collect":4630,"ĠAlice":4631,"Ġpalindromes":4632,"verti":4633,"Ġcomputed":4634,"join":4635,"$).":4636,"Ġ98":4637,"school":4638,"Ġpizzas":4639,"Ġchord":4640,"sure":4641,"friend":4642,"Ġwide":4643,"Ġaxes":4644,"trip":4645,"Ġcurrently":4646,"letter":4647,"OA":4648,"Ġitself":4649,"Ġtravels":4650,"Ġavailable":4651,"Ġexam":4652,"Ġsim":4653,"Ġacross":4654,"ades":4655,"Ġcharac":4656,"Ġsector":4657,"dri":4658,"Ġrequires":4659,"ideo":4660,"Ġenter":4661,"Ġhouses":4662,"Ġswim":4663,"otos":4664,"eb":4665,"tree":4666,"âĶĢâĶĢâĶĢâĶĢ":4667,"gallons":4668,"Ġsubtracting":4669,"Ġunknowns":4670,"Ġdict":4671,"ling":4672,"ĠPiecewise":4673,"4444":4674,"Ġ58":4675,"above":4676,"Ġpennies":4677,"Ġaltogether":4678,"Ġdaily":4679,"herry":4680,"cake":4681,"216":4682,"Ġgraphs":4683,"icense":4684,"upper":4685,"Ġrhombus":4686,"Ġinch":4687,"Ġarranged":4688,"divisible":4689,"multiples":4690,"))$":4691,"met":4692,"ograms":4693,"dic":4694,"Ġhighest":4695,"Ġcour":4696,"Ġformulas":4697,"Ġsrc":4698,"Ġmodular":4699,"Ġhundred":4700,"engers":4701,"Ġbirthday":4702,"Ġminim":4703,"dbinom":4704,"Ġmom":4705,"Ġ999":4706,"arrang":4707,"ops":4708,"}{|":4709,"Ġtold":4710,"Ġ\\[(":4711,"pizza":4712,"cles":4713,"Ġfrac":4714,"packs":4715,"version":4716,"men":4717,"128":4718,"Ġvar":4719,"ud":4720,"operatorname":4721,"]$":4722,"Ġsubsets":4723,"Ġpropor":4724,"arth":4725,"324":4726,")],":4727,"ĠExtract":4728,"shaded":4729,"complex":4730,"Ġwalked":4731,"CF":4732,"atches":4733,"radians":4734,"ittee":4735,"dotsm":4736,"var":4737,"Ġjump":4738,"Ġneighbor":4739,"Ġdaught":4740,"formula":4741,"Ġsun":4742,"board":4743,"Ġfactored":4744,"sym":4745,"achine":4746,"ipy":4747,"Ġrolling":4748,"Ġtoys":4749,"ipping":4750,"|,|":4751,"ĠWrite":4752,"|$.":4753,"Ġspherical":4754,"225":4755,"Ġtetrahedron":4756,"Three":4757,"Ġsq":4758,"270":4759,"Ġscale":4760,"Ġparameter":4761,"cur":4762,"Ġtrying":4763,"mi":4764,"Ġasked":4765,"apple":4766,"Ġasymptotes":4767,"rices":4768,"worked":4769,"Ġaltern":4770,"Ġtile":4771,"Ġbool":4772,"Ġpicking":4773,"Ġground":4774,"Ġeverything":4775,"Ġcaught":4776,"ĠDan":4777,"|=":4778,"Ġdinner":4779,"ident":4780,"Ġfather":4781,"ption":4782,"gorithm":4783,"Ġ2010":4784,"Ġcot":4785,"dx":4786,"Ġcongruence":4787,"aco":4788,"python":4789,"icy":4790,"RS":4791,"savings":4792,"istance":4793,"eturn":4794,"Ġmale":4795,"group":4796,"Ro":4797,"gets":4798,"dollars":4799,"111":4800,"Ġpet":4801,"pol":4802,"ysi":4803,"duces":4804,"displaystyle":4805,"Ġworked":4806,"shirt":4807,"team":4808,"800":4809,"df":4810,"Ġcomposite":4811,"diagon":4812,"Ġpurchase":4813,"dr":4814,"othes":4815,"zeta":4816,"Ġbeginning":4817,"Ġfavor":4818,"Ġring":4819,"2222":4820,"letters":4821,"input":4822,"Ġcounted":4823,"uples":4824,"})$.":4825,"Ġindex":4826,"ĠJane":4827,"1001":4828,"phere":4829,"bullet":4830,"isodes":4831,"Ġformat":4832,"Ġproduce":4833,"nuts":4834,"duration":4835,"Ġadds":4836,"ai":4837,"inst":4838,"}')":4839,"Ġhomework":4840,"Ġcupcakes":4841,"+=":4842,"aur":4843,"Ġfixed":4844,"candy":4845,"colates":4846,"Ġomega":4847,"Ġstop":4848,"ĠPolygon":4849,"ĠMin":4850,"pendent":4851,"usic":4852,"ending":4853,"Ġ140":4854,"Ġdrive":4855,"Ġpile":4856,"rian":4857,"ĠSarah":4858,"Ġremainders":4859,"yz":4860,"Ġcrayons":4861,"}_{":4862,"vertex":4863,"diamondsuit":4864,")..(-":4865,"Ġdate":4866,"kg":4867,"Ġsection":4868,"Ġlongest":4869,"ĠThursday":4870,"Ġchoice":4871,"ĠUn":4872,"Ġcharges":4873,"Ġtur":4874,"Ġgrow":4875,"Ġ..":4876,"eqs":4877,"berry":4878,"axes":4879,"balloons":4880,"ira":4881,"Ġlot":4882,"Ġ)":4883,"extra":4884,"([-":4885,"Ġpopulation":4886,"Ġ59":4887,"ĠSunday":4888,"Ġsemic":4889,"az":4890,"Ġconjugate":4891,"II":4892,"Ġevalu":4893,"7777":4894,"hing":4895,"avg":4896,"Ġsent":4897,"Ġportion":4898,"rs":4899,"tended":4900,"ox":4901,"Ġsleep":4902,"Ġreading":4903,"hspace":4904,"Ġtomatoes":4905,"Ġoffic":4906,"Ġbeads":4907,"}(\\":4908,"store":4909,"sumed":4910,"ĠSh":4911,"Ġbases":4912,"cr":4913,"choices":4914,"ament":4915,"Ġcolumns":4916,"Ġprod":4917,"ields":4918,"bert":4919,"perp":4920,"pprint":4921,"cream":4922,"Ġinterested":4923,"Ġphone":4924,"perfect":4925,"ming":4926,"lic":4927,"Ġtoday":4928,"rant":4929,"defined":4930,"tes":4931,"Ġshortest":4932,"Determine":4933,"Ġguests":4934,"bottle":4935,"players":4936,"lymp":4937,"pq":4938,"Ġwinning":4939,"Ġ->":4940,"parti":4941,"})(":4942,"ĠAssuming":4943,"Ġsimplifying":4944,"interval":4945,"inches":4946,"legs":4947,"Ġseason":4948,"table":4949,"Ġinstead":4950,"Ġcounting":4951,"\\\\\\":4952,"Ġhandshakes":4953,"Ġ['":4954,"buy":4955,"Ġpicks":4956,"Ġmx":4957,"Ġboard":4958,"chie":4959,"Expand":4960,"Ġlicense":4961,"substit":4962,"Ġago":4963,"Ġrequire":4964,"You":4965,"Ġbak":4966,"Ġ91":4967,"Ġcows":4968,"8888":4969,"ums":4970,"owels":4971,"Ġ($":4972,"190":4973,"PB":4974,"Ġcapacity":4975,"oras":4976,"ills":4977,"Ġlin":4978,"Ġlate":4979,"this":4980,"seq":4981,"Ġrespect":4982,"Ġrearrange":4983,"ĠSegment":4984,"Ġprompt":4985,"Ġbasketball":4986,"yaxis":4987,"ĠJim":4988,"ĠPoints":4989,"page":4990,"poons":4991,"tons":4992,"Ġtickdown":4993,"ĠFrom":4994,"ĠFinally":4995,"Ġtypes":4996,"Ġfeed":4997,"^(":4998,"series":4999,"CB":5000,")?":5001,"Ġpackages":5002,"males":5003,"away":5004,"domain":5005,"Ġscipy":5006,"brace":5007,"Ġextract":5008,"sandw":5009,"Ġpartial":5010,"indrical":5011,"Ġcorresponds":5012,"lor":5013,"ĠMul":5014,"}))":5015,"Ġdashed":5016,"trave":5017,"ĠTicksAr":5018,"Ġpermutation":5019,"sequence":5020,"](":5021,"game":5022,"Ġbirds":5023,"ĠEm":5024,"Ġ900":5025,"TicksArry":5026,"Ġ\\$":5027,"ived":5028,"ĠLLM":5029,"Ġoptim":5030,"ĠBut":5031,")}$":5032,"remo":5033,"quarters":5034,"rench":5035,"coins":5036,"xleft":5037,"Ġmovie":5038,"rational":5039,"\"{":5040,"fifth":5041,"milk":5042,"bus":5043,"Ġcarry":5044,"Ġproportional":5045,"palindrom":5046,"Ġrecor":5047,"Ġvery":5048,"Ġsand":5049,"Ġlinewidth":5050,"since":5051,"Ġcakes":5052,"expen":5053,"333333333333":5054,"Ġchickens":5055,"Ġ-(":5056,"fy":5057,"Ġxmin":5058,"date":5059,"Ġevenly":5060,"Ġjellybeans":5061,"(\"\\":5062,"Ġjuice":5063,"ules":5064,"meric":5065,"wednesday":5066,"ites":5067,"Ġkilograms":5068,"fee":5069,"sup":5070,"ABCDEF":5071,"Ġpresent":5072,"Ġ...,":5073,"Ġcomputation":5074,"900":5075,"Ġfee":5076,"Ġimage":5077,"ĠBe":5078,"call":5079,"Ġincome":5080,"Ġrepresenting":5081,"Ġrotate":5082,"Ġunderstand":5083,"Ġpurple":5084,"ret":5085,"ĠLCM":5086,"Ġappl":5087,"Ġpean":5088,"Ġ$-\\":5089,"\"),":5090,"Ġchicken":5091,"IN":5092,"chairs":5093,"acos":5094,"who":5095,"Ġbeans":5096,"projection":5097,"Ġradii":5098,"Ġ^":5099,"Ġ-=":5100,"Ġshorter":5101,"Ġclock":5102,"Ġ67":5103,"Ch":5104,"Ġrecurrence":5105,"Ġdisplay":5106,"parallel":5107,"ched":5108,"Ġintegral":5109,"whe":5110,"ĠBAC":5111,"Ġsetting":5112,"ĠHere":5113,"surface":5114,"Ġ800":5115,"tur":5116,"ĠCoord":5117,"ĠDraw":5118,"%.":5119,"ĠConst":5120,"Ġintern":5121,"ful":5122,"prompt":5123,"Ġwatch":5124,"cial":5125,"Ġthrow":5126,"uce":5127,"Ġadult":5128,"Ġparabol":5129,"ĠPer":5130,"Ġsongs":5131,"Ġtoss":5132,"Ġ2009":5133,"trans":5134,"Ġfit":5135,"Ġreduce":5136,"Ġfractional":5137,"chen":5138,"Ġcounter":5139,"px":5140,"Ġfilter":5141,"Ġnone":5142,"band":5143,")\\\\":5144,"ians":5145,"ckets":5146,"cont":5147,",\\\\":5148,"ED":5149,"Ġcustomers":5150,"Ġplaying":5151,"Ġcart":5152,"Ġ$.":5153,"sump":5154,"ĠPlot":5155,"Ġgift":5156,"pass":5157,"cel":5158,"ean":5159,"ĠMari":5160,"Ġcorn":5161,"}\\|^":5162,"questions":5163,"Ġflips":5164,"xaxis":5165,"plant":5166,"Ġpaths":5167,":.":5168,"tfrac":5169,"linear":5170,"options":5171,"Ġoctagon":5172,"Ġrepeat":5173,"Ġfactorize":5174,"Co":5175,"ucl":5176,"roid":5177,"enter":5178,"Ġsorted":5179,"cx":5180,"ĠLu":5181,"arr":5182,"ros":5183,"Ġgood":5184,"ĠNote":5185,"ison":5186,"Ġfly":5187,"OP":5188,"Ġlay":5189,"Left":5190,"Ġsubset":5191,"'.":5192,"Ġcalculation":5193,"Ġfruits":5194,"linspace":5195,"full":5196,"Ġcylindrical":5197,"Ġsquared":5198,"Ġmatrices":5199,"vies":5200,"Ġkg":5201,"Ġsays":5202,"payment":5203,"YZ":5204,"Ġlocal":5205,"plants":5206,"brown":5207,"Ġlogarithm":5208,"256":5209,"members":5210,"Line":5211,"Ġshel":5212,"Total":5213,"PC":5214,"got":5215,"break":5216,"Ġalgorithm":5217,"onent":5218,"(),":5219,"ifts":5220,"aper":5221,"Ġfinally":5222,"Ġatan":5223,"ricks":5224,"rece":5225,"Ġproportion":5226,"Ġfinds":5227,"ength":5228,"ĠNo":5229,"gan":5230,"Ġrope":5231,"uan":5232,"Ġyields":5233,"\"$":5234,"gx":5235,"Ġ``":5236,"Ġcookie":5237,"Ġreflected":5238,"orge":5239,"Ġsuits":5240,"Ġ[/":5241,"Ġhair":5242,"Ġparticip":5243,"Ġ87":5244,"bars":5245,"iss":5246,"ale":5247,"Ġwalking":5248,"Ġcalculator":5249,"iform":5250,"Ġsieve":5251,"ĠInitialize":5252,"Ġcovered":5253,"grade":5254,"terval":5255,"Ġsubstitution":5256,"Ġ128":5257,"urance":5258,"type":5259,")}.":5260,"02":5261,"Ġcontinu":5262,"lines":5263,"},\\":5264,"={":5265,"Ġarrangement":5266,"Ġtooth":5267,"Ġanal":5268,"Ġep":5269,"Ġgrams":5270,"teen":5271,"ishes":5272,"Ġ53":5273,"OD":5274,"Ġgrade":5275,"stri":5276,"Ġ95":5277,"))[":5278,"Ġrev":5279,"Ġlollipops":5280,"position":5281,"cats":5282,"];":5283,"lete":5284,"Ġmember":5285,"Ġpump":5286,"Ġnotice":5287,"Ġturns":5288,"bur":5289,"ĠMichael":5290,"ĠAmeric":5291,"unique":5292,"ĠReturn":5293,"Define":5294,"fits":5295,"ml":5296,"itially":5297,"present":5298,"terior":5299,"Ġam":5300,"Ġratios":5301,"Ġdefining":5302,")}{(":5303,"map":5304,"Ġmodulus":5305,"Ġincreases":5306,"rolls":5307,"outh":5308,"EC":5309,"<=":5310,"dice":5311,"data":5312,"Ġelim":5313,"check":5314,"ĠMultiply":5315,"fall":5316,"clubs":5317,"Ġvac":5318,"misphere":5319,"fast":5320,"monthly":5321,"Ġobserve":5322,"Ġmissing":5323,"ĠBen":5324,"Ġtrack":5325,"Ġ74":5326,"Ġdescri":5327,"ĠDiv":5328,"Diam":5329,"Ġexpanded":5330,"quotient":5331,"mentary":5332,"seconds":5333,"cluding":5334,"Ġspinner":5335,"Ġdetermined":5336,"ried":5337,"Ġdres":5338,"Ġsixth":5339,"temp":5340,"Ġstock":5341,"night":5342,"Ġlattice":5343,"ĠPQ":5344,"Ġfront":5345,"Ġcontainer":5346,"ysics":5347,"Ġ2005":5348,"Ġgirl":5349,"ished":5350,"Ġ73":5351,"Ġcombine":5352,"!}":5353,"|}":5354,"Ġcounts":5355,"Ġweekend":5356,"Ġtip":5357,"roll":5358,"ĠSuppose":5359,"Ġacute":5360,"iad":5361,"ĠAlso":5362,"cer":5363,"Ġtourn":5364,"tru":5365,"/\\":5366,"([(":5367,"dam":5368,"Ġsuit":5369,"142857142857":5370,"long":5371,"vided":5372,"Ġfall":5373,")}{\\":5374,"Multiply":5375,"Ġclear":5376,"csc":5377,"Ġstation":5378,"olumes":5379,"Ġlocated":5380,"Ġraised":5381,"ieta":5382,"Ġflip":5383,"angoes":5384,"ĠACB":5385,"Ġlibraries":5386,"666666666666":5387,"Ġboy":5388,"Ġcomputer":5389,"mn":5390,"lympiad":5391,"gonal":5392,"Ġtoy":5393,"rest":5394,"lored":5395,"Ġtells":5396,"Ġcommittee":5397,"outcomes":5398,"Ġrevenue":5399,"cubes":5400,"Ġ66":5401,"ĠPascal":5402,"Ġ4000":5403,"Ġappear":5404,"ped":5405,"Ġprac":5406,"discriminant":5407,"ousand":5408,"arranging":5409,"cript":5410,"ential":5411,"lay":5412,"interest":5413,"Ġcomes":5414,"picked":5415,"divid":5416,"Ġselecting":5417,"Ġ{}":5418,"sell":5419,"push":5420,"angled":5421,"Ġoccurs":5422,"Ġ?":5423,"Ġkn":5424,"askets":5425,"Ġ89":5426,"Ġsil":5427,"Diamond":5428,"pan":5429,"Ġswit":5430,"ĠExpand":5431,"Ġoccur":5432,"glass":5433,"Ġ105":5434,"Ġwind":5435,"Ġinclude":5436,"Ġ135":5437,"Ġbest":5438,"ĠEng":5439,"etype":5440,"dollar":5441,"Case":5442,"noon":5443,"All":5444,"sod":5445,"cartesian":5446,"Ġbike":5447,"ĠJoe":5448,"rin":5449,"arange":5450,"Ġflat":5451,"ĠAndrew":5452,"shoes":5453,"Ġremain":5454,"Ġpencil":5455,"Ġindependent":5456,"ĠMrs":5457,"}$\",":5458,"ustin":5459,"ii":5460,"cq":5461,"rick":5462,"rem":5463,"Ġtransform":5464,"Ġlang":5465,"Ġprovided":5466,"ĠTim":5467,"trig":5468,"Ġdoub":5469,"ete":5470,"ĭħ":5471,"Ġcatch":5472,"sition":5473,"xz":5474,"Ġ62":5475,"uclide":5476,"Ġir":5477,"Ġexce":5478,"82":5479,"uclidean":5480,"1200":5481,"Ġintersections":5482,"factorint":5483,"Ġvisit":5484,"ura":5485,"wards":5486,"########":5487,"Ġrestri":5488,"intercepts":5489,"pens":5490,"Ġmeals":5491,"Ġinner":5492,"hat":5493,"Ġ('":5494,"getables":5495,"van":5496,"rev":5497,"Ġtournament":5498,"Ġargum":5499,"Ġstrawberries":5500,"Ġ61":5501,"Ġclasses":5502,"Ġemployees":5503,"Ġrid":5504,"Ġequate":5505,"Ġbring":5506,"uffins":5507,"derivative":5508,"sister":5509,"Ġ130":5510,"Ġimplement":5511,"chocolate":5512,"Ġmatter":5513,"450":5514,"Ġtruck":5515,"{(-":5516,"vertible":5517,"Ġdelta":5518,"Ġlawn":5519,"Ġ78":5520,"olo":5521,"Ġsatisfied":5522,"Ġsaid":5523,"Ġmachine":5524,"ĠPythagoras":5525,"olf":5526,"ilies":5527,"pTick":5528,"Ġgum":5529,"aurant":5530,"Ġocta":5531,"Ġolympiad":5532,"Ġhundredth":5533,"ĠForm":5534,"112":5535,"Ġtrips":5536,"Ġindivid":5537,"Ġvolumes":5538,"ila":5539,"}^{\\":5540,"AX":5541,"summ":5542,"Ġmoves":5543,"Ġtransl":5544,"Ġdoing":5545,"cheese":5546,"Ġmultiplic":5547,"bold":5548,"daily":5549,"Ac":5550,"Ġfast":5551,"Ġminor":5552,"Ġrelationship":5553,"load":5554,"ĠHeron":5555,"collected":5556,"Ġyard":5557,"Ġmusic":5558,"115":5559,"Ġreplacement":5560,"constraints":5561,"ring":5562,"custom":5563,"Calculate":5564,"Ġclimb":5565,"Ġzip":5566,"133":5567,"159":5568,"Ġinversely":5569,"Ġ1001":5570,"Ġfavorite":5571,"lle":5572,"))--(":5573,"2014":5574,"Ġbik":5575,"}),":5576,"asure":5577,"icit":5578,"Ġexterior":5579,"Ġscal":5580,"Ġvideo":5581,"Ġreceives":5582,"Ġbit":5583,"istory":5584,"sters":5585,"\"]":5586,"Ġste":5587,"Ġhit":5588,"That":5589,"Ġassuming":5590,"Ġcuts":5591,"Convert":5592,"wall":5593,"orange":5594,"320":5595,"sig":5596,"addition":5597,"ugs":5598,"Ġgiving":5599,"traveled":5600,"short":5601,"yard":5602,"}:":5603,"abric":5604,"ille":5605,"gallon":5606,"hor":5607,"bt":5608,"hypotenuse":5609,"Ġlabels":5610,"Ġstudy":5611,"ppers":5612,"Jo":5613,"Ġ77":5614,"ĠSympy":5615,"Ġroad":5616,"bow":5617,"ĠEnglish":5618,"Ġft":5619,"Ġdough":5620,"Big":5621,"Ġbrought":5622,"))]":5623,"ĠDistance":5624,"ĠList":5625,"PT":5626,"Ġorthogonal":5627,"Ġfig":5628,"ww":5629,"acob":5630,"Ġtarget":5631,"Ġtoo":5632,"ald":5633,"Ġentries":5634,"GH":5635,")-(":5636,"Ġmarks":5637,"Ġ1200":5638,"spades":5639,"sn":5640,"lift":5641,"tition":5642,"rounded":5643,"Ġenclosed":5644,"Ġmeal":5645,"Ġundefined":5646,"ĠLaw":5647,"Ġcontrib":5648,"received":5649,"limits":5650,"]],":5651,"))^":5652,"aro":5653,"Ġ225":5654,"Ġsticks":5655,"Ġplays":5656,"Ġseparately":5657,"roses":5658,"ĠEvery":5659,"Ġstay":5660,"Ġidentities":5661,"allow":5662,"Ġcalculates":5663,"esterday":5664,"test":5665,"Ġsaw":5666,"zeros":5667,"Ġperm":5668,"Ġey":5669,"Ġ=\",":5670,"Ġrooms":5671,"Ġparking":5672,"Step":5673,"head":5674,"Ġplanes":5675,"lap":5676,"acci":5677,"sumption":5678,"Ġreduced":5679,"Ġrewritten":5680,"Ð¾":5681,"cut":5682,"Ġresid":5683,"ĠGenerate":5684,"basket":5685,"vol":5686,"lengths":5687,"Ġleading":5688,"{-\\":5689,"Ġcontest":5690,"Ġparabolas":5691,"Ġgu":5692,"Ġyounger":5693,"Ġseat":5694,"izing":5695,"rectangle":5696,"Ġprimefactors":5697,"700":5698,"Ġeasy":5699,"Ġneckl":5700,"cience":5701,"Ġxmax":5702,"71":5703,"clubsuit":5704,"{}":5705,"note":5706,"âĭħ":5707,"Ġconversion":5708,"Ġmonic":5709,"ĠJune":5710,"Ġdistinguishable":5711,"Ġequality":5712,"Ġowns":5713,"Ġextern":5714,"coefficient":5715,"Ġcx":5716,"Of":5717,"BCD":5718,"stamps":5719,"rie":5720,"animals":5721,"edi":5722,"Ġachie":5723,"Ġdenotes":5724,"Ġrent":5725,"ĠThat":5726,"onents":5727,"init":5728,"latex":5729,"swe":5730,"ĠĠĠĠĠĠĠĠĠĠĠĠĠĠĠĠĠĠĠĠĠĠĠ":5731,"Ġwid":5732,"acy":5733,"blocks":5734,"Ġrabb":5735,"itchen":5736,"pants":5737,"ĠVieta":5738,"seeds":5739,"Ġworkers":5740,"die":5741,"Be":5742,"ĠRa":5743,"partial":5744,"Ġpainting":5745,"Ġmaxim":5746,"Ġnecessary":5747,"ato":5748,"Ð°":5749,"Ġleave":5750,"Ġlater":5751,"Ġchocolates":5752,");}":5753,"ĠAngle":5754,"ern":5755,"3000":5756,"Ġmatches":5757,"Ġlooks":5758,"Ġmathematics":5759,"ushrooms":5760,"stack":5761,"choice":5762,"ĠDis":5763,"pot":5764,"Ġrespon":5765,"04":5766,"Ġfol":5767,"}_{\\":5768,"ĠĠĠĠĠĠĠĠĠ":5769,"kens":5770,"Ġinvertible":5771,"Ġhemisphere":5772,"Ġphi":5773,"Ġymax":5774,"ĠJerry":5775,"Ġ83":5776,"Ġflower":5777,"BB":5778,"Ġmedium":5779,"Ġdeal":5780,"flour":5781,"ĠNew":5782,"Comp":5783,"DA":5784,"ĠPeter":5785,"Ġmeeting":5786,"ĠSubstituting":5787,"Ġapartment":5788,"Ġattend":5789,"substituted":5790,"ically":5791,"friday":5792,"Ġquantity":5793,"inators":5794,"los":5795,"Factor":5796,"Ġclothes":5797,"Ġstatements":5798,"cals":5799,"like":5800,"angent":5801,"float":5802,"Ġappears":5803,"Ġdad":5804,"Ġ3000":5805,"phone":5806,"Ġwra":5807,"ĠWhich":5808,"picture":5809,"segment":5810,"Ġdistribution":5811,"weekly":5812,"Ġsandwich":5813,")$:":5814,"Ġdue":5815,"seats":5816,"Ġendpoint":5817,"ĠĠĠĠĠĠĠĠĠĠĠĠ":5818,"Sys":5819,"Ġmill":5820,"ulate":5821,"ness":5822,"ccer":5823,"usan":5824,"stickers":5825,"Ġcherry":5826,"ĠâĢ¦":5827,"Ġmajor":5828,"Ġconnecting":5829,"quantity":5830,"720":5831,"sc":5832,"ĠCE":5833,"Ġeveryone":5834,"))--":5835,"anie":5836,"emy":5837,"wik":5838,"BF":5839,"____":5840,"aged":5841,"ĠApply":5842,"Ġ2006":5843,"Ġfen":5844,"Ġcool":5845,"Equ":5846,"ham":5847,"women":5848,"Ġfarmer":5849,"elve":5850,"blings":5851,"ĠEF":5852,"fam":5853,"ABD":5854,"Ġannual":5855,"covered":5856,"2018":5857,"coffee":5858,"quarter":5859,"Ġsilver":5860,"median":5861,"-.":5862,"gg":5863,"fruits":5864,"eight":5865,"Ġparamet":5866,"Ġmow":5867,"ellipse":5868,"arlie":5869,"find":5870,"Ġforce":5871,"sim":5872,"rowed":5873,"underline":5874,"cupcakes":5875,"Ġhappens":5876,"Ġbaseball":5877,"ĠSimilarly":5878,"mx":5879,"guests":5880,"Ġ57":5881,"birds":5882,"Tom":5883,"Ġsymmetric":5884,"isible":5885,"ĠOf":5886,"Ġstreet":5887,"%$":5888,"Ġstyle":5889,"Ġdonuts":5890,"Ġsuppl":5891,"ĠABD":5892,"Ġcopy":5893,"sam":5894,"Ġyield":5895,"ĠPow":5896,"child":5897,"clock":5898,"igs":5899,"dients":5900,"ĠMo":5901,"Ġcame":5902,"ĠLength":5903,"charg":5904,"sale":5905,"amples":5906,"Ġbrace":5907,"Ġexpenses":5908,"ology":5909,")$$":5910,"Ġidentify":5911,"Ġbalance":5912,"Ġ2003":5913,"vels":5914,")\",":5915,"nthe":5916,"ĠPh":5917,"ĠBilly":5918,"ene":5919,"Ġharvest":5920,"Bill":5921,"sugar":5922,"izes":5923,"tank":5924,"Ġbin":5925,"idx":5926,"Ġcharge":5927,"cook":5928,"Ġbake":5929,"Ġunion":5930,"Ġhats":5931,"uppy":5932,"Ġattended":5933,"æ¢¦æ¢¦æ¢¦æ¢¦æ¢¦æ¢¦æ¢¦æ¢¦æ¢¦æ¢¦æ¢¦æ¢¦æ¢¦æ¢¦æ¢¦æ¢¦æ¢¦æ¢¦æ¢¦æ¢¦æ¢¦æ¢¦æ¢¦æ¢¦æ¢¦æ¢¦æ¢¦æ¢¦æ¢¦æ¢¦æ¢¦æ¢¦æ¢¦æ¢¦æ¢¦æ¢¦æ¢¦æ¢¦æ¢¦æ¢¦æ¢¦æ¢¦æ¢¦æ¢¦æ¢¦æ¢¦æ¢¦æ¢¦æ¢¦æ¢¦æ¢¦æ¢¦æ¢¦æ¢¦æ¢¦æ¢¦æ¢¦æ¢¦æ¢¦æ¢¦æ¢¦æ¢¦æ¢¦æ¢¦æ¢¦æ¢¦æ¢¦æ¢¦æ¢¦æ¢¦æ¢¦æ¢¦æ¢¦æ¢¦æ¢¦æ¢¦æ¢¦æ¢¦æ¢¦æ¢¦æ¢¦æ¢¦æ¢¦æ¢¦æ¢¦æ¢¦æ¢¦æ¢¦æ¢¦æ¢¦æ¢¦æ¢¦æ¢¦æ¢¦æ¢¦æ¢¦æ¢¦æ¢¦æ¢¦æ¢¦æ¢¦æ¢¦æ¢¦æ¢¦æ¢¦æ¢¦æ¢¦æ¢¦æ¢¦æ¢¦æ¢¦æ¢¦æ¢¦æ¢¦æ¢¦æ¢¦æ¢¦æ¢¦æ¢¦æ¢¦æ¢¦æ¢¦æ¢¦æ¢¦æ¢¦æ¢¦æ¢¦æ¢¦æ¢¦æ¢¦æ¢¦æ¢¦æ¢¦æ¢¦æ¢¦æ¢¦æ¢¦æ¢¦æ¢¦æ¢¦æ¢¦æ¢¦æ¢¦æ¢¦æ¢¦æ¢¦æ¢¦æ¢¦æ¢¦æ¢¦æ¢¦æ¢¦æ¢¦æ¢¦æ¢¦æ¢¦æ¢¦æ¢¦æ¢¦æ¢¦æ¢¦æ¢¦æ¢¦æ¢¦æ¢¦æ¢¦æ¢¦æ¢¦æ¢¦æ¢¦æ¢¦æ¢¦æ¢¦æ¢¦æ¢¦æ¢¦æ¢¦æ¢¦æ¢¦æ¢¦æ¢¦æ¢¦æ¢¦æ¢¦æ¢¦æ¢¦æ¢¦æ¢¦æ¢¦æ¢¦æ¢¦æ¢¦æ¢¦æ¢¦æ¢¦æ¢¦æ¢¦æ¢¦æ¢¦æ¢¦æ¢¦æ¢¦æ¢¦æ¢¦æ¢¦æ¢¦æ¢¦æ¢¦æ¢¦æ¢¦æ¢¦æ¢¦æ¢¦æ¢¦æ¢¦æ¢¦æ¢¦æ¢¦æ¢¦æ¢¦æ¢¦æ¢¦æ¢¦æ¢¦æ¢¦æ¢¦æ¢¦æ¢¦æ¢¦æ¢¦æ¢¦æ¢¦æ¢¦æ¢¦æ¢¦æ¢¦æ¢¦æ¢¦æ¢¦æ¢¦æ¢¦æ¢¦æ¢¦æ¢¦æ¢¦æ¢¦æ¢¦æ¢¦æ¢¦æ¢¦æ¢¦æ¢¦æ¢¦æ¢¦æ¢¦æ¢¦æ¢¦æ¢¦æ¢¦æ¢¦æ¢¦æ¢¦æ¢¦æ¢¦æ¢¦æ¢¦æ¢¦æ¢¦æ¢¦æ¢¦æ¢¦æ¢¦æ¢¦æ¢¦æ¢¦æ¢¦æ¢¦æ¢¦æ¢¦æ¢¦æ¢¦æ¢¦æ¢¦æ¢¦æ¢¦æ¢¦æ¢¦æ¢¦æ¢¦æ¢¦æ¢¦æ¢¦æ¢¦æ¢¦æ¢¦æ¢¦æ¢¦æ¢¦æ¢¦æ¢¦æ¢¦æ¢¦æ¢¦æ¢¦æ¢¦æ¢¦æ¢¦æ¢¦æ¢¦æ¢¦æ¢¦æ¢¦æ¢¦æ¢¦æ¢¦æ¢¦æ¢¦æ¢¦æ¢¦æ¢¦æ¢¦æ¢¦æ¢¦æ¢¦æ¢¦æ¢¦æ¢¦æ¢¦æ¢¦æ¢¦æ¢¦æ¢¦æ¢¦æ¢¦æ¢¦æ¢¦æ¢¦æ¢¦æ¢¦æ¢¦æ¢¦æ¢¦æ¢¦æ¢¦æ¢¦æ¢¦æ¢¦æ¢¦æ¢¦æ¢¦æ¢¦æ¢¦æ¢¦æ¢¦æ¢¦æ¢¦æ¢¦æ¢¦æ¢¦æ¢¦æ¢¦æ¢¦æ¢¦æ¢¦æ¢¦æ¢¦æ¢¦æ¢¦æ¢¦æ¢¦æ¢¦æ¢¦æ¢¦æ¢¦æ¢¦æ¢¦æ¢¦æ¢¦æ¢¦æ¢¦æ¢¦æ¢¦æ¢¦æ¢¦æ¢¦æ¢¦æ¢¦æ¢¦æ¢¦æ¢¦æ¢¦æ¢¦æ¢¦æ¢¦æ¢¦æ¢¦æ¢¦æ¢¦æ¢¦æ¢¦æ¢¦æ¢¦æ¢¦æ¢¦æ¢¦æ¢¦æ¢¦æ¢¦æ¢¦æ¢¦æ¢¦æ¢¦æ¢¦æ¢¦æ¢¦æ¢¦æ¢¦æ¢¦æ¢¦æ¢¦æ¢¦æ¢¦æ¢¦æ¢¦æ¢¦æ¢¦æ¢¦æ¢¦æ¢¦æ¢¦æ¢¦æ¢¦æ¢¦æ¢¦æ¢¦æ¢¦æ¢¦æ¢¦æ¢¦æ¢¦æ¢¦æ¢¦æ¢¦æ¢¦æ¢¦æ¢¦æ¢¦æ¢¦æ¢¦æ¢¦æ¢¦æ¢¦æ¢¦æ¢¦æ¢¦æ¢¦æ¢¦æ¢¦æ¢¦æ¢¦æ¢¦æ¢¦æ¢¦æ¢¦æ¢¦æ¢¦æ¢¦æ¢¦æ¢¦æ¢¦æ¢¦æ¢¦æ¢¦æ¢¦æ¢¦æ¢¦æ¢¦æ¢¦æ¢¦æ¢¦æ¢¦æ¢¦æ¢¦æ¢¦æ¢¦æ¢¦æ¢¦æ¢¦æ¢¦æ¢¦æ¢¦æ¢¦æ¢¦æ¢¦æ¢¦æ¢¦æ¢¦æ¢¦æ¢¦æ¢¦æ¢¦æ¢¦æ¢¦æ¢¦æ¢¦æ¢¦æ¢¦æ¢¦æ¢¦æ¢¦æ¢¦æ¢¦":5934,"Ġplans":5935,"ĠCoordSys":5936,"least":5937,"\\,$":5938,"equal":5939,"Ġcity":5940,"olyn":5941,"Ġtran":5942,"Ġouter":5943,"beads":5944,"Ġmathematical":5945,"steps":5946,"cum":5947,"yan":5948,"butter":5949,"diagonal":5950,"Ġchooses":5951,"Ġeqn":5952,"ination":5953,"Ġbath":5954,"mother":5955,"powers":5956,"Ġmarket":5957,"CP":5958,"Div":5959,"Ġymin":5960,"triangles":5961,"Sub":5962,"piece":5963,"Ġpu":5964,"kids":5965,"/*":5966,"mbox":5967,"Set":5968,"Ġcolored":5969,"ience":5970,"---":5971,"375":5972,"Ġobjects":5973,"**(-":5974,"Ax":5975,"Ġrestaurant":5976,"Ġhappen":5977,"Ġcandid":5978,"egan":5979,"Ġbrownies":5980,"pizzas":5981,"Ġwheels":5982,"Multiplying":5983,"Ġthrows":5984,"_{\\":5985,"Ġeyes":5986,"aron":5987,"then":5988,"ĠLHS":5989,"ĠABCD":5990,"ground":5991,"factored":5992,"ickel":5993,"ustum":5994,"spadesuit":5995,"resh":5996,"iness":5997,"AR":5998,"2727":5999,"Ang":6000,"dozen":6001,"solved":6002,"caught":6003,"Ġorgan":6004,"Ð½":6005,"Ġdrives":6006,"ka":6007,"Ġlemonade":6008,"phab":6009,"reflect":6010,"Ġthousand":6011,"'(":6012,"Ġpan":6013,"Ġdolls":6014,"Mr":6015,"rent":6016,"paren":6017,"Ġplanted":6018,"243":6019,"Ġsong":6020,"Ġputs":6021,"Ġrecipe":6022,"ĠMath":6023,"Ġtro":6024,"mist":6025,"Ġactual":6026,"Ġeast":6027,"ĠLo":6028,"Ġtranslate":6029,"Ġhole":6030,"DF":6031,"vey":6032,"|.$":6033,"onacci":6034,"Ġofficers":6035,"Ġsamp":6036,"medium":6037,"Ġconsidered":6038,"iction":6039,"Ġtriples":6040,"stick":6041,"Ġconson":6042,"imits":6043,"Ġindic":6044,"aneous":6045,"ibonacci":6046,"picks":6047,"Ġdirectrix":6048,"Ġslice":6049,"Four":6050,"Ġslopes":6051,"sums":6052,"ĈĈ":6053,"ĠCartesian":6054,"uns":6055,"Car":6056,"crayons":6057,"ĠSchool":6058,"Ġproduces":6059,"2001":6060,"Ġgy":6061,"Ġexper":6062,"eled":6063,"2002":6064,"instance":6065,"Ġdifferences":6066,"ĠRHS":6067,"Ġ2001":6068,"03":6069,"gest":6070,"tains":6071,"socks":6072,"Ġarrives":6073,"Ġfemales":6074,"adults":6075,"Ġspecial":6076,"hood":6077,"textnormal":6078,"kx":6079,"ica":6080,"Ġtuple":6081,",\"":6082,"}).":6083,"Ġextended":6084,"Ġmode":6085,"Ġshowing":6086,"AH":6087,"Ġverify":6088,"ereal":6089,"ĠChrist":6090,"etty":6091,"ruction":6092,"Ġeating":6093,"Ġuniform":6094,"Ġsearch":6095,"oni":6096,"magnitude":6097,"Ġshells":6098,"repe":6099,"plates":6100,"ĠAx":6101,"ster":6102,"seven":6103,"168":6104,"ulbs":6105,"Mark":6106,"><":6107,"}{-":6108,"bob":6109,"Ġheights":6110,"bread":6111,"AO":6112,"cows":6113,"ana":6114,"scores":6115,"Ġasking":6116,"Ġfire":6117,"ĠĠčĊ":6118,"egrid":6119,"Ġsections":6120,"))$.":6121,"Ġxright":6122,"tc":6123,"Ġsheets":6124,"onus":6125,"Ġlevel":6126,"Ġburn":6127,"Ġprov":6128,"ĠKe":6129,"igen":6130,"Ġobjective":6131,"xstep":6132,"Ġxleft":6133,"tickdown":6134,"ilit":6135,"atched":6136,"invisible":6137,"Ġcentroid":6138,"ystep":6139,"Ġsemicircle":6140,"Ġpassengers":6141,"ĠTicksArrx":6142,"ago":6143,"tt":6144,"orses":6145,"220":6146,"Ġnsolve":6147,"Ġphotos":6148,"Ġservings":6149,"pper":6150,"member":6151,"Ġlearn":6152,"inf":6153,"Ġ97":6154,"Ġspecific":6155,"Ġcomputes":6156,"phant":6157,"tuse":6158,"ĠMike":6159,"inese":6160,"figure":6161,"With":6162,"Ġkinds":6163,"Ġplotted":6164,"TicksArrx":6165,"bility":6166,"Ġisland":6167,"otice":6168,"oon":6169,"usion":6170,"itting":6171,");//":6172,"epper":6173,"daught":6174,"hic":6175,");//,":6176,"Ġcash":6177,"combined":6178,"Ġweekly":6179,"random":6180,"option":6181,"Ġlabeled":6182,"ods":6183,"elow":6184,"Ġprom":6185,"\\;":6186,"Ġclosed":6187,"heads":6188,"orth":6189,"Ġbuttons":6190,"achel":6191,"ĠBP":6192,"au":6193,"ĠJenny":6194,"Ġtask":6195,"ticklength":6196,"Ġcompare":6197,"xequals":6198,"yequals":6199,"According":6200,"Ġoperations":6201,"bills":6202,"Ġdenominators":6203,")^{-":6204,"ĠDef":6205,"Ġwrong":6206,"Ġetc":6207,"Ġfac":6208,"Ġbudget":6209,"clean":6210,"ember":6211,"350":6212,"Ġdecreasing":6213,"ae":6214,"ĠPQR":6215,"ĠPat":6216,"tives":6217,"Ġinvestment":6218,"sticks":6219,"Ġpayment":6220,"Ġlikely":6221,"uck":6222,"meat":6223,"essi":6224,"Ġpepper":6225,"thursday":6226,"answers":6227,"[\"":6228,"Ġdriving":6229,"anged":6230,"Ġ112":6231,"Ġlatex":6232,"ĠTake":6233,"Ġoutcome":6234,"Ġyz":6235,"Ġbasic":6236,"chicken":6237,"Ġinterp":6238,"Ġlittle":6239,"Ġdaughters":6240,"Ġ76":6241,"Ġlock":6242,"ÑĤ":6243,"))/(":6244,"Ġpints":6245,"Ġpeanut":6246,"ircles":6247,"gold":6248,"eria":6249,"280":6250,"added":6251,"saturday":6252,"Ġhard":6253,"Ġeasier":6254,"Ġvisual":6255,"sal":6256,"ĠRound":6257,"Bob":6258,"2015":6259,"consumed":6260,"balance":6261,"âİ":6262,"Ġteachers":6263,"cone":6264,"nab":6265,"Ġburger":6266,"inear":6267,"ĠCl":6268,"Ġglasses":6269,"$.)":6270,"ommon":6271,"Ġcontainers":6272,"ucumber":6273,"Ġotherwise":6274,"`.":6275,"eps":6276,"Answer":6277,"Ġaver":6278,"Ġfrogs":6279,"Ġ256":6280,"asks":6281,"omes":6282,"ĠDecimal":6283,"liters":6284,"palindrome":6285,"Ġtrigsimp":6286,":-":6287,"alue":6288,"Ġnums":6289,"Ġvisible":6290,"uage":6291,"Ġpets":6292,"Ġoctahedron":6293,"ittens":6294,"Ġevents":6295,"Ġresidue":6296,"Ġvia":6297,"Ġtrigonometry":6298,"tables":6299,"Ġcomplet":6300,"ĠÐ":6301,"ĠHalf":6302,")--(.":6303,"bit":6304,"ĠPR":6305,"ĠBrian":6306,"Ġdoubles":6307,"ntheory":6308,"high":6309,"Ġaut":6310,"Ġcare":6311,"252":6312,")|":6313,"ounce":6314,"wash":6315,"Ġintervals":6316,"ession":6317,"Ġcompletely":6318,"annah":6319,"ĠBE":6320,"frame":6321,"Ġbucket":6322,"Ġapproximately":6323,"john":6324,"additional":6325,"ĠAm":6326,"Ġide":6327,"Ġapplying":6328,"AI":6329,"Ġfencing":6330,"Ġsines":6331,"Ġ\\#":6332,"Ġcrates":6333,"Ġgrapes":6334,"Ġpink":6335,"Ġrules":6336,"expected":6337,"Ġbounded":6338,"Ġart":6339,"sols":6340,"zes":6341,"travel":6342,"Ġ450":6343,"Ġoperator":6344,"Ġtown":6345,"ba":6346,"Ġ|\\":6347,"Ġinitially":6348,"Ġbird":6349,"ordan":6350,"These":6351,"((.":6352,"merange":6353,"ĠJason":6354,"nabla":6355,"arrangements":6356,"Arc":6357,"Ġherself":6358,"erial":6359,"ĠDisplay":6360,"toys":6361,"Ġ5000":6362,"mails":6363,"Ġmanip":6364,"Based":6365,"wheels":6366,"uqu":6367,"Give":6368,"uits":6369,"Row":6370,"ĠEmily":6371,"ĠBren":6372,"traction":6373,"Ġborn":6374,"tile":6375,"Ġindividual":6376,"Ġallowed":6377,"Squ":6378,"Ġlose":6379,"sport":6380,"Ġ($\\":6381,"ĠInt":6382,"sphere":6383,"father":6384,"Ġobtuse":6385,"ĠYou":6386,"Ġcra":6387,"textrm":6388,"ibility":6389,"Ġ111":6390,"ela":6391,"288":6392,"Ġpotatoes":6393,"$\\%$":6394,"Ġdescribed":6395,"packages":6396,"Ġflags":6397,"Ġanaly":6398,"^{(":6399,"Ġchords":6400,"tails":6401,"ĠDefining":6402,"ĠSub":6403,"Ġphysics":6404,"Im":6405,"Ġexer":6406,"dimes":6407,"Ð²":6408,"ĠEuclidean":6409,"undant":6410,"bananas":6411,"ĠAmerican":6412,"ON":6413,"Ġreference":6414,"Ġinvested":6415,"Ġingre":6416,"amer":6417,"Ġtrail":6418,"Ġrepl":6419,"Ġegg":6420,"Ġchecking":6421,"Ġstars":6422,"ĠEquations":6423,"00000":6424,"Ġamounts":6425,"move":6426,"Ġgoats":6427,"purchased":6428,"ossible":6429,"2050":6430,"Ġcharacter":6431,"Ġcancel":6432,"Ġcarrots":6433,"ultaneous":6434,"bbon":6435,"uler":6436,"Ġvari":6437,"flies":6438,"wide":6439,"cyl":6440,"ĠKim":6441,"464":6442,"ĠTony":6443,"distinct":6444,"Ġoil":6445,"female":6446,"Ġswimming":6447,"Ġreciprocal":6448,"Ġepisodes":6449,"hearts":6450,"}}.$":6451,"))$?":6452,"share":6453,"lunch":6454,"inger":6455,"Ġwood":6456,"Ġvegetables":6457,"Ġintegrate":6458,"Ġreaches":6459,"Ġstripes":6460,"Ġtom":6461,"Ġdecide":6462,"andra":6463,"glasses":6464,"Ġden":6465,"dan":6466,"Ġplate":6467,"Ġ*/":6468,"Ġincenter":6469,"ĠLisa":6470,"Ġwheel":6471,"Ge":6472,"153":6473,"165":6474,"........":6475,"Ġwidgets":6476,"Ġchip":6477,"upon":6478,"sandwiches":6479,"Ġdoubled":6480,"melon":6481,"Ġmales":6482,"deliv":6483,"loss":6484,"tty":6485,"Fraction":6486,"ancy":6487,"Ġknows":6488,"666":6489,"jack":6490,"Ġalphab":6491,"136":6492,"999999999999":6493,"Ġsurvey":6494,"Ġdan":6495,"tip":6496,"oman":6497,"cubic":6498,"Ġspots":6499,"sleep":6500,"soda":6501,"Ġsimultaneous":6502,"tically":6503,"Ġes":6504,"Ġjoining":6505,"Ġhigher":6506,"Ġprices":6507,"Ġ[[":6508,"ĠAndy":6509,"paper":6510,"Ġparameterized":6511,"729":6512,"Ġ121":6513,"]).":6514,"Ġmail":6515,"lemon":6516,"bin":6517,"Ġbigger":6518,"CC":6519,"akers":6520,"Ġoriginally":6521,"filled":6522,"Ġdep":6523,"ĠMatt":6524,"Ġbreakfast":6525,"{,":6526,"anu":6527,"Ġholes":6528,"nis":6529,"cart":6530,"Ġcorrectly":6531,"Ġprin":6532,"build":6533,"Ġbat":6534,"ĠJanet":6535,"Ġcycle":6536,"rays":6537,"zed":6538,"Ġensure":6539,"adult":6540,"cip":6541,"population":6542,"ĠThree":6543,"Ġeng":6544,"same":6545,"una":6546,",\\,\\,\\,\\,\\,\\":6547,"when":6548,"won":6549,"intersect":6550,"vice":6551,"Ġmarkers":6552,"Ġwash":6553,"block":6554,"idents":6555,"loc":6556,"Ġnorth":6557,"undry":6558,"util":6559,"Probability":6560,"istant":6561,"Ġoffice":6562,"jump":6563,"Mary":6564,"visit":6565,")(\\":6566,"Ġloss":6567,"Ġllm":6568,"Ġcustomer":6569,"double":6570,"ems":6571,"192":6572,"ĠSpe":6573,"har":6574,"ĠDi":6575,"Ġprize":6576,"ountain":6577,"Ġshots":6578,"Ġfund":6579,"anana":6580,"Notice":6581,"dro":6582,")}.\\]":6583,"acteria":6584,"inating":6585,"ĠĠĠĠĠĠĠĠĠĠĠĠĠ":6586,"Ġtwenty":6587,"}^{-":6588,"houses":6589,"Ġleftover":6590,"ĠSteve":6591,"lt":6592,"Ġmovies":6593,"avier":6594,"Ġreciprocals":6595,"uture":6596,"tomatoes":6597,"Ġants":6598,"Ġsever":6599,"wa":6600,"Ġ123":6601,"Ġscript":6602,"),-":6603,"chips":6604,"Fill":6605,"$=":6606,"ĠOut":6607,"PQR":6608,"Ġmangoes":6609,"period":6610,"Mar":6611,"Ġlikes":6612,"Ġdistribute":6613,"eremy":6614,"102":6615,"Ġsuper":6616,"Ġproduced":6617,"ika":6618,"Ġ</":6619,"++":6620,"ourney":6621,"combination":6622,"XZ":6623,"Ġtriplets":6624,"Ġcompe":6625,"chickens":6626,"Ġlists":6627,"ĠEl":6628,"ĠJay":6629,"Ġinfinity":6630,"Ġhimself":6631,"Ġalgebraic":6632,"Pa":6633,"Ġdropped":6634,"ĠThese":6635,"ackson":6636,"Ġcontained":6637,"bbles":6638,"ĠConstruct":6639,"Zero":6640,"147":6641,"ictures":6642,"Ġnth":6643,"scribed":6644,"Ġ94":6645,"Ġrais":6646,"sympify":6647,"pet":6648,"bes":6649,"ĠBeth":6650,"Ġpic":6651,"constant":6652,"Ġresponse":6653,"sunday":6654,"ached":6655,"gain":6656,"Ġbricks":6657,"Ġcereal":6658,"ĠSecond":6659,"Ġdx":6660,"agrange":6661,"Ġnotebooks":6662,"Ġutil":6663,"cents":6664,"124":6665,"ĠJeff":6666,"None":6667,"avid":6668,"Ġfloors":6669,"Ġsuccessf":6670,"purple":6671,"distinguishable":6672,"Ġargument":6673,"racy":6674,"Ġ220":6675,"Ġcollects":6676,"432":6677,"Ġjack":6678,"Ġducks":6679,"Ġmess":6680,"anging":6681,"Ġ165":6682,"Assume":6683,"{,}":6684,"arsh":6685,"sun":6686,"Ġflight":6687,"!$.":6688,"Ġshopping":6689,"mistry":6690,"Ġseas":6691,"Un":6692,"illa":6693,"cher":6694,"ĠFrank":6695,"ĠDon":6696,"pril":6697,"Ġkitchen":6698,")')":6699,"}}$,":6700,"ella":6701,"icient":6702,"109":6703,"Ġmph":6704,"Mod":6705,"Ġseveral":6706,"Ġ$$(":6707,"pat":6708,"printing":6709,"Ġjoined":6710,"dec":6711,"Ġbicy":6712,"Ġparameters":6713,"Ġframe":6714,"inatorics":6715,"cccc":6716,"Ġfootball":6717,"Ġmain":6718,"fun":6719,"park":6720,"While":6721,"732050":6722,"Ġbusiness":6723,"Ġgenerated":6724,"Ġtrucks":6725,"meal":6726,"Ġ68":6727,"Ġindistinguishable":6728,"Ġlaxis":6729,"content":6730,"Ġnever":6731,"available":6732,"-$":6733,"Ġbisects":6734,"earning":6735,"Ġquadrant":6736,"Ġdark":6737,"Ġpuppies":6738,"Ġabsent":6739,"ipped":6740,"ln":6741,"Ġgoals":6742,"ĠAMC":6743,"gave":6744,"Ġexpensive":6745,"Ġmushrooms":6746,"Ġeliminate":6747,"Ph":6748,"unitsquare":6749,"Ġsoccer":6750,"0000000000000000000000000000000000000000000000000000000000000000":6751,"Ġgamma":6752,"artic":6753,"ipes":6754,"ĠFrench":6755,"circum":6756,"ĠLuc":6757,"Ġcandles":6758,"cery":6759,"Points":6760,"Ġabc":6761,"ĠEarth":6762,"(-\\":6763,"ĠMN":6764,"Function":6765,"Ġboundary":6766,"Ġ//=":6767,"Ġalb":6768,"ĠInterval":6769,"Apply":6770,"dimension":6771,"summation":6772,"AL":6773,"Ġliving":6774,"Ġvowels":6775,"Adding":6776,"TH":6777,"juice":6778,"ĠUS":6779,"isc":6780,"ĠBetty":6781,"Max":6782,"Ġspaces":6783,"asts":6784,"ĠACD":6785,"Ġcaps":6786,"contain":6787,"Ġ93":6788,"kil":6789,"Ġfrustum":6790,"Ġ216":6791,"Ġsupple":6792,"ĠAmy":6793,"ests":6794,"Ġevening":6795,"Ġrele":6796,"section":6797,"Ġmeets":6798,"Ġrounds":6799,"ĠCharlie":6800,"Every":6801,"Ġ324":6802,"\\[|":6803,"sto":6804,"lla":6805,"ork":6806,"170":6807,"Ġcollinear":6808,"Ġshared":6809,"260":6810,"AN":6811,"xlabel":6812,"Ġ270":6813,"Ġ2018":6814,"Ġchecks":6815,"Er":6816,"Ġbaskets":6817,"ifting":6818,"ĠJill":6819,"Ġturtles":6820,"ĠCommon":6821,"Ġcharacters":6822,"Ġcircumscribed":6823,"Ġerror":6824,"|-":6825,"Ġsitting":6826,"Ġwanted":6827,"Ġ__":6828,"Ġ133":6829,"}}\\]":6830,"ublic":6831,"FG":6832,"ended":6833,"Subtracting":6834,"Ġdonated":6835,"Ġbabys":6836,"Applying":6837,"ission":6838,"})^{":6839,"arily":6840,"ĠMay":6841,"Ġcanoes":6842,"Ġshoe":6843,"Ġfabric":6844,"regular":6845,"4000":6846,"ĠRos":6847,"Ġbowling":6848,"Ġscience":6849,"mel":6850,"Ġarrive":6851,"leaves":6852,"starting":6853,"teacher":6854,"'m":6855,"enna":6856,"Ġspin":6857,"parents":6858,"Ġconfig":6859,"ĠHarry":6860,"480":6861,"orrow":6862,"edges":6863,"linetype":6864,"Sin":6865,"XYZ":6866,"169":6867,"129":6868,"ylabel":6869,"Ġsubject":6870,"Ġlap":6871,"\\_":6872,"Ġingredients":6873,"ĠRachel":6874,"Ġstrings":6875,"yn":6876,"kin":6877,"ordered":6878,"DB":6879,"Ġcones":6880,"Ġ102":6881,"ship":6882,"(|":6883,"Ġrecord":6884,"Ġburgers":6885,"ital":6886,"ams":6887,"Ġmix":6888,"ĠNext":6889,"Ġdiction":6890,"inequalities":6891,"ĠCP":6892,"Ġbracelets":6893,"Ġnecessarily":6894,"nic":6895,"otor":6896,"rackers":6897,"family":6898,"Ġpull":6899,"Ġparametric":6900,"ague":6901,"}$:":6902,"&=\\":6903,"Ġpenny":6904,"ĠAnna":6905,"chain":6906,"aving":6907,"jelly":6908,"wins":6909,"alth":6910,"(\"(":6911,"5000":6912,"Ġ$[-":6913,"Ġlets":6914,"ĠFilter":6915,"Ġparticle":6916,"ER":6917,"ĠWill":6918,"Ġsheep":6919,"Ġbroken":6920,"core":6921,"ĠTe":6922,"Ġoccup":6923,"inda":6924,"55555555":6925,"Ġmn":6926,"Ġcoeffs":6927,"?$$":6928,"Ġcourse":6929,"expenses":6930,"servings":6931,"Ġtea":6932,"ĠTr":6933,"(\"$-":6934,"opt":6935,"Ġ2002":6936,"far":6937,");[/":6938,"Ġben":6939,"GM":6940,"Ġ\\(":6941,"ste":6942,"||":6943,"songs":6944,"ains":6945,"morning":6946,"drink":6947,"hicles":6948,"nickels":6949,"Ġincorrect":6950,"title":6951,"aped":6952,"Ġinsurance":6953,"1011":6954,"Ġdrove":6955,"Ġ2014":6956,"Ġtomato":6957,"ĠQu":6958,"Ġoverall":6959,"tie":6960,"sorted":6961,"ĠJosh":6962,"Ġbaby":6963,"ector":6964,"@{}":6965,"Ġsaves":6966,"Ġsiblings":6967,"Ġconsidering":6968,"oles":6969,"ĠRyan":6970,"pring":6971,"view":6972,"Because":6973,"Ġsimultaneously":6974,"Ġpeg":6975,"labels":6976,"indy":6977,"budget":6978,"pace":6979,"Ġsupplies":6980,"filter":6981,"\\,\\":6982,"grand":6983,"Ġbetter":6984,"model":6985,"Ġentry":6986,"}}}":6987,"counts":6988,"cending":6989,"Ġslant":6990,"usband":6991,"+|":6992,"Ġ79":6993,"iew":6994,"ender":6995,"ola":6996,"Ġreason":6997,"target":6998,"175":6999,"Ġrank":7000,"^{}_{":7001,"ĠPB":7002,"Ġsort":7003,"perm":7004,"Ġcheaper":7005,"]-":7006,"Ġmedians":7007,"Ġlanguage":7008,"word":7009,"Ġchanges":7010,"colors":7011,"Ġcontinues":7012,"Ġsolver":7013,"Ġimm":7014,"119":7015,"ĠĠĠĠĠĠĠĠĠĠĠĠĠĠ":7016,"Ġafternoon":7017,"field":7018,"142":7019,"Ġidea":7020,"pathticks":7021,"bir":7022,"113":7023,"ulus":7024,"Ġaction":7025,"reds":7026,"image":7027,"Ġtwelve":7028,"Square":7029,"Ġ350":7030,"Ġdidn":7031,"ĠProblem":7032,"Ġwait":7033,"(((":7034,"Ġallowance":7035,"acon":7036,"ĠDivide":7037,"ĠDaniel":7038,"node":7039,"gas":7040,"olves":7041,"Ġdictionary":7042,"Ġtrick":7043,"137":7044,"Ġimg":7045,"Ġsupport":7046,"Ġstick":7047,"],(":7048,"ĠTV":7049,"Ġquick":7050,"marks":7051,"Alex":7052,"Ġsuccess":7053,"pers":7054,"batch":7055,"Ġloses":7056,"tiles":7057,"Ġ320":7058,"Ġdoughnuts":7059,"binary":7060,"Ġsummer":7061,"piped":7062,"{(\\":7063,"Ġsample":7064,"Ġzoo":7065,"uded":7066,"Ġtower":7067,"tail":7068,"Ġcentral":7069,"gu":7070,"1993":7071,"ville":7072,"Ġsigns":7073,"Ġactually":7074,"Ġ\\;":7075,"slice":7076,"Ġexponential":7077,"126":7078,"Ġbackyard":7079,"Ġpole":7080,")=-":7081,"Out":7082,"fro":7083,"results":7084,"Ġbacteria":7085,"Ġeigen":7086,"kn":7087,"Ġounce":7088,"gift":7089,"],(-":7090,"factorization":7091,"Ġsubsequ":7092,"Ġ[\"":7093,"Ġnuts":7094,"Ġzeroes":7095,"Ġsuppose":7096,"========":7097,"Ġrhs":7098,"Ġplanning":7099,"monic":7100,"3923":7101,"{$":7102,"hill":7103,"Ġmuffins":7104,"456":7105,"posit":7106,"Leftrightarrow":7107,"Ġ@":7108,"Ġties":7109,"ĠCarla":7110,"bas":7111,"Ġtail":7112,"wage":7113,":]":7114,"Ġbeef":7115,"stop":7116,"rawberry":7117,"param":7118,"grey":7119,"ĠSally":7120,"Ġsaving":7121,"exponent":7122,"Ġdeliver":7123,"works":7124,"ĠBCD":7125,"urt":7126,"removed":7127,"Ġdivisibility":7128,"Ġhistory":7129,"laxis":7130,"make":7131,"Ġseen":7132,"OR":7133,"open":7134,"Ġconstructed":7135,"Error":7136,"ified":7137,"Ġchar":7138,"contrib":7139,"Ġ1008":7140,"Ġwinner":7141,"nings":7142,"cqcq":7143,"Ġseventh":7144,"ĠChinese":7145,"Ġtie":7146,"Ġbatch":7147,"span":7148,"Ġpurchased":7149,"Ġdelivery":7150,"Ġdeduce":7151,"Ġnickel":7152,"egg":7153,"Ġsec":7154,"ĠĠĠĠĠĠĠĠĠĠ":7155,"').":7156,"Ġrotated":7157,"Ġdrank":7158,"llele":7159,"loyee":7160,"anet":7161,"\\}":7162,"smaller":7163,"Ġbedroom":7164,"Ġwrites":7165,"cise":7166,"vation":7167,"rote":7168,"315":7169,"grow":7170,"Ġguess":7171,"Ġwindow":7172,"ythagorean":7173,"Ġfix":7174,"Ġcities":7175,"ested":7176,"ĠJam":7177,"Ġcamp":7178,"Ġvec":7179,"ĠCase":7180,"Ġscalar":7181,"ĠBrand":7182,"145":7183,"Ġsuccessive":7184,"multipl":7185,"Ġderive":7186,"ada":7187,"tery":7188,"today":7189,"Ġconverting":7190,"walked":7191,"Ġnet":7192,"Ġgl":7193,"quari":7194,"Ġxz":7195,"ĠpTick":7196,"graders":7197,"hells":7198,"Ġassigned":7199,"Ġcleaning":7200,"circles":7201,"Ġlogs":7202,"Ġbounds":7203,"\\}$,":7204,"Ġdecimals":7205,"Ġswitch":7206,"imeters":7207,"ĠDer":7208,"Ġpm":7209,"tende":7210,"Ġintersectionpoint":7211,"avy":7212,"goal":7213,"Ġmap":7214,"aries":7215,"ĠArc":7216,"Ġgifts":7217,"diameter":7218,"optim":7219,"Ġpond":7220,"9999999999999999":7221,"Ġpiggy":7222,"ĠCA":7223,"km":7224,"'$.":7225,"ppings":7226,"Ġtoothpicks":7227,"Ġ\\\\\\\\":7228,"Ġstage":7229,"omething":7230,"Ġborrowed":7231,"mplate":7232,"Ġ82":7233,"Ġstar":7234,"Ġpepperoni":7235,"phants":7236,"Ġpaying":7237,"een":7238,"Ġrings":7239,"PS":7240,"abcd":7241,"Ġhum":7242,"001":7243,"Ġrem":7244,"Ġaltitudes":7245,"230":7246,"Ġload":7247,"Ġ71":7248,"heartsuit":7249,"primerange":7250,"Ġanalyze":7251,"330":7252,"Ġcreated":7253,"Ġcontinuous":7254,"arbara":7255,"Ġvisualize":7256,"Our":7257,"Ġfinished":7258,"painted":7259,"had":7260,"Ġpresident":7261,"Ġ162":7262,"level":7263,"parts":7264,"job":7265,"117":7266,"symbol":7267,"*\\":7268,"ec":7269,"Ġship":7270,"Ġdonut":7271,"2003":7272,"colum":7273,"ĠMarg":7274,")\",(":7275,"Ġ720":7276,"Ġchair":7277,"sets":7278,"ĠJacob":7279,"minimum":7280,"tempt":7281,"war":7282,"1024":7283,"Ġpeaches":7284,"ĠLou":7285,"Assuming":7286,"ĠCarlos":7287,"Ġsheet":7288,"mary":7289,"assi":7290,"ivatives":7291,"assert":7292,"Ġ115":7293,"Jack":7294,"118":7295,"Dividing":7296,"zens":7297,"Ġrac":7298,"asers":7299,"charge":7300,"bors":7301,"othy":7302,"Rearranging":7303,"Ġconsonants":7304,"Ġtennis":7305,"ĠComb":7306,"rit":7307,"$),":7308,"idistant":7309,"arshmall":7310,"anti":7311,"Ġ$|\\":7312,"das":7313,"Ġsimpl":7314,"photos":7315,"Ġcell":7316,"mainder":7317,"enari":7318,"cade":7319,"creen":7320,"tag":7321,"Ġshorts":7322,"Taking":7323,"james":7324,"245":7325,"mates":7326,"ithms":7327,")*(-":7328,"isies":7329,"106":7330,"Ġquarts":7331,"ld":7332,"ĠPete":7333,"Ġincludes":7334,"Ġjourney":7335,"Ġvacation":7336,"Ð°Ð½":7337,"ĠArrow":7338,"ittees":7339,"Ġdenoted":7340,"ayla":7341,"ĠDuring":7342,"Ġisol":7343,"Ġcorners":7344,"ider":7345,"14159":7346,"thony":7347,"ABCDE":7348,"tangent":7349,"Ġtouch":7350,"Ġsitu":7351,"Ġstamp":7352,"Ġforms":7353,"Ġleftmost":7354,"pars":7355,"Ġbaked":7356,"3636":7357,"mul":7358,"Ġexternally":7359,"llelepiped":7360,"Ġbecome":7361,"09":7362,"cipal":7363,"vent":7364,"Ġdry":7365,"CH":7366,"Ġlemons":7367,"shells":7368,"Ġconsisting":7369,"trips":7370,"Ð¾Ð²":7371,"/>":7372,"Ġht":7373,"Ġlaundry":7374,"Ġdebt":7375,"Ġmoving":7376,"ĠCa":7377,"itely":7378,"conjugate":7379,"Ġequidistant":7380,"ĠValue":7381,"Ġdrawer":7382,"1008":7383,"uplic":7384,"Ġmist":7385,"bak":7386,"{|":7387,"!(":7388,"flower":7389,"reci":7390,"Ġwire":7391,"atures":7392,"rance":7393,"ĠXY":7394,"episodes":7395,"void":7396,"nets":7397,"Ġtires":7398,"114":7399,"ĠCalcul":7400,"Ġstorm":7401,"ĠFer":7402,"nails":7403,"Ġfolded":7404,"\\$":7405,"Ġlineup":7406,"markangle":7407,"Ġacres":7408,"ĠTheir":7409,"ĠGre":7410,"Ġstanding":7411,"Ġpractice":7412,"customers":7413,")*((":7414,".\"":7415,"neg":7416,"Ġcloth":7417,"Ġ126":7418,"Ġconf":7419,"Int":7420,"Ġwrote":7421,"atie":7422,"faces":7423,"Ġkeeps":7424,"owel":7425,"\\|":7426,"Ġcartons":7427,"Ġseed":7428,"ened":7429,"Ġeu":7430,"have":7431,"Ġoutfits":7432,"Ġenve":7433,"birth":7434,"Ġcloser":7435,"Ġdeep":7436,"jar":7437,"Ġbrothers":7438,"Ġthrown":7439,"ĠCarolyn":7440,"Ġnice":7441,"Ġelect":7442,"ĠGreg":7443,"dolls":7444,"wood":7445,"Ġbiology":7446,"candid":7447,"Ġribbon":7448,"Ġcircumcircle":7449,"oft":7450,"Ġpuppy":7451,"mart":7452,"purchase":7453,"wind":7454,"Ġunity":7455,"middle":7456,"ius":7457,"Ġdistributed":7458,"Ġ=>":7459,"Write":7460,"Ġmight":7461,"ĠKen":7462,"ACD":7463,"Ġheart":7464,"Ġneighborhood":7465,"Ġdaughter":7466,"ĠCarl":7467,"iped":7468,"tendees":7469,"Ġcomic":7470,"Ġbrute":7471,"Ġtextbooks":7472,"ĠRad":7473,"phantine":7474,"Ġquadr":7475,"Ġoptimization":7476,"critical":7477,"Ġincrement":7478,"Ġapplied":7479,"classes":7480,"mith":7481,"|+|":7482,"ceries":7483,"'$,":7484,"ucumbers":7485,"mplicit":7486,"direction":7487,"Ġ\\|":7488,"congru":7489,")(-":7490,"mess":7491,"Ġgraf":7492,"Recall":7493,":\")":7494,"Ġmountain":7495,"Ġdra":7496,"Ġapproaches":7497,"Ġoffers":7498,"passengers":7499,"]}":7500,"Ġcovers":7501,"$$(":7502,"06":7503,"Ġkept":7504,"750":7505,"ĠCosines":7506,"oz":7507,"Ġrecursively":7508,"Ġdet":7509,"adow":7510,"Ġplugging":7511,"Ġnails":7512,"textit":7513,"Solution":7514,"Ġloan":7515,"tre":7516,"ĠAdam":7517,"ĠPhil":7518,"solveset":7519,"Ġmixed":7520,"ĉĉ":7521,"ĠAssume":7522,"Ġgrocery":7523,"Ġtangency":7524,"Ġchemistry":7525,":\\":7526,"Ġnextprime":7527,"BG":7528,"Ġmm":7529,"Ġant":7530,"ĠAF":7531,"ully":7532,"'ve":7533,"state":7534,"{\\$":7535,"Ġdishes":7536,").$$":7537,"isk":7538,"compos":7539,"Ġsumming":7540,"Ġaccording":7541,"past":7542,"Ġrationalize":7543,"667":7544,"donuts":7545,"drank":7546,"],\"$":7547,"mit":7548,"Ġdesign":7549,"isha":7550,",\\,\\,\\,\\,\\,\\,":7551,"Te":7552,"counter":7553,"Ġcompared":7554,"Ġpigs":7555,"compo":7556,"pA":7557,"ĠEllipse":7558,"Ġalphabet":7559,"ĠSpec":7560,"Ġfold":7561,"thirds":7562,"Ġcongruences":7563,"iods":7564,"Ġrock":7565,"Ġmaterial":7566,"576":7567,"Ġgen":7568,"rime":7569,"Ġliter":7570,"eats":7571,"Ġparticipants":7572,"elements":7573,"Ġcocon":7574,"Ġtaxes":7575,"NoZero":7576,"325":7577,"QP":7578,"âĶĢâĶĢâĶĢâĶĢâĶĢâĶĢâĶĢâĶĢ":7579,"Ġwatching":7580,"cubed":7581,"daughters":7582,"lik":7583,"73205081":7584,"mbur":7585,"Ġterminating":7586,"fr":7587,"lections":7588,"ĠFibonacci":7589,"fruit":7590,"Ġseating":7591,"Ġsour":7592,"Ġlanding":7593,"yards":7594,"ĠKevin":7595,"bd":7596,"clips":7597,"Ġsomething":7598,"Ġod":7599,"Ġleads":7600,"!\\":7601,"neither":7602,"arrings":7603,"185":7604,"La":7605,"Ġagainst":7606,"apping":7607,"678":7608,"Ġparse":7609,"KL":7610,"+(-":7611,"ĠDavid":7612,"oc":7613,"Ġbee":7614,"Ġmoved":7615,"ĠKing":7616,"Ġtraining":7617,"ĠMartha":7618,"ÑĤÐ°Ð½":7619,"Ġexpl":7620,"otion":7621,"Min":7622,"adium":7623,"Ġpaintings":7624,"Ġfun":7625,"dient":7626,"Mon":7627,"Ġdrops":7628,"ĠÐ¡":7629,"Ġseems":7630,"pets":7631,"Sam":7632,"Ġweights":7633,"ÑĤÐ°Ð½Ð¾Ð²":7634,"ssibility":7635,"33333333333333":7636,"ermut":7637,"Ġderivatives":7638,"Ġasin":7639,"104":7640,"}}$$":7641,"region":7642,"148":7643,"ĠBeta":7644,"Ġachieved":7645,"Ġlogarithms":7646,"ĠABE":7647,"heit":7648,"reading":7649,"Ġblank":7650,"tuple":7651,"Ġdil":7652,"cfrac":7653,"Ġpills":7654,"Ġcomplement":7655,"{[":7656,"2016":7657,"titude":7658,"Ġfrequ":7659,"Ġlad":7660,"Ġfamilies":7661,"quarium":7662,"uper":7663,"Ġimmedi":7664,"Ġhomes":7665,"ists":7666,"Ġdime":7667,"Expanding":7668,"CO":7669,"Ġairplane":7670,"Ġleaving":7671,"Ġsouth":7672,"Ġmonday":7673,"eding":7674,"Ġgym":7675,"Ġfactory":7676,"ctors":7677,"ĠJimmy":7678,"Ġopp":7679,"Ġminimized":7680,"parab":7681,"987":7682,"tients":7683,"}(-":7684,"mond":7685,"apart":7686,"rolled":7687,"Ġserving":7688,"MO":7689,"silon":7690,"Ġjars":7691,"Ġâİ":7692,"equality":7693,"oct":7694,"Ġspending":7695,"Ġseq":7696,"versed":7697,"Ġtaller":7698,"ita":7699,"'}":7700,"ridge":7701,"Ġranges":7702,"brownies":7703,"ahren":7704,"ĠMal":7705,"Ġmeasured":7706,"ĠÐ¡ÑĤÐ°Ð½Ð¾Ð²":7707,"Ġcomplementary":7708,"Ġstat":7709,"Ġthings":7710,"player":7711,"Ġbob":7712,"Ġblueberries":7713,"package":7714,"PQRS":7715,"ahrenheit":7716,"forward":7717,"Ġstores":7718,"pean":7719,"]$,":7720,"pennies":7721,"Ġcalls":7722,"Ġhorses":7723,"ĠBase":7724,"Ġlayer":7725,"Ġtransport":7726,"Ġpurchases":7727,"Ġhits":7728,"LE":7729,"oring":7730,"contribution":7731,"Ġalternating":7732,"Ġtransformation":7733,"Ġreverse":7734,"rr":7735,"ST":7736,"centric":7737,"Ġans":7738,"uffy":7739,"arshmallows":7740,"ĠQR":7741,"Ġconstruction":7742,"catter":7743,"Ġ69":7744,"ĠCel":7745,"Ġnewsp":7746,"variab":7747,"Ġparallelepiped":7748,"(\"$(":7749,"asympt":7750,"Ġnecklaces":7751,"ariate":7752,"Ġpaints":7753,"222":7754,"Ġwife":7755,"ĠVolume":7756,"ontally":7757,"major":7758,"played":7759,"Ġcountry":7760,"Ġspot":7761,"ĠAmanda":7762,"ometer":7763,"ua":7764,"1800":7765,"isher":7766,"ĠEd":7767,"Ġforward":7768,"Ġdress":7769,"ĠBinomial":7770,"seed":7771,"Ġtraveling":7772,"will":7773,"weekend":7774,"Ġess":7775,"BQ":7776,"selling":7777,"Ġfell":7778,"ĠCDs":7779,"goals":7780,"Ġtowels":7781,"Angle":7782,"ĠADE":7783,"BM":7784,"ĠBl":7785,"Ġabundant":7786,"needs":7787,"Ġdelivered":7788,"liter":7789,"Ġspl":7790,"Mul":7791,"essert":7792,"Ġbouqu":7793,"none":7794,",$$":7795,"Ġ169":7796,"Ġtangents":7797,"Ġcells":7798,"Ġ512":7799,"essica":7800,"Ġdig":7801,"Ġcoupon":7802,"Ġtour":7803,"nice":7804,"Ġvotes":7805,"Ġsam":7806,"eptember":7807,"LHS":7808,"\\%$.":7809,"Ġclose":7810,"ĠSubtract":7811,"196":7812,"products":7813,"Ġbounces":7814,"ĠADC":7815,"using":7816,"sort":7817,"Reals":7818,"Ġending":7819,"meals":7820,"donated":7821,"AG":7822,"hot":7823,"uni":7824,"Ġwoman":7825,"Ġhttps":7826,"gen":7827,"dimensional":7828,"rels":7829,"hats":7830,"));}":7831,"stu":7832,"Ġmultiplicative":7833,"512":7834,"\"));":7835,"gramm":7836,"Ġ170":7837,"Ġham":7838,"Ġoverlap":7839,"Ġhorse":7840,"SS":7841,"Ġintersecting":7842,"ĠJulia":7843,"ighth":7844,"ien":7845,"Ġeval":7846,"Ġscenari":7847,"149":7848,"Ġcalculators":7849,"Ġkid":7850,"Ġrecent":7851,")=(":7852,"element":7853,"Ġleague":7854,"Ġothers":7855,"possibilities":7856,"season":7857,"Â°":7858,"itertools":7859,"mph":7860,"Ġath":7861,"Ġcompleted":7862,"1111111111111111":7863,"âĿ":7864,"layer":7865,"iche":7866,"urse":7867,"sel":7868,"intersections":7869,"writing":7870,"Ġwatermelon":7871,"Ġowes":7872,"))=":7873,"Ġshipping":7874,"imon":7875,"Ġstrict":7876,"growth":7877,"planar":7878,"stre":7879,"Ġtele":7880,"{{":7881,"Ġtreasure":7882,"problems":7883,"Ġ2019":7884,"calcul":7885,"conditions":7886,"orage":7887,"enry":7888,"Ġalt":7889,"clusion":7890,"Ġdecreased":7891,"285":7892,"resses":7893,"useticks":7894,"|)":7895,"including":7896,"Ġfaster":7897,"hexagon":7898,"Ġace":7899,"ĠEuler":7900,"objective":7901,"notebooks":7902,"ĠBo":7903,"Ġpartition":7904,"shaped":7905,"cycles":7906,"Ġamoeb":7907,"clockwise":7908,"andas":7909,"Ġexclude":7910,"Ġattempt":7911,"anch":7912,"Ġsodas":7913,"tokens":7914,"Ġbonus":7915,"Ġpicnic":7916,"Ġneighbors":7917,"urthermore":7918,"univ":7919,"cember":7920,"ief":7921,"plots":7922,"4096":7923,"Ġparenthe":7924,"Ġexpect":7925,"'{":7926,"jul":7927,"Ġconverted":7928,"Ġgrass":7929,"Ġarcs":7930,"Ġhorizontally":7931,"polar":7932,"special":7933,"ĠHar":7934,"iscuits":7935,"Ġputting":7936,"Ġsimilarity":7937,"Ġproduction":7938,"dio":7939,")^\\":7940,"Ġmessages":7941,"Ġcompounded":7942,"Ġdeg":7943,"Top":7944,"Ġ729":7945,"redit":7946,"]/":7947,"ĠSquare":7948,"Ġcollections":7949,"iol":7950,"Ġarrived":7951,"sixth":7952,"Ġleap":7953,"Ġborder":7954,"Ġpiecewise":7955,"Ġ9999":7956,"Ġanimal":7957,"ĠDC":7958,"187":7959,"LCM":7960,"ĠReplace":7961,"skip":7962,"employees":7963,"ĠFinding":7964,"Ġsurveyed":7965,"ohns":7966,"Ġiss":7967,"Ġdam":7968,"Ġstadium":7969,"Ġreturned":7970,"puppies":7971,"Ġexamples":7972,"Ġbabies":7973,"Ġtypical":7974,"coin":7975,"Ġintercept":7976,"discounted":7977,"116":7978,"Ġtrac":7979,"Ġeleven":7980,"Ġsche":7981,"Ġbanana":7982,"mas":7983,"Ġremoves":7984,"cra":7985,"Ġear":7986,"arcus":7987,"GCD":7988,"ĠAX":7989,"Ġdom":7990,"âĿ¶":7991,"Ġstuff":7992,"Ġballoon":7993,"Ġnames":7994,"sent":7995,"giving":7996,"Ġkeys":7997,"9090":7998,"ĠReturns":7999,"tiv":8000,"Ġperimeters":8001,"appe":8002,"></":8003,"found":8004,"cision":8005,"CR":8006,"Se":8007,"Ġpas":8008,"Ġisinstance":8009,"Ġmarked":8010,"Squaring":8011,"crete":8012,"lee":8013,"sandwich":8014,"truck":8015,"Ġarcsin":8016,"Ġvan":8017,"fx":8018,"ithub":8019,"ĠLagrange":8020,"Ġstairs":8021,"Ġsees":8022,"ĠEll":8023,"1010":8024,"Ġvice":8025,"Ġrabbits":8026,"posed":8027,"Ġ(-\\":8028,"rec":8029,"259":8030,"Ġ168":8031,"Ġseparate":8032,"Ġbikes":8033,"Ġkx":8034,"strawberries":8035,"!)":8036,"Python":8037,"Ġprefer":8038,"occ":8039,"Ġ^^":8040,"Ġsituation":8041,"scatter":8042,"issa":8043,"BAC":8044,"Ġlive":8045,"Ġfills":8046,"Ġtomorrow":8047,"$\",(.":8048,"Ġtests":8049,"Ġnode":8050,"izations":8051,"empty":8052,"rations":8053,"temperature":8054,"&&":8055,"Ġlaps":8056,"ĠAnnie":8057,"Ġisolate":8058,"'],":8059,"Ġroute":8060,"Ġcoplanar":8061,"ĠWith":8062,"ying":8063,"ADE":8064,"Ġoz":8065,"ĠDen":8066,"ottom":8067,"Ġview":8068,"Ġaquarium":8069,"2013":8070,"endy":8071,"ikes":8072,"PM":8073,"ĠBer":8074,"univariate":8075,"sert":8076,"Ġpuzz":8077,"usage":8078,"Ġ243":8079,"Ġevaluated":8080,"Ġprof":8081,"HH":8082,"Ġsubtracted":8083,"Ġodds":8084,"866":8085,"Ġfresh":8086,"),.":8087,"convert":8088,",...":8089,"Ġml":8090,"296":8091,"roke":8092,"Ġsubsequent":8093,"athan":8094,"aters":8095,"ises":8096,"[(-":8097,"iana":8098,"Ġduration":8099,"ino":8100,"ergy":8101,"focus":8102,"gl":8103,"Ġimmediately":8104,")+\\":8105,"Ġdescribes":8106,"net":8107,"gons":8108,"pig":8109,"Ġengine":8110,"Pow":8111,"Ġannually":8112,"420":8113,"ĠRob":8114,"essa":8115,"Ġdepend":8116,"ĠComputing":8117,"fort":8118,"143":8119,"Ġinvolves":8120,"emph":8121,"Ġcontra":8122,"user":8123,"Ġpossibility":8124,"Ġclothing":8125,"3333333333333333":8126,"burn":8127,"4545":8128,"building":8129,"market":8130,"rep":8131,"Ġrainfall":8132,"$}.":8133,"painting":8134,"oseph":8135,"156":8136,"berto":8137,"BI":8138,")})":8139,"Ġhourly":8140,"ĠLoop":8141,"234":8142,"ĠOutput":8143,"aks":8144,"Ġhundreds":8145,"raised":8146,"github":8147,"ode":8148,"ango":8149,"343":8150,"nx":8151,"ĠDo":8152,"prac":8153,"ware":8154,"Ġfactoring":8155,"707":8156,"BX":8157,"'$\",":8158,"ĠDF":8159,"Ġcandidate":8160,"Ġflav":8161,"ĠOnly":8162,"Ġarrow":8163,"Ġchief":8164,"ĠGeorge":8165,"ABE":8166,"Ġinverses":8167,"Ġquiz":8168,"exagon":8169,"ipedia":8170,"fac":8171,"groups":8172,"Ġexpanding":8173,"Ġpictures":8174,"functions":8175,"arson":8176,"polygon":8177,"Ġlocker":8178,"suc":8179,"Ġrestrictions":8180,"}?$":8181,"Ġtuesday":8182,"132":8183,"ĠJake":8184,"Ġharmonic":8185,"Ġthir":8186,"Ġgate":8187,"ĠAI":8188,"Ġinternally":8189,"))),":8190,"DP":8191,"([[-":8192,"Ã©":8193,"single":8194,"invest":8195,"Ġcompetition":8196,"Ġcourses":8197,"88888888":8198,"ient":8199,"Ġincircle":8200,"Ġcomponents":8201,"138":8202,")!}":8203,"Ġprovide":8204,"Ġber":8205,"tuce":8206,"Ġbounce":8207,"asha":8208,"omas":8209,"baked":8210,"ĠAssi":8211,"mom":8212,"2400":8213,"Ġdiscounted":8214,"Ġcow":8215,"perms":8216,"Ġlake":8217,"ĠSusan":8218,"fractions":8219,"Ġcopies":8220,"Ġxyz":8221,"44444444":8222,"Ġtub":8223,"ĠIs":8224,"255":8225,"main":8226,"response":8227,"Ġ103":8228,"ĠRange":8229,"Ġ2500":8230,"Mx":8231,"Ġduplic":8232,"iron":8233,"rary":8234,"Ġremains":8235,"Ġprove":8236,"ĠUnFill":8237,"Ġticks":8238,"Ġavoid":8239,"Ġpegs":8240,"pencil":8241,"Ġfigures":8242,"isector":8243,"ĠMake":8244,"ĠMel":8245,"Ġdatetime":8246,"vac":8247,"Ġsisters":8248,"}]":8249,"hol":8250,"good":8251,"Ġconven":8252,"inated":8253,"Ġstops":8254,"ida":8255,"Ġbear":8256,"desired":8257,"Ġ\"$":8258,"because":8259,"alie":8260,"langle":8261,"Ġsnack":8262,"Ġloaves":8263,"ĠAd":8264,"rangle":8265,"Ġsweets":8266,"Ġparrots":8267,"Ġpressure":8268,"Ġpopcorn":8269,"bike":8270,"Ġvol":8271,"insurance":8272,"ceiling":8273,"ĠSmith":8274,"ota":8275,"sem":8276,"Ġstrictly":8277,"ĠAOB":8278,"wiki":8279,"Ġ86":8280,"}\",(":8281,"Ġpandas":8282,"oe":8283,"images":8284,"Ġcrate":8285,"Ġrose":8286,"cf":8287,"540":8288,"seg":8289,"Below":8290,"ĠMaria":8291,"nol":8292,"Ġchanged":8293,"ĠLast":8294,"Ġthing":8295,"match":8296,"gie":8297,"Ġlinsolve":8298,"ideos":8299,"}}+\\":8300,"\");":8301,"Bottom":8302,"ĠJordan":8303,"idden":8304,"ĠMarch":8305,"1500":8306,"ulips":8307,"rabb":8308,"dps":8309,"snow":8310,"selves":8311,";++":8312,"tient":8313,"Ġsons":8314,"Mo":8315,"Ġcombinatorics":8316,"mperatures":8317,"obj":8318,"apers":8319,"intersectionpoint":8320,"eles":8321,"Ġremoving":8322,"Ġcd":8323,"Ġbeh":8324,"Ġsimplification":8325,"998":8326,"gramming":8327,"22222222":8328,"ĠPermut":8329,"Ġallows":8330,"Ġcutting":8331,"Ġsail":8332,"Ġshifted":8333,"phones":8334,"repr":8335,"Ġroller":8336,"only":8337,"cong":8338,"}.\")":8339,"################":8340,"Ġfactorials":8341,"Ġwatched":8342,"Ġentirely":8343,"Ġbrings":8344,"nolight":8345,"Ġign":8346,"ime":8347,"known":8348,"bath":8349,"Ġgain":8350,"Ġ6000":8351,"ĠBx":8352,"remove":8353,"opards":8354,"neckl":8355,"unk":8356,"cylinder":8357,"ubble":8358,"ĠAnthony":8359,"Ġmissed":8360,"Ġgraders":8361,"sheets":8362,"teachers":8363,"Ġbug":8364,"Ġfuel":8365,"2019":8366,"ĠChris":8367,"rey":8368,"Ġhusband":8369,"graphic":8370,"diagonals":8371,"Hexagon":8372,"Ġsuff":8373,"DEF":8374,"ĠKaren":8375,"Ġ288":8376,"Ġ$\\#":8377,"fem":8378,"Is":8379,"Ġemails":8380,"Ġkittens":8381,"Ġrabbit":8382,"ĠMegan":8383,"Ġguest":8384,"www":8385,"âĪ":8386,"777":8387,"Ġtablespoons":8388,"arks":8389,"saving":8390,"ĠJuan":8391,"ĠStart":8392,"cookie":8393,"combos":8394,"fly":8395,"Ġfinger":8396,"134":8397,"html":8398,"Ġsnakes":8399,"ĠCho":8400,"Ġ700":8401,"Ġrepeatedly":8402,"195":8403,"Ġdrop":8404,"Ġray":8405,"itle":8406,"Ġau":8407,"Ġcoach":8408,"1004":8409,"areas":8410,"Ġsoup":8411,"ben":8412,"Ġrep":8413,"384":8414,"],[":8415,"Ġarbit":8416,"Ġnamely":8417,"Ġbre":8418,"lers":8419,"Ġlateral":8420,"union":8421,"Ġkite":8422,"ryan":8423,"BO":8424,"ĠHigh":8425,"dough":8426,"Six":8427,"serving":8428,"Ġimpro":8429,"spend":8430,"ĠPo":8431,"chn":8432,"Ġcompleting":8433,"workers":8434,"Ġbinom":8435,"Ġbuns":8436,"Ġincluded":8437,"Ġiron":8438,"888":8439,"ĠMean":8440,"sweet":8441,"Ġyesterday":8442,"greatest":8443,"investment":8444,"donation":8445,"utilities":8446,"isode":8447,"ectangle":8448,"ĠSeptember":8449,"Ġ252":8450,"Ġ1000000":8451,"floors":8452,"Ġonline":8453,"Ġmeaning":8454,"leftover":8455,"Theta":8456,"\",\"":8457,"Ġwalls":8458,"YX":8459,"$',":8460,"Ġflipping":8461,"~?$$":8462,"Interval":8463,"ledge":8464,"Ġcater":8465,"arabola":8466,"bird":8467,"ĠConsider":8468,"Ġheld":8469,"semi":8470,"scored":8471,"}).$":8472,"interp":8473,"enne":8474,"380":8475,"Ġbakery":8476,"ĠBAD":8477,"&\\$":8478,"Ġphones":8479,"cert":8480,"geometric":8481,"Ste":8482,"mow":8483,"train":8484,"brought":8485,"Ġeuros":8486,"Tim":8487,"hess":8488,"ĠEric":8489,"ueen":8490,"--------------------------------":8491,"154":8492,"nother":8493,"Ġenergy":8494,"Ġneg":8495,"Ġkilogram":8496,"Ġearning":8497,"ruary":8498,"Ġhairc":8499,"ĠFahrenheit":8500,"Ġsplits":8501,"ĠCalculating":8502,"ĠJeremy":8503,"Ġbowls":8504,"Ġvaries":8505,"minor":8506,"ĠVer":8507,"Ġbaking":8508,"iers":8509,"1250":8510,"handed":8511,"nth":8512,"already":8513,"running":8514,"Ġhunt":8515,"Ġthrice":8516,"Ġshake":8517,"107":8518,"tian":8519,"corations":8520,"Ġremained":8521,"ĠTed":8522,"subplots":8523,"rpic":8524,"lling":8525,"usie":8526,"ĠCubs":8527,"237":8528,"turtles":8529,"Ġstands":8530,"ictor":8531,"Ġcatches":8532,"=[":8533,"Ġrice":8534,"ĠSqrt":8535,"Ġeff":8536,"implicit":8537,"Ġ1500":8538,"205":8539,"leted":8540,"Ġdilation":8541,"Ġchess":8542,"door":8543,"Ġbarrel":8544,"Ġnecklace":8545,"Ġmaximized":8546,"caps":8547,"Ġbrack":8548,"ĠDa":8549,"Ġextend":8550,"Ġlife":8551,"{$\\":8552,"103":8553,"ĠRed":8554,"hourly":8555,"Ġprojected":8556,"ĠYork":8557,"chair":8558,"adjacent":8559,"995":8560,"ĠShow":8561,"proportion":8562,"Ġrepeats":8563,"Ġconsecutively":8564,"arter":8565,"achines":8566,"Comb":8567,"Ġshadow":8568,"')**":8569,"Ġ]":8570,"ante":8571,"ruce":8572,"Ġtelevis":8573,"ternatively":8574,"])/":8575,"139":8576,"ĠpO":8577,"ĠVector":8578,"movie":8579,"aterals":8580,"plotting":8581,"gar":8582,"Ġstopping":8583,"ĠSimon":8584,"mitive":8585,"sheep":8586,"Ġcompounds":8587,"mally":8588,"Ġtosses":8589,"soci":8590,"Ġbuckets":8591,"(*[":8592,"ADC":8593,"Ġrotations":8594,"optimize":8595,"Ġchain":8596,"Ġdivmod":8597,"Ġ119":8598,"neigh":8599,"()]":8600,"Ġ192":8601,"Ġpiles":8602,"clare":8603,"column":8604,"during":8605,"OT":8606,"Decimal":8607,"Ġ+\\":8608,"twice":8609,"Ġtranslation":8610,"Ġrr":8611,"underbrace":8612,"Ġpebbles":8613,"ĠAnton":8614,"mathop":8615,"division":8616,"Ġswitches":8617,"Ġvehicles":8618,"females":8619,"flow":8620,"ulu":8621,"ME":8622,"Ġclassroom":8623,"Ġseated":8624,"distances":8625,"}}}$.":8626,"att":8627,"Ġstrawberry":8628,"working":8629,"Ġcro":8630,"Ġbutton":8631,"Ġliked":8632,"throw":8633,"oses":8634,"Ġapproximate":8635,"Sh":8636,"kept":8637,"peter":8638,"cha":8639,"walking":8640,"marker":8641,"555":8642,"burger":8643,"840":8644,"Ġ7000":8645,"liv":8646,"Ġwallet":8647,"ushes":8648,"ĠSymbols":8649,"Ġpythagorean":8650,":',":8651,"ulo":8652,"rup":8653,"Ġpine":8654,"Ġfries":8655,"OX":8656,"Ġdifferenti":8657,"299":8658,"ress":8659,")}\")":8660,"}*":8661,"ĠRemainder":8662,"tv":8663,"Ġsimilarly":8664,"ĠRay":8665,"ĠGer":8666,"Ġvarious":8667,"Ġrats":8668,"LU":8669,"Ġ540":8670,"Ġquartic":8671,"Ġcontradic":8672,"Ġriver":8673,"Ġinstall":8674,"Ġ1800":8675,"ĠBM":8676,"compute":8677,"Ġgrows":8678,"Ġbathroom":8679,"ampoo":8680,"Ġindeed":8681,"maximum":8682,"lease":8683,"Ġlimits":8684,"609":8685,"production":8686,"rope":8687,")),(":8688,"197":8689,"Ġsubstitutions":8690,"Ġreduces":8691,"!}$":8692,"Ġ''":8693,"9230":8694,"640":8695,"circumference":8696,"apes":8697,"Ġelephants":8698,"etch":8699,"FE":8700,"lad":8701,"yler":8702,"vg":8703,"shel":8704,"=(.":8705,"antha":8706,"ĠAnswer":8707,"Ġuniformly":8708,"FD":8709,"127":8710,"rimp":8711,"ĠMid":8712,"consumption":8713,"aria":8714,"transform":8715,"Ġformation":8716,"756":8717,"ĠTracy":8718,"396":8719,"1998":8720,"ING":8721,"Ġ100000":8722,"Ġvertically":8723,"raph":8724,"',$":8725,"Ġsolves":8726,"ĠRadius":8727,"Ġprints":8728,"Ġgroceries":8729,"strip":8730,"77777777":8731,"oil":8732,"\\%$,":8733,"Ġroof":8734,"Ġcucumbers":8735,"Ġbicycle":8736,"ĠAssign":8737,"6666666666666666":8738,"pu":8739,"andard":8740,"Ġbegins":8741,"Ġconnected":8742,"boy":8743,"Ġ',":8744,"bulbs":8745,"Ġgender":8746,"eries":8747,"])[":8748,"Ġcontinued":8749,"otOf":8750,"ĠProduct":8751,"[\\":8752,"`,":8753,"reos":8754,"Ġshelf":8755,"lat":8756,"drive":8757,"'\",(":8758,"Ġxstep":8759,"expansion":8760,"mission":8761,"Ġystep":8762,"ĠAc":8763,"ciple":8764,"Ġinfer":8765,"Ġnovels":8766,"Ġassignments":8767,"toy":8768,"Ġdarkcolor":8769,"clip":8770,"ĠAH":8771,"\\,$,":8772,"Five":8773,"Ġtokens":8774,"Ġdest":8775,"candles":8776,"Ġytop":8777,"}}.$$":8778,"cool":8779,"ĠDave":8780,"Ġmillion":8781,"370":8782,"lead":8783,"Ġmac":8784,"ued":8785,"uten":8786,"smallskip":8787,"lst":8788,"hedral":8789,"xlimits":8790,"perpendicular":8791,"Ġ{'":8792,"ylimits":8793,"Ġybottom":8794,"2500":8795,"Ġinitialize":8796,"complexplane":8797,"Ġalbums":8798,"Ġinradius":8799,"Ġwearing":8800,"BottomTop":8801,"WX":8802,"Ġusegrid":8803,"Ġcomplexplane":8804,"harvest":8805,"155":8806,"Ġticklen":8807,"Ġticklength":8808,"Ġtickspace":8809,"Ġbulbs":8810,"ride":8811,"Ġaxispen":8812,"Ġwholetickdown":8813,"Ġtickdownlength":8814,"Ġtickdownbase":8815,"Ġwashing":8816,"Ġaxisarrowsize":8817,"ĠPerform":8818,"illed":8819,"Ġvectorarrowsize":8820,"lollipops":8821,"ĈĈĈĈ":8822,"ricia":8823,"ĠDar":8824,"Ġprinting":8825,"pills":8826,")\"":8827,"larger":8828,"Ġknowledge":8829,"Ġminimal":8830,"1600":8831,"Ġcarried":8832,"Ġinvert":8833,"Ġrode":8834,"ĠLuke":8835,"usegrid":8836,"ABCDEFGH":8837,"Ġsense":8838,"nel":8839,"ĠMs":8840,"untain":8841,"Ġimportant":8842,"OQ":8843,"sqr":8844,"Ġpaperclips":8845,"gridsize":8846,"ĠIII":8847,"LeftRight":8848,"iny":8849,"Ġflavors":8850,"));[/":8851,"Ġ..),":8852,"Ġlift":8853,"Rationalize":8854,"rais":8855,"mult":8856,"comput":8857,"Ġturned":8858,"Ġdecl":8859,"Ġwinnings":8860,"nor":8861,"carrots":8862,"Ġgrowing":8863,"Ġwrapping":8864,"votes":8865,"Ġchart":8866,"PD":8867,"pool":8868,"Ġascending":8869,"oke":8870,"Ġfilling":8871,"ĠRewrite":8872,"lvert":8873,"loads":8874,"Ġforming":8875,"Ġgrades":8876,"Ġdelivers":8877,"seas":8878,"phanie":8879,"ĠâĢ":8880,"risbe":8881,"nt":8882,"vant":8883,"Ġseashells":8884,"rvert":8885,"ĠAdding":8886,"Ġreplaced":8887,"ĠFlo":8888,"ĠJac":8889,"aby":8890,"ĠTicksArry":8891,"MM":8892,"stats":8893,"Ġparentheses":8894,"Ġ420":8895,"Ġconver":8896,"ĠJuly":8897,"potatoes":8898,"amed":8899,"mill":8900,"162":8901,"EA":8902,"Ġdecrease":8903,"$\\$":8904,"Ġscoops":8905,"}}$?":8906,"})\\":8907,"iley":8908,"flag":8909,"Ġequating":8910,"poon":8911,"Ġrecursion":8912,"prec":8913,"Ġopening":8914,"rewrite":8915,"parc":8916,".\\](":8917,"Ġjohn":8918,"ilks":8919,"Ġquadrilaterals":8920,"ĠPark":8921,"ducks":8922,"ĠDerivative":8923,"*/":8924,"Ġsea":8925,"Ġopens":8926,"fn":8927,"Ġversion":8928,"ĠDBC":8929,"\"+":8930,"ummy":8931,"ĠDEF":8932,"produced":8933,"Ġtoppings":8934,"TS":8935,"lia":8936,"Ġperiods":8937,"Ġskips":8938,"Qu":8939,"Ġjew":8940,"unitcircle":8941,"cky":8942,"ured":8943,"Ġfinishes":8944,"Ġarccos":8945,"oden":8946,"annot":8947,"535":8948,"Ġ{\\":8949,"Ġrates":8950,"wikipedia":8951,"Ġpush":8952,"2011":8953,"Cos":8954,"xlim":8955,"Ġ/>":8956,"Ġarch":8957,"clothes":8958,"letes":8959,"ki":8960,"lambdify":8961,"Ġtreat":8962,"deriv":8963,"antities":8964,"alan":8965,"pump":8966,"Ġplanets":8967,"video":8968,"Ġcollecting":8969,"Ġbabysitting":8970,"Ġholding":8971,"athers":8972,"ickness":8973,"ĠTeam":8974,"ticed":8975,"Ġcmath":8976,"ĠSide":8977,"dotted":8978,"Ġsweet":8979,"-(-":8980,"AK":8981,"ned":8982,"Ġsalad":8983,"364":8984,"Ġinfinitely":8985,"rina":8986,"container":8987,"ĠAaron":8988,"ĠAlpha":8989,"muffins":8990,"208":8991,"Ġdraws":8992,"ĠParabola":8993,"izer":8994,"Ġpeanuts":8995,"%%":8996,"ĠĠĠĠĠĠĠĠĠĠĠĠĠĠĠĠĠ":8997,"ĠAngela":8998,"Ġberries":8999,"Sy":9000,"Ġreached":9001,"hair":9002,"Âł":9003,"ĠDay":9004,".')":9005,"spital":9006,"Ġsite":9007,"sting":9008,"elif":9009,"boards":9010,"997":9011,"ĠIncre":9012,"Ġcraw":9013,"dotfactor":9014,"Ġ118":9015,"Ġspaced":9016,"pective":9017,"terns":9018,"imp":9019,"trucks":9020,"Ġinvolve":9021,"ĠBobby":9022,"sil":9023,"subset":9024,"Ġcompl":9025,"Ġ280":9026,"garden":9027,"Ġrepair":9028,"Ġtrisect":9029,"viol":9030,"Ġhat":9031,"Ġthemselves":9032,"ĠDeclare":9033,"ĠPlan":9034,"paintings":9035,"ĠJon":9036,"Once":9037,"Ġarbitrary":9038,"allowance":9039,"Ġsuccessfully":9040,"Ġcodes":9041,"Ġcalc":9042,"pretty":9043,"ĠHa":9044,"Ġcreating":9045,"every":9046,"Ġ260":9047,"Ġdresses":9048,"Ġgoldfish":9049,"312":9050,"ĠStandard":9051,"tires":9052,"ĠChe":9053,"Ġmathematic":9054,"Ġcircumcenter":9055,"Ġwage":9056,"cash":9057,"eqns":9058,"Ġteas":9059,"endra":9060,"gb":9061,"baskets":9062,"Ġready":9063,"pink":9064,"Ġbuses":9065,"235":9066,"hole":9067,"Ġlinetype":9068,"()))":9069,"Ġfactorized":9070,"worth":9071,"dinner":9072,"OM":9073,"whole":9074,"Ġplain":9075,"elry":9076,"ĠĠĠĠĠĠĠĠĠĠĠĠĠĠĠĠĠĠ":9077,")*\"$":9078,"=-\\":9079,"Ġprep":9080,"}\"":9081,"Ġearth":9082,"cret":9083,"Ġcla":9084,"Ġmotor":9085,"uke":9086,"Ġspacing":9087,"Ġexperience":9088,"sand":9089,"Ġintro":9090,"Ġcous":9091,"ĠAnn":9092,"ĠSimplifying":9093,"weekday":9094,"ĠBecause":9095,"Ġknives":9096,"afternoon":9097,"palindromes":9098,"Ġmarker":9099,"Ġbakes":9100,"ĠCan":9101,"204":9102,"ĠFour":9103,"[{":9104,"ĠBDC":9105,"ylim":9106,"isy":9107,"ĠBu":9108,"ĠBrenda":9109,"ĠOnce":9110,"Ġkno":9111,"Ġintercepts":9112,"\\[(\\":9113,"189":9114,"Ġtechn":9115,"Ġvisitors":9116,"Ġdeleg":9117,"12345":9118,"Ġpers":9119,"173":9120,"Ġvowel":9121,"Ġflies":9122,"Ġrecomm":9123,"Ġtossed":9124,"Ġchecked":9125,"Ġrather":9126,"proper":9127,"panish":9128,"Alternatively":9129,"melet":9130,"Ġprecision":9131,"randint":9132,"Ġbisectors":9133,"Ġpackets":9134,"Ġbatches":9135,"utting":9136,"gging":9137,"itor":9138,"post":9139,"foci":9140,"bowl":9141,"Ġentered":9142,"Ġpacked":9143,"[:,":9144,"Ġblueberry":9145,"Ġquantities":9146,"Ġ365":9147,"ĠMa":9148,"Ġdaisies":9149,")}}{":9150,"ĠNat":9151,"consecutive":9152,"Ġspoons":9153,"Ġmedals":9154,"TT":9155,"therwise":9156,"ĠDor":9157,"remainders":9158,"ION":9159,"sect":9160,"Ġdotfactor":9161,"Ġdf":9162,"pointed":9163,"ĠJackson":9164,"Combining":9165,"ilksh":9166,"Ġmeter":9167,"azz":9168,"hib":9169,"uary":9170,"Ġcandidates":9171,"ĠpA":9172,"aff":9173,"ĠPA":9174,"Ġyi":9175,"Ġworker":9176,"Ġfrog":9177,"Ġcarri":9178,"07":9179,"Ġfile":9180,")]^":9181,"Ġlifting":9182,"ĠKatie":9183,"Ġhens":9184,"248":9185,"stock":9186,"RR":9187,"ford":9188,"ĠBarbara":9189,"ĠRick":9190,"just":9191,"Ġpolygons":9192,"Ġhall":9193,"unity":9194,"Ġsecret":9195,"bucket":9196,"249":9197,"Ġfalse":9198,"Ġstones":9199,"Ġsoap":9200,"Ġviol":9201,"peaches":9202,"izontal":9203,"turtle":9204,"king":9205,"146":9206,"rigerator":9207,"Ġrisk":9208,"drinks":9209,"Ġbears":9210,"arri":9211,"Ġgrape":9212,"jec":9213,"ear":9214,"Ġcouple":9215,"Ġpd":9216,"isprime":9217,"ĠFran":9218,"000000":9219,"verse":9220,"ĠRepresent":9221,"223":9222,"ena":9223,"Ġtravelled":9224,"Ġwatches":9225,"Em":9226,"permutation":9227,"Ġconcentric":9228,"composition":9229,"Ġinternal":9230,"Dan":9231,"bby":9232,"Ġmir":9233,"ĠRon":9234,"Ġcharged":9235,"Jul":9236,"elic":9237,"Ġmethods":9238,"Ġ113":9239,"Ġassoci":9240,"Ġcandle":9241,"practice":9242,"ander":9243,"spots":9244,"Ġwedge":9245,"va":9246,"arning":9247,"wait":9248,"Ġsubtraction":9249,"kins":9250,"Ġavg":9251,"Ġdepth":9252,"Ġpassed":9253,"basketball":9254,"Ġchores":9255,"stripes":9256,"333333333333333":9257,"476":9258,"ĠStep":9259,"Ġeighth":9260,"amika":9261,"Ġbad":9262,"urses":9263,"uri":9264,"Ġcriter":9265,"idend":9266,"Ġhoney":9267,"igators":9268,"Ġinvited":9269,"ege":9270,"Ġcomparing":9271,"jan":9272,"Ġoccupied":9273,"Per":9274,"Ġthousandth":9275,"Ġconcert":9276,"__(":9277,"Ġmembership":9278,"sarah":9279,"svg":9280,"Ġbeach":9281,"kz":9282,"greater":9283,"ĠHeight":9284,"ĠFeb":9285,"Ġsquir":9286,"fol":9287,",...,":9288,"ĠHo":9289,"AQ":9290,"Ġlhs":9291,"Ġerasers":9292,"Ġplanks":9293,"Paul":9294,"('$":9295,"chocolates":9296,"ohnson":9297,"Ġowe":9298,"irate":9299,"ĠSpanish":9300,"ĠIts":9301,"Ġautom":9302,"ĠQueen":9303,"Ġ132":9304,"Segment":9305,"inet":9306,"ĠJanuary":9307,"Ġphase":9308,"ĠEmma":9309,"Ġanything":9310,"iced":9311,"323":9312,"Ġsmart":9313,"customer":9314,"Ġexternal":9315,"Ġtuples":9316,"Ġprogramming":9317,"inegar":9318,"Ġoldest":9319,"hund":9320,"378":9321,"Ġleopards":9322,"Ġsquaring":9323,"asymptote":9324,"She":9325,"vlift":9326,"ĠJar":9327,"gpt":9328,"475":9329,"IT":9330,"immy":9331,"Ġsupplementary":9332,"bracelets":9333,"Ġplayground":9334,"Ġthinking":9335,"ĠApril":9336,"ager":9337,"integrate":9338,"Ġsimpler":9339,"Ġdonate":9340,"polys":9341,"iled":9342,"asin":9343,"ichelle":9344,"))**(":9345,"hr":9346,"Ġarti":9347,"law":9348,"bre":9349,"clusive":9350,"sized":9351,"He":9352,"Ġsemester":9353,"Ġjumps":9354,"Alice":9355,"1002":9356,"mocr":9357,"paths":9358,"mbs":9359,"ĠPC":9360,"Ġnormally":9361,"Ġgrowth":9362,"Ġpt":9363,"Ġsleeps":9364,"uum":9365,"ĠNe":9366,"ĠNik":9367,"Ġemployee":9368,"north":9369,"expense":9370,"tiz":9371,"ĠAPB":9372,"Ġyaxis":9373,"Ġexceed":9374,"arage":9375,"mangoes":9376,"ĠOr":9377,"ulations":9378,"ysters":9379,"unately":9380,"olfram":9381,"Ġsession":9382,"climb":9383,"dividend":9384,"ĠâĪ":9385,"ĠJulie":9386,"laps":9387,"Ġimpossible":9388,"bricks":9389,"Ġgenerating":9390,"stead":9391,"Ġdance":9392,"was":9393,"factorized":9394,"ober":9395,"watch":9396,"ĠEllen":9397,"Ġselects":9398,"Ġriding":9399,"Ġsen":9400,"abytes":9401,"Ġguit":9402,"Ġtips":9403,"ĠMc":9404,"fire":9405,"subsets":9406,"eyes":9407,"rose":9408,"Ġ185":9409,"/((":9410,"llment":9411,"olden":9412,"fourths":9413,"Ġrecall":9414,"tens":9415,"gt":9416,"})}":9417,";\">":9418,"1818":9419,"hexcoords":9420,"Ð¸":9421,"Ġyearly":9422,"Ġkilometer":9423,"Ġthousands":9424,"Ġskip":9425,"wire":9426,"Ġbra":9427,"Ġcoat":9428,"spending":9429,"Ġpromotion":9430,"(\"\",":9431,"NN":9432,"Ġsetup":9433,"Ġplacing":9434,"Ġds":9435,"Ġagre":9436,"ĠTina":9437,"**-":9438,"Ġ104":9439,"Ġnotebook":9440,"ĠCounter":9441,"ĠCombine":9442,"CX":9443,"Ġsport":9444,"planted":9445,"there":9446,"Ġnovel":9447,"Ġori":9448,"bmod":9449,"oting":9450,"336":9451,"lings":9452,"ahs":9453,"Ġmut":9454,"3846":9455,"]{\\":9456,"Ġdates":9457,"Ġaf":9458,"oline":9459,"repeating":9460,"ĠCF":9461,"Ġuser":9462,"olph":9463,"GPT":9464,"Ġdessert":9465,"opted":9466,"patch":9467,"Ġmonkey":9468,"semb":9469,"Ġrounding":9470,"Billy":9471,"Ġ343":9472,"Ġfully":9473,"ĠJenna":9474,")$\",(":9475,"fifths":9476,"340":9477,"Ġpeppers":9478,"hyperbola":9479,"cell":9480,"Ġsend":9481,"Ġje":9482,"Base":9483,"Ġ\"\"":9484,"','":9485,"368":9486,"Ġshakes":9487,"measure":9488,"3600":9489,"uches":9490,"ĠĠĠĠĠĠĠĠĠĠĠĠĠĠĠĠĠĠĠĠ":9491,"ĠWilliam":9492,"IL":9493,"ĠOP":9494,"Ten":9495,"Ġhelper":9496,"389":9497,"Ġfarther":9498,"Ġinstance":9499,"Rel":9500,"iture":9501,"actly":9502,"Ġjam":9503,"ung":9504,"Ġnumerators":9505,"stal":9506,"broken":9507,"need":9508,"cleaning":9509,"PF":9510,"Ġ1024":9511,"Ġofficer":9512,"Ġ({":9513,"local":9514,"stickframe":9515,"Ġ$(-\\":9516,"Ġ~":9517,"ĠVenn":9518,"Ġtheater":9519,"asm":9520,"Ġbiggest":9521,"Ġtitle":9522,"lights":9523,"Ġorient":9524,"Ġbeds":9525,"pC":9526,"session":9527,"jectile":9528,"Ġpumpkin":9529,"Ġorganization":9530,"Ġsauce":9531,"Ġbol":9532,"movies":9533,"Ġrelated":9534,"different":9535,"visitors":9536,"tx":9537,"Ġ\\#\\":9538,"Ġignore":9539,"ications":9540,"worker":9541,"jars":9542,")\")":9543,"Ed":9544,"Ġzeta":9545,"Or":9546,"Ġrains":9547,"oto":9548,"Ġrefill":9549,"Firstly":9550,"Ġsentence":9551,"ĠGive":9552,"Ġoffer":9553,"take":9554,"Ġhandle":9555,"Ġassignment":9556,"Ġ{}\".":9557,"]}\")":9558,"sit":9559,"ĠDr":9560,"1400":9561,"stars":9562,"ĠHyperbola":9563,"Ġcompound":9564,"]})":9565,"cident":9566,"Ġcommission":9567,"abri":9568,"uto":9569,"HC":9570,"ĠFive":9571,"stackrel":9572,"girl":9573,"heres":9574,"ĠLabel":9575,"composite":9576,"road":9577,"]):":9578,"udge":9579,"tany":9580,"284":9581,"urations":9582,"rounds":9583,"gifts":9584,"\\)":9585,"goats":9586,"epsilon":9587,"onnie":9588,"agons":9589,"1100":9590,"ĠYour":9591,"rained":9592,"ĠJustin":9593,"ĠXYZ":9594,"Ġpots":9595,"elle":9596,"ĠLucy":9597,"pill":9598,"tro":9599,"sie":9600,"argo":9601,"lyn":9602,"ĠRosen":9603,"Ġfer":9604,"clic":9605,"alex":9606,"determ":9607,"Ġagreed":9608,"Ġmer":9609,"Ġserve":9610,"Ðµ":9611,"scoops":9612,"184":9613,"Ġdepart":9614,"ĠCor":9615,"ĠManu":9616,"ĠRose":9617,"|$,":9618,"Jason":9619,"Ġprincipal":9620,"Ġnotes":9621,"Ġweekdays":9622,"Ġdps":9623,"lav":9624,"frown":9625,"ptagon":9626,"Ġprojectile":9627,"revor":9628,"Ġalign":9629,"Ġrese":9630,"site":9631,"iders":9632,"Ġrained":9633,"bisector":9634,"ĠKyle":9635,"rors":9636,"Ġpresents":9637,"ĠLarry":9638,"Ġcharity":9639,"Ġcomputations":9640,"785":9641,"gener":9642,"towels":9643,"Ġmention":9644,"^(-":9645,"Ġ375":9646,"Ġsentences":9647,"Ġ175":9648,"Ġwednesday":9649,")^^(":9650,"Ġ--(":9651,"ĠCarrie":9652,"xscale":9653,"suppl":9654,"Ġ2016":9655,"Ġ153":9656,"Ġdealt":9657,"Ġrevolutions":9658,"Ġmultiplicity":9659,"Ġenrolled":9660,"Ġdish":9661,"Ġcredit":9662,"Ġstorage":9663,"0001":9664,"Ġcsc":9665,"ĠLater":9666,"\"/>":9667,"runs":9668,"Setting":9669,"notes":9670,"Ġconsumed":9671,")}\\]":9672,"Ġscoop":9673,"Ġsemicircles":9674,"dep":9675,"Ġfre":9676,"brothers":9677,"llam":9678,"Ġenvelopes":9679,"thia":9680,"innie":9681,"OO":9682,"dney":9683,"Ġcls":9684,"ĠĠĠĠĠĠĠĠĠĠĠĠĠĠĠĠĠĠĠĠĠĠĠčĊ":9685,"630":9686,"Ġdriver":9687,"Ġexercise":9688,"ico":9689,"Bx":9690,"({'":9691,"Second":9692,"(-(":9693,"Ġcentimeter":9694,"aylor":9695,"dices":9696,"Ġsimulate":9697,"ayden":9698,"tau":9699,"coef":9700,"Ġlsf":9701,"Ġnx":9702,"ĠOA":9703,"Ġchoir":9704,"cument":9705,"eaters":9706,"poles":9707,"Ġwooden":9708,"lighters":9709,"estyle":9710,"Ġdiscounts":9711,"%,":9712,"annels":9713,"ĠRep":9714,"apter":9715,"158":9716,"Ġowner":9717,"Ġrestrict":9718,"ĠWendy":9719,"ĠToday":9720,"ĠNum":9721,"Ġarranging":9722,"Ġrealizes":9723,"pters":9724,"annotate":9725,"tempts":9726,"Ġbones":9727,"Ġpacking":9728,"Ġcontribute":9729,"Relative":9730,"Ġ640":9731,"lpic":9732,"Ġmarshmallows":9733,"catch":9734,"ĠCindy":9735,"ĠMy":9736,"Ġbubble":9737,"923076":9738,"file":9739,"twenty":9740,"Ġ223":9741,"Ġwaiting":9742,"interior":9743,"ĠOC":9744,"Ġvisited":9745,"2017":9746,"Ġstripe":9747,"})$,":9748,"!/":9749,"Ġinvolving":9750,"Ġearrings":9751,"ĠLake":9752,"stairs":9753,"ÏĢ":9754,"Ġintersectionpoints":9755,"resident":9756,"cia":9757,"ameron":9758,"missing":9759,"152":9760,"Ġgumballs":9761,"xx":9762,"Ġpretty":9763,"jellybeans":9764,")^{\\":9765,"Ġrefrigerator":9766,"vertical":9767,"186":9768,"Ġstarters":9769,"ĠCDE":9770,"vas":9771,"distrib":9772,"Ġpayments":9773,"reduced":9774,"Ġwest":9775,"vectors":9776,"AAAA":9777,"angaro":9778,"Ġaccident":9779,"ifference":9780,"lions":9781,"Ġbiscuits":9782,"ands":9783,"Don":9784,"future":9785,"|$?":9786,"ube":9787,"silver":9788,"tall":9789,"egular":9790,"ĠColl":9791,"Ġmpmath":9792,"Ġrides":9793,"Ġrotating":9794,"rianna":9795,"ĠInteg":9796,"1005":9797,"Ġslots":9798,"closest":9799,"207":9800,"vy":9801,"heavy":9802,"âĢ¦âĢ¦":9803,"bigcirc":9804,"ĠKrist":9805,"201":9806,"Last":9807,"Ġ{\"":9808,"AOB":9809,"$|":9810,"Ġarguments":9811,"RHS":9812,"Ġorthocenter":9813,"________":9814,"west":9815,"ĠCy":9816,"ĠJamie":9817,"![":9818,"uren":9819,"Ġbasil":9820,"Ġfacilit":9821,"Ġformulate":9822,"ound":9823,"875":9824,"completed":9825,"Ġ315":9826,"omial":9827,"inds":9828,"ĠDP":9829,"Ġloads":9830,"Ġflipped":9831,"Jenny":9832,"lorida":9833,"Ġmutually":9834,"ĠInput":9835,"chat":9836,"ACB":9837,"cherry":9838,"Ġcrosses":9839,"Ġhambur":9840,"Ġpicket":9841,"occup":9842,"Ġoptimal":9843,"ĠPlugging":9844,"Ġtreats":9845,"Ġrecords":9846,"ĠRoger":9847,"Ġassumption":9848,"lock":9849,"bling":9850,"trapezoid":9851,"uration":9852,"presidents":9853,"Ġservice":9854,"nail":9855,"iy":9856,"lapping":9857,"ĠFermat":9858,"hairc":9859,"Ġcoprime":9860,"action":9861,"Ġfacilitate":9862,"represent":9863,"Ġcouples":9864,"velo":9865,"ĠSandy":9866,"Ġprinciple":9867,"Ġbrackets":9868,"003":9869,"Ġspring":9870,"aurice":9871,"ilet":9872,"currentprojection":9873,"EN":9874,"Jane":9875,"),\\]":9876,"ĠOB":9877,"horizontal":9878,"Ġfore":9879,"Ġcrackers":9880,"Ġgolf":9881,"tomato":9882,"alt":9883,"ĠExpression":9884,"astic":9885,")<":9886,"Ġtell":9887,"Ġmarath":9888,"Ġuseful":9889,"GG":9890,"ĠCity":9891,"Ġappropri":9892,"rob":9893,"246":9894,"ĠPrime":9895,"wealth":9896,"213":9897,"fabric":9898,"ardo":9899,"Ġsectors":9900,"Ġmeasuring":9901,"Ġcab":9902,"sight":9903,"ĠKenny":9904,"Ġ-->":9905,"iest":9906,"elo":9907,"quid":9908,"Ġlisten":9909,"itemize":9910,"depth":9911,"During":9912,"Ġdiamond":9913,"Ġachieve":9914,"Ġ}\\":9915,"spaces":9916,"Ġheptagon":9917,"messages":9918,"fortunately":9919,"^-":9920,"Ġvamp":9921,"ĠFormula":9922,"anches":9923,"Ġproce":9924,"Ġrightmost":9925,"ĠFormat":9926,"dry":9927,"Ġorch":9928,"mocrats":9929,"Ġranks":9930,"Tony":9931,"Ġpx":9932,"arles":9933,"ĠChoose":9934,"illy":9935,"Ġarr":9936,"Ġcoming":9937,"billy":9938,"sword":9939,"ĠGeometry":9940,"LLM":9941,"dend":9942,"Ġbacon":9943,"Ġathlete":9944,"ĠAp":9945,"changed":9946,"166":9947,"ĠRemove":9948,"inos":9949,"Ġell":9950,"Ġgranddaughters":9951,"ĠACE":9952,"yesterday":9953,"LO":9954,"Ġslow":9955,"Ġsteak":9956,"FC":9957,")[-":9958,"asmine":9959,"Ġharvested":9960,"ylie":9961,"Ġmel":9962,"Ġweekends":9963,")}(":9964,"ĠMx":9965,"Ġindependently":9966,"ĠCommonwealth":9967,"UV":9968,"outs":9969,"Ġpq":9970,"ician":9971,"coming":9972,"numpy":9973,"elinda":9974,"ĠHT":9975,"Ġtelevision":9976,"took":9977,"Ġelectric":9978,"ĠLily":9979,"crates":9980,"ĠRandy":9981,"BT":9982,"Ġteeth":9983,"ĠAlf":9984,"Ġ106":9985,"ĠCz":9986,"Ġcorrespond":9987,"Ġraisins":9988,"ĠĠĠĠĠĠĠĠĠĠĠĠĠĠĠĠĠĠĠĠĠĠĠĠĠĠĠĠĠĠĠĠĠĠĠĠĠĠĠĠĠĠĠĠĠĠĠĠĠĠĠĠĠĠĠčĊ":9989,"¤´":9990,"Ġdepends":9991,"444":9992,"rilateral":9993,"Ġcateg":9994,"ÑĢ":9995,"ĠRow":9996,"504":9997,"Ġnights":9998,"ĠWy":9999,"Ġguesses":10000,"evalu":10001,"î¤´":10002,"ĠEquate":10003,"~~":10004,"watched":10005,"throws":10006,"ĠMathema":10007,"Equating":10008,"Ġnonreal":10009,"Ġrepetition":10010,"aming":10011,"deck":10012,"Ġsupply":10013,"122":10014,"304":10015,"positions":10016,"Ġfuture":10017,"ublicans":10018,"ZZ":10019,"00000000000":10020,"Ġindicated":10021,"batches":10022,"ga":10023,"Ġencount":10024,"Ġmult":10025,"died":10026,"Ġpopular":10027,"!}{(":10028,"6000":10029,"Ġfinite":10030,"Ġcombo":10031,"789":10032,"Ġprepar":10033,"MAT":10034,"rystal":10035,"prev":10036,"brt":10037,"Ġquickly":10038,"Ġcartesian":10039,"Ġpatterns":10040,"Piecewise":10041,"Ben":10042,"yd":10043,"Ġ625":10044,"Ġroles":10045,"fic":10046,"Ġgarage":10047,"ĠHenry":10048,"Ġbiking":10049,"solving":10050,"Ġlect":10051,"sects":10052,"multiply":10053,"neighbor":10054,"driving":10055,"erk":10056,"ĠII":10057,"cartons":10058,"Ġsock":10059,"altitude":10060,"ifty":10061,"Ġcubed":10062,"Ġturtle":10063,"ĠNorth":10064,"committees":10065,"Ġexercis":10066,",''":10067,"Ġlogic":10068,"Ġopened":10069,"sour":10070,"itch":10071,"olen":10072,"arti":10073,"ingles":10074,"exper":10075,"Ġlands":10076,"ĠPop":10077,"224":10078,"ima":10079,"WXYZ":10080,"Ġcombining":10081,"alty":10082,"Ġhowever":10083,"Ġwhom":10084,"Ġtaxi":10085,"hels":10086,"recor":10087,"Ġupdate":10088,"ifteen":10089,"aret":10090,"Ġ129":10091,"phe":10092,"Ġposts":10093,"Ġfalls":10094,"Ġloves":10095,"Ġtemperatures":10096,"Ġrearranging":10097,"nb":10098,"Ġtray":10099,"shots":10100,"[::-":10101,"ĠAverage":10102,"|.\\]":10103,"27272727":10104,"Anna":10105,"ĠMas":10106,"Pp":10107,"apsed":10108,"Ġbroad":10109,"Sarah":10110,"mike":10111,"996":10112,"Ġalternate":10113,"ugust":10114,")+\"":10115,"Ġyoungest":10116,"306":10117,"uds":10118,"erg":10119,"ĠWhile":10120,"2700":10121,"Ġevaluates":10122,"bonus":10123,"Ġvisits":10124,"MC":10125,"Ġsick":10126,"Ġstreets":10127,"rections":10128,"ateg":10129,"Ġcontradiction":10130,"Ġgoalie":10131,"Ġsports":10132,"732":10133,"ĠMan":10134,"ĠGPT":10135,"ego":10136,"sequences":10137,"Ġhuman":10138,"unnel":10139,"198":10140,"NNW":10141,"bedroom":10142,"absent":10143,"arranged":10144,"ĠCol":10145,"Real":10146,"Ġscenario":10147,"Ġinvalid":10148,"sons":10149,"They":10150,"Ġtemp":10151,"Ġhotel":10152,"president":10153,"MB":10154,"diagram":10155,"305":10156,"Ġanswered":10157,"])]":10158,"ĠPrinting":10159,"Ġ&<":10160,"Ġdeclare":10161,"14285714":10162,"grapes":10163,"ĠChandra":10164,"Ġreflections":10165,"Ġjeans":10166,"Ġtrash":10167,"Ġboss":10168,"scar":10169,"}{(\\":10170,"ĠSue":10171,"bounds":10172,"$\",.":10173,"ĠChat":10174,"Ġsemiperimeter":10175,"burgers":10176,"1999":10177,"ĠChristmas":10178,"decre":10179,"Ġminer":10180,"mediumgray":10181,"ĠJessica":10182,"crackers":10183,"6667":10184,"Ġdescription":10185,"Ġstools":10186,"Ġscar":10187,"takes":10188,"Ġmultiplier":10189,"Ġpatients":10190,"ptp":10191,"ĠDean":10192,"ective":10193,"Ġtanks":10194,"Ġblood":10195,"Ġdeposit":10196,"duc":10197,"Ġquit":10198,"ought":10199,"suit":10200,"ubber":10201,"buying":10202,"ĠCarson":10203,"larged":10204,"Ġplanet":10205,"recipro":10206,"wra":10207,"Ġ480":10208,"isinstance":10209,"Ġuseticks":10210,"sumes":10211,"Ġdividend":10212,"squig":10213,"Ġlocation":10214,"\"))":10215,"[[":10216,"Ġbd":10217,"follow":10218,"Polygon":10219,"Long":10220,"Ġstudying":10221,"Ġtribe":10222,"Ġ147":10223,"'])":10224,"Ġstone":10225,"success":10226,"tsh":10227,"Ġreally":10228,"thest":10229,"fries":10230,"Ġlosing":10231,"wheel":10232,"collection":10233,"ogebra":10234,"Ġtape":10235,"Ġquarterly":10236,"ilma":10237,"ĠMaurice":10238,"Ġglo":10239,"ister":10240,"raise":10241,"handshakes":10242,"Integ":10243,"south":10244,"Ġcoconut":10245,"16666666666666":10246,"Ġrunners":10247,"Ġcounterclockwise":10248,"Ġtripled":10249,"Ġem":10250,"body":10251,"ged":10252,"294":10253,"Ġevaluating":10254,"abella":10255,"wed":10256,"similar":10257,"shape":10258,"select":10259,"tivity":10260,"990":10261,"PE":10262,"Ġquite":10263,"Ġbridge":10264,"command":10265,"emma":10266,"Ġmetal":10267,"Ġreversed":10268,"Ġsubst":10269,"increased":10270,"Ġshares":10271,"lowery":10272,"ĠGeorg":10273,"beef":10274,"uppery":10275,"Ġ152":10276,"289":10277,"Ġexcluding":10278,"ĠPolynomial":10279,"Ġsaf":10280,"ĠLam":10281,"bugs":10282,"Ġduplicates":10283,"Ġarctan":10284,"Ġink":10285,"Ġfewest":10286,"GF":10287,"outer":10288,"context":10289,"Ball":10290,"BAD":10291,"|=|":10292,"Ġvanilla":10293,"Ġfollowers":10294,"Ġ\"\\":10295,"diag":10296,"Ġ107":10297,"Ġnumerically":10298,"Ġcalculus":10299,"stret":10300,"Ġtranslated":10301,"Ġregard":10302,"abil":10303,"^{[":10304,"sigma":10305,"668":10306,"roy":10307,"Ġhal":10308,"pine":10309,"arithmetic":10310,"colm":10311,"fers":10312,".\"\"\"":10313,"eons":10314,"ernels":10315,"risbee":10316,"Ġpp":10317,"Ġware":10318,"returned":10319,"iant":10320,"matches":10321,"Ġradic":10322,"Ġcircumradius":10323,"Ġ1999":10324,"rule":10325,"ogurt":10326,"ĠRS":10327,"Ġrequirements":10328,"ffeine":10329,"primefactors":10330,"posited":10331,"Ġ138":10332,"TE":10333,"}\".":10334,"qq":10335,"rightpt":10336,"leftpt":10337,"fold":10338,"}}[":10339,"char":10340,"Ġ750":10341,"ĠAED":10342,"assign":10343,"!}+\\":10344,"ĠAsh":10345,"ĠOtherwise":10346,"167":10347,"Ġ114":10348,"Ġpancakes":10349,"Ġamoebas":10350,"cide":10351,"argets":10352,"sodas":10353,"Ġsignific":10354,"timate":10355,"Gre":10356,"bikes":10357,"Ġfactorizations":10358,"Ġshelves":10359,"Ġcriteria":10360,"ĠLiz":10361,"Ġdestination":10362,"Mrs":10363,"Ġboat":10364,"176":10365,"448":10366,"sicle":10367,"Reference":10368,"Ġslips":10369,"hard":10370,"Ġcarrying":10371,"ĠOver":10372,"Ġdirections":10373,"rainfall":10374,"Ġlights":10375,"ĠSelect":10376,"ya":10377,"Ġoften":10378,"Ġhik":10379,"Ġlineups":10380,"complete":10381,"Ġsugg":10382,"Ġ145":10383,"Ġconic":10384,"Ġcraft":10385,"Ġsoft":10386,"Ġfrequency":10387,"Ġshelter":10388,"ABP":10389,"ĠĠĠĠčĊ":10390,"Ġspheres":10391,"Ġlasts":10392,"Ġsuccessful":10393,"Ġsne":10394,"ADB":10395,"iffany":10396,"congruent":10397,"505":10398,"rich":10399,"guest":10400,"Ġtrailer":10401,"pints":10402,"ĠMarcus":10403,"necklaces":10404,"crate":10405,"Ġgradient":10406,"orders":10407,"00000000000000000000000000000000000000000000000000000000000000000000000000000000000000000000000000000000000000000000000000000000":10408,"melons":10409,"idi":10410,"Ġ340":10411,"Ġlettuce":10412,"ĠTrig":10413,"Ġsolns":10414,"combo":10415,"Ġfishing":10416,"Ġconfigurations":10417,"jors":10418,"uid":10419,"Ġthought":10420,"Ġfine":10421,"ĠCB":10422,"Ġshark":10423,"ĠVariab":10424,"fuel":10425,"Ġjoin":10426,"delivered":10427,"modulus":10428,"Ġstem":10429,"variables":10430,"Ġemb":10431,"enneth":10432,"warded":10433,"stretch":10434,"Ġconfiguration":10435,"cro":10436,"Ġvideos":10437,"force":10438,"finity":10439,"close":10440,"Lo":10441,"ona":10442,"cds":10443,"ckey":10444,"elace":10445,"ĠStephanie":10446,"194":10447,")+(-":10448,"chol":10449,"Ġ143":10450,"stat":10451,"Ġjogging":10452,"Ġlamp":10453,"Ġsci":10454,"mins":10455,"unches":10456,"ody":10457,"Ap":10458,"hered":10459,"ora":10460,"ortho":10461,"Ġcountries":10462,"swim":10463,"Ġartic":10464,"intervals":10465,"placed":10466,"142857142857142857142857":10467,"Ġjerse":10468,"song":10469,"Bigr":10470,"Ġproportionality":10471,"Tw":10472,"Bigl":10473,"ĠCAB":10474,"))$,":10475,"Ġspecify":10476,"emails":10477,"Ġpos":10478,"ĠApp":10479,"George":10480,"Ġbeats":10481,"ĠAustin":10482,"455":10483,"varphi":10484,"Ġbrick":10485,"Ġmouse":10486,"Ġmultipliers":10487,"499":10488,"mpts":10489,"ĠSta":10490,"Ġovertime":10491,"12000":10492,"below":10493,"6789":10494,"vegetables":10495,"Ġspecified":10496,"}$}.":10497,"Ġexponenti":10498,"Ġearli":10499,"Ġpace":10500,"jam":10501,"Ġreasoning":10502,"arons":10503,"ĠDecember":10504,"sitive":10505,"reach":10506,"ias":10507,"Ġears":10508,"Ġsalt":10509,"Ġpotato":10510,"Ġmanually":10511,"Ġmagaz":10512,"Ġnumeric":10513,"sail":10514,"uz":10515,"dad":10516,"gh":10517,"horses":10518,"ĠRich":10519,"tilde":10520,"hop":10521,"Ġfrank":10522,"probs":10523,"Ġjames":10524,"Ġuniqu":10525,"Ġcarn":10526,"candidate":10527,"Ġeye":10528,"ĠAli":10529,"Ġstored":10530,"Ġnewspaper":10531,"Di":10532,"Ġlions":10533,"olphins":10534,"sector":10535,"Ġ1987":10536,"Ġconfir":10537,"Ġweather":10538,"fix":10539,"ture":10540,"203":10541,"stra":10542,"ZY":10543,"Ġchat":10544,"exponents":10545,"Ġforest":10546,">>":10547,"yearly":10548,"177":10549,"Ġcable":10550,"Ġtyped":10551,"Ġtyping":10552,"Ġdepending":10553,"Ġsliced":10554,"Joe":10555,"ping":10556,"Ġexit":10557,"ccol":10558,"Ġsupposed":10559,"4641":10560,"ENE":10561,"Ġ(\"":10562,"Ġmatching":10563,"Ġstruct":10564,"Ġcaf":10565,"}}\\\\":10566,"ĠYZ":10567,"Ġ555":10568,"Ġtract":10569,"233":10570,"Ġrh":10571,"Ġ2013":10572,"Ġ840":10573,"achary":10574,"Ġhired":10575,"ĠPermutations":10576,"brushes":10577,"Ġprovides":10578,"iliters":10579,"Math":10580,"Ġdonation":10581,"homework":10582,"Ġinfl":10583,"Pr":10584,"Ġmachines":10585,"borrowed":10586,"Ġiteration":10587,"Ġwashed":10588,"attendees":10589,"ĠValueError":10590,"]+":10591,"cones":10592,"Ġlawns":10593,"Ġport":10594,"ĠMB":10595,"Ġprimitive":10596,"eli":10597,"ĠJones":10598,"icia":10599,"Ġwed":10600,"Ġoutputs":10601,"Ġmentioned":10602,"Ġindices":10603,"iors":10604,"Ġsli":10605,"209":10606,"nut":10607,"pB":10608,"strings":10609,"Ġradio":10610,"Ġeasiest":10611,"flav":10612,"ĠSheila":10613,"ĠGrace":10614,"Both":10615,"ML":10616,"ĠBPC":10617,"Ġgx":10618,"cosine":10619,"ĠCarter":10620,"Ġassert":10621,"ĠBruce":10622,"rehen":10623,"ĠĠĠĠĠĠĠĠĠĠĠĠĠĠĠĠĠĠĠĠĠĠĠĠĠĠĠ":10624,"327":10625,"kid":10626,"opposite":10627,"Ġladder":10628,"Ġaccum":10629,"Ad":10630,"2012":10631,"Ġbrand":10632,")/((":10633,"Ġwindows":10634,"286":10635,"Ġsidewalk":10636,"Ġbody":10637,"TR":10638,"loaded":10639,"bec":10640,"Ġfacts":10641,"Ġcomponent":10642,"pqr":10643,"Ġpulled":10644,"Ġtouches":10645,"render":10646,"Ġexhib":10647,"157":10648,"Ġfees":10649,"Ġmatters":10650,"Ġjogs":10651,"hips":10652,"Ġ1993":10653,"Ġpudd":10654,"dar":10655,"stics":10656,"Ġ1100":10657,"Ġ158":10658,"Rectangle":10659,"Ġjazz":10660,"Ġinit":10661,"ĠFigure":10662,"Ġteach":10663,"icity":10664,"christ":10665,"ĠEndArrow":10666,"Ġ\\%":10667,"Ġvary":10668,"501":10669,"yscale":10670,"answered":10671,"jumps":10672,"urrences":10673,"ĠPlane":10674,"Ġbouquet":10675,"Ġthrew":10676,"tings":10677,"Ġiy":10678,"ifer":10679,"dresses":10680,"segments":10681,"Ġpairwise":10682,"ĠFlorida":10683,"660":10684,"eating":10685,"Ġreplacing":10686,"revolution":10687,"784":10688,"wis":10689,"Ġ987":10690,"ĠTw":10691,"385":10692,"Ġdio":10693,"Ġgenerates":10694,"Ġyarn":10695,"widehat":10696,"Ġbell":10697,"ersenne":10698,">:":10699,"}}=":10700,"previous":10701,"ĠTyler":10702,"teams":10703,"Ġ131":10704,"Ġtill":10705,"Ġcylinders":10706,"allen":10707,"Ġpapers":10708,"duardo":10709,"markinterval":10710,"Ġislands":10711,"leap":10712,"ttqq":10713,"Ġisn":10714,"Ġrequirement":10715,"Ġjewelry":10716,"Phi":10717,"Ġko":10718,"Ġpreparing":10719,"Ra":10720,"Ġmonkeys":10721,"Ġoppon":10722,"Ġinterpre":10723,"Ġclimbed":10724,"Warning":10725,"bad":10726,"Ġmanipulation":10727,"ism":10728,"texttt":10729,"minimize":10730,"780":10731,"Ġveget":10732,"pattern":10733,"Ġsweaters":10734,"Ġreport":10735,"ĠEE":10736,"141":10737,"Use":10738,"ĠFactorize":10739,"Ġlives":10740,"Ġ221":10741,"ducing":10742,"Janet":10743,"evening":10744,"ĠRatio":10745,"unior":10746,"ĠSplit":10747,"penAI":10748,"reflected":10749,"Ġ2015":10750,"views":10751,"hold":10752,"Ġsummary":10753,"Ġinsight":10754,"Ġchanging":10755,"Ġapproximation":10756,"iling":10757,"ih":10758,"gent":10759,"Ġdecorations":10760,"ibble":10761,"Ġconne":10762,"Ġsignificant":10763,"Ġ245":10764,"Ġmeg":10765,"1300":10766,"1995":10767,"ercial":10768,")[:":10769,"figsize":10770,"okes":10771,"Ġ399":10772,"ĠRobert":10773,"ĠNoah":10774,"seventh":10775,"sine":10776,"ĠMulti":10777,"Ġlessons":10778,"ighed":10779,"Ġcomposition":10780,"graphy":10781,"alice":10782,"Ġkeeping":10783,"164":10784,"1990":10785,"324324":10786,"Ġfx":10787,"Ġmodels":10788,"Ġatt":10789,"Ġads":10790,"Ġcance":10791,"Kim":10792,"ĠpC":10793,"Ġcomprehen":10794,"Ġdiophantine":10795,"Ġbugs":10796,"Ġcyclic":10797,"})\\]":10798,"hig":10799,"ipp":10800,"ĠGCF":10801,"ano":10802,"ĠTru":10803,"Ġflavor":10804,"Furthermore":10805,"legend":10806,"gly":10807,"\",(.":10808,"Po":10809,"Ġdecomposition":10810,"joint":10811,"ĠFebruary":10812,"459":10813,"Ġstrateg":10814,"Ġfacing":10815,"ĠMeanwhile":10816,"ĠRight":10817,"baby":10818,"Ġ\"/":10819,"isherman":10820,"cursive":10821,"annual":10822,"ĠPi":10823,"Ġbookstore":10824,"PO":10825,"locity":10826,"Ġ432":10827,"anya":10828,"OY":10829,"ĠLucas":10830,"Ġbeat":10831,"Ġstocks":10832,"$;":10833,"AS":10834,"(\"$\"+":10835,"onical":10836,"153846":10837,"EB":10838,"Ġtunnel":10839,"newcommand":10840,"kes":10841,"Ġclockwise":10842,"TC":10843,"xf":10844,"ĠPG":10845,"Ġprofits":10846,"1989":10847,"960":10848,"Ġoreos":10849,"Ġineq":10850,"Ġsnacks":10851,"ĠCoordinates":10852,"Ġuni":10853,"Ġpuzzle":10854,"nine":10855,"inten":10856,"bell":10857,"EG":10858,"history":10859,"Ġcp":10860,"Ġsupermarket":10861,"ccoli":10862,"atherine":10863,"()`":10864,"blique":10865,"Ġbushes":10866,"();":10867,"spoons":10868,"Ġmass":10869,"Ġill":10870,"Ġdoctor":10871,"ĠCombin":10872,"ĠFin":10873,"ickers":10874,"vena":10875,"ĠEC":10876,"ĠJohnny":10877,"Ġwarehouse":10878,"ĠBp":10879,"tooth":10880,"Ġbutterflies":10881,"ights":10882,"runo":10883,"Ġawarded":10884,"Ġ330":10885,"Ġended":10886,"ali":10887,"Ġmg":10888,"ĠBF":10889,"ĠThomas":10890,"conversion":10891,"Ġ3600":10892,"bicy":10893,"Ġ156":10894,"Ġloaf":10895,"Ġattendees":10896,"Ġalternative":10897,"ette":10898,"Ġfundrais":10899,"UN":10900,"ler":10901,"Ġpipes":10902,"missed":10903,"1000000":10904,"Ġdistributive":10905,")+\"$\",(":10906,"how":10907,"Nx":10908,"candidates":10909,"]},":10910,"Ġbackward":10911,"Ġthrowing":10912,"Ġweighed":10913,"gart":10914,"Ġhalfway":10915,"ĠJohnson":10916,"Ġexceeds":10917,"\"],":10918,"iravena":10919,"Ġenlarged":10920,"Ġcontext":10921,"390":10922,"266":10923,"760":10924,"Ġ109":10925,"ĠHans":10926,"ĠAust":10927,"template":10928,"becca":10929,"Ġuniquely":10930,"Ġ142":10931,"Your":10932,"Ġtargets":10933,"Ġconcept":10934,"frogs":10935,"leaf":10936,"ĠDemocrats":10937,"hundred":10938,"apartment":10939,"Ġ1996":10940,"station":10941,"365":10942,"}~?$$":10943,"Ġrelationships":10944,"ccc":10945,"rabbit":10946,"Ġseasons":10947,"ĠGerald":10948,"!$?":10949,"]}{":10950,"eteria":10951,"indergart":10952,"Ġsnake":10953,"Ġdisks":10954,"computer":10955,"ddy":10956,"sample":10957,"zip":10958,"cription":10959,"urniture":10960,"amon":10961,"ĠWalk":10962,"Ġrental":10963,"Ġfits":10964,"Ġhospital":10965,"define":10966,"Juan":10967,"deposit":10968,"mode":10969,"Ġshampoo":10970,"widetilde":10971,"iment":10972,"usr":10973,"machine":10974,"ĠBarry":10975,"Ġadverti":10976,"lie":10977,"sweets":10978,"182":10979,"CDE":10980,"Ġmango":10981,"RootOf":10982,"ĠEn":10983,"etric":10984,"ĠHannah":10985,"ĠBeat":10986,"modulo":10987,"Ġpartitions":10988,"Ġschools":10989,"Ġdecade":10990,"resa":10991,"Ġsupporting":10992,"toparc":10993,"Ġfroods":10994,"ticing":10995,"asted":10996,"Ġrests":10997,"Ġcomposed":10998,"angaroos":10999,"Where":11000,"CAB":11001,"frank":11002,")',":11003,"Ġ1995":11004,"})}{":11005,"ĠRepublicans":11006,"Ġbicycles":11007,"}[":11008,"ennifer":11009,"Ġprofession":11010,"AAB":11011,"Ġsits":11012,"ĠAlan":11013,"onda":11014,"Ġpostage":11015,"ĠStan":11016,"Ġdenoting":11017,"Ġ117":11018,"stroke":11019,"ĠBert":11020,"ABCABC":11021,"want":11022,"boat":11023,"Ġ136":11024,"inc":11025,"ĠGB":11026,"221":11027,"daughter":11028,"iterables":11029,"Ġsolids":11030,"standard":11031,"Ġarrays":11032,"Ġmagic":11033,"titions":11034,"FB":11035,"dozens":11036,"iii":11037,"99999999999999999999999999999999":11038,"ĠCall":11039,"!.":11040,"ko":11041,"Ġfavorable":11042,"atas":11043,"Ġfloating":11044,"Ġexplicit":11045,"yer":11046,"ĠSteven":11047,"Jerry":11048,"Ġscreen":11049,"Putting":11050,"ĠTommy":11051,"')[":11052,"247":11053,"ĠAllison":11054,"Ġloser":11055,"planks":11056,"$}":11057,"Ġcollege":11058,"Another":11059,"Ġrocks":11060,"puzz":11061,"Jeff":11062,"Ke":11063,"}},":11064,"orus":11065,"rides":11066,"winning":11067,"ĠDA":11068,"CLU":11069,"liz":11070,"club":11071,"Ġdifferentiate":11072,"ĠRes":11073,"Ġprev":11074,"Ġselection":11075,"arraystretch":11076,"ylan":11077,"Ġrecommended":11078,"aroons":11079,"ĠRot":11080,"ĠDenote":11081,"renewcommand":11082,"@{\\":11083,"Ġdownload":11084,"\\%}$.":11085,"mic":11086,"shorts":11087,"Ġhint":11088,"sius":11089,"march":11090,"Ġalbum":11091,"ury":11092,"passed":11093,"ĠAEB":11094,"275":11095,"Ġ1998":11096,"initially":11097,"Ġidx":11098,"ĠEaster":11099,"Michael":11100,"ĠCam":11101,"attend":11102,"satisf":11103,"Ġbreaks":11104,"chil":11105,"DM":11106,"mate":11107,"Ġapex":11108,"TeX":11109,"dge":11110,"fence":11111,"Ġpure":11112,"Ġlinearly":11113,"ĠLambda":11114,"Ġclassi":11115,"264":11116,"ĠCanada":11117,"pole":11118,"Ġgrandmother":11119,"Ġ---":11120,"ĠMonica":11121,"steak":11122,"Ġ\")":11123,"Ġdrawings":11124,"100000":11125,"Ġsizes":11126,"ĠSort":11127,"chin":11128,"nitudes":11129,"Ġtrial":11130,"hoe":11131,"finish":11132,"Ġmajors":11133,"pyramid":11134,"Ġ122":11135,"179":11136,"Ġprinted":11137,"Ġmice":11138,"ĠSan":11139,"Ġgymn":11140,"Ġutilize":11141,"occupied":11142,"washing":11143,"EQ":11144,"erman":11145,"ĠMart":11146,"Instead":11147,"mac":11148,"Squares":11149,"centi":11150,"Ġappropriate":11151,"Ġcaterer":11152,"+.":11153,"Ġ184":11154,"Ġ1234":11155,"pebbles":11156,"Ġ285":11157,"ĠBethany":11158,"lightgray":11159,"ĠTrans":11160,"Ġpears":11161,"Ġcafeteria":11162,"beds":11163,"Ġ380":11164,"Ġsunny":11165,"buckets":11166,"ĠInc":11167,"Ġassemb":11168,"Ġhike":11169,"determinant":11170,"Ġwear":11171,"Ġbehind":11172,"ĠBrit":11173,"Distance":11174,"}}(":11175,"ucchin":11176,"Call":11177,"Ġgrew":11178,"Ġcomprehension":11179,"/(-":11180,"Ġmanner":11181,"Ġ116":11182,"Ġconsume":11183,"Ġbits":11184,"motor":11185,"$^":11186,"Ġgone":11187,"}}=\\":11188,"ryce":11189,"driven":11190,"Ġserved":11191,"gae":11192,"hyp":11193,"Ġchamp":11194,"2020":11195,"Ġthroughout":11196,"ingers":11197,"pepper":11198,"Ġ(.":11199,"Ġstraightforward":11200,"thur":11201,"pO":11202,"))+":11203,"Ġchose":11204,"tikz":11205,"plate":11206,"Ġpocket":11207,"ety":11208,"Ġ190":11209,"Ġtied":11210,"Seven":11211,"Ġheavy":11212,"ĠFred":11213,"Ġcommonly":11214,"Ġdrew":11215,"Ġgira":11216,"later":11217,"ĠTest":11218,"Ġnoon":11219,"}).\\]":11220,"Ġeigenvalues":11221,"link":11222,"Ġ2400":11223,"Ġinvolved":11224,"Ġclaim":11225,"alter":11226,"born":11227,"Ġtut":11228,"siblings":11229,"Ġ193":11230,"ĠÃ":11231,"unnies":11232,"fair":11233,"ĠWilma":11234,"1515":11235,"^{}_{}$":11236,"anessa":11237,"Ġtraps":11238,"still":11239,"anthia":11240,"istors":11241,"Ġentrance":11242,"Ġtoilet":11243,"ĠIncrement":11244,"Ġcarton":11245,"bank":11246,"Ġlosses":11247,"Ġportions":11248,"cow":11249,"parser":11250,"many":11251,"shared":11252,"runt":11253,"Ġinputs":11254,"costs":11255,"265":11256,"Ġshrimp":11257,"training":11258,"walls":11259,"ĠVictor":11260,"Ġmultiset":11261,"Ġunitsize":11262,"Ġarrival":11263,"ussi":11264,"Ġsupplement":11265,"tuples":11266,")'":11267,"Ġtheory":11268,"Ġdens":11269,"puppy":11270,"Ġcast":11271,"857":11272,"Ġcoaster":11273,"Ġ560":11274,"committee":11275,"front":11276,"cocon":11277,"ĠUSD":11278,"delivery":11279,"ĠOct":11280,"appl":11281,"Ġdealing":11282,"Ġreco":11283,"Ġweekday":11284,"236":11285,"(\\#":11286,"llipop":11287,"Ġ20000":11288,"281":11289,"Ġsalmon":11290,"Count":11291,"Ġdamaged":11292,"matt":11293,"Ġbench":11294,"Ġfastest":11295,"breakfast":11296,"ipython":11297,"integral":11298,"Ġliz":11299,"Ġconsonant":11300,"Ġattempts":11301,"Ġonions":11302,"Ġalligators":11303,"Ġswims":11304,"\\},":11305,"Ġtulips":11306,"loe":11307,"ĠFloat":11308,"onies":11309,"kittens":11310,"ovember":11311,"Ġtourists":11312,"IP":11313,"olds":11314,"vet":11315,"ĠSamantha":11316,"loaves":11317,"Adam":11318,"tea":11319,"Ġcommittees":11320,"Ġflyers":11321,"ĠCos":11322,"tenth":11323,"Ġclar":11324,"Ġwishes":11325,"elope":11326,"Ġexplo":11327,"Ġ650":11328,"feed":11329,"Ġ||":11330,"rgb":11331,"Ġdensity":11332,"Ġattain":11333,"Ġenclose":11334,"dia":11335,"Ġsund":11336,"argin":11337,"tein":11338,"corns":11339,"renda":11340,"+...":11341,"Ġxf":11342,"ĠCAD":11343,"ĠJean":11344,"bowtie":11345,"goldfish":11346,"Ġrunner":11347,"Ġze":11348,"ĠClub":11349,"Ġdefault":11350,"Ġconvenience":11351,"âĿ¶âĿ¶":11352,"sures":11353,"Ġfi":11354,"iral":11355,"ĠOliv":11356,"washed":11357,"321":11358,"east":11359,"ĠMaximum":11360,"lyss":11361,"Ġfeel":11362,"Ġpred":11363,"ĠGra":11364,"Ġhaircuts":11365,"650":11366,"Ġsharks":11367,"Ġ'-":11368,"ĠAllen":11369,"inside":11370,"arship":11371,"Ġphoto":11372,"Ġ{(":11373,"ugene":11374,"itions":11375,"680":11376,"Ġestimate":11377,"Ġfountain":11378,"Sympy":11379,"ĠPenny":11380,"ĠKelly":11381,"Ġaccess":11382,"=|":11383,"Ġfle":11384,"dropped":11385,"Ġ&\\\\":11386,"Ġshed":11387,"babies":11388,"Ġleaders":11389,"ĠSpecies":11390,"repair":11391,"ĠCat":11392,"Ġconference":11393,"ptember":11394,"Ġnodes":11395,"Ġtacos":11396,"Ġ154":11397,"Ġordering":11398,"city":11399,"ĠMinimize":11400,"Volume":11401,"yson":11402,"Ġmem":11403,"Ġiterations":11404,"Ġworld":11405,"evaluated":11406,"Ġlamps":11407,"308":11408,"rah":11409,"}\",":11410,"Ġwhoos":11411,"ronze":11412,"Ġdiameters":11413,"Ġshapes":11414,"skips":11415,"vit":11416,"Ġclever":11417,"Ġepisode":11418,"peppers":11419,"Ġbuil":11420,"adpoles":11421,"Ġreleased":11422,"258":11423,"Ġtons":11424,"stones":11425,"489":11426,"::":11427,"monomial":11428,"ĠSetting":11429,"Ġutility":11430,"charac":11431,"OE":11432,")-(-":11433,"Ġdy":11434,"Ġweeds":11435,"ĠAny":11436,"ĠDonna":11437,"ĠDick":11438,"Ġprojecting":11439,"shoe":11440,"})/":11441,"Ġengineer":11442,"ĠSines":11443,"peanut":11444,"notebook":11445,"Ġwild":11446,"buttons":11447,"Box":11448,"Ġwrap":11449,"Ġvacuum":11450,"Ġmirror":11451,"CLUD":11452,"Ġlaid":11453,"parking":11454,":])":11455,"ĠLeo":11456,"osen":11457,"Ġbands":11458,"representation":11459,"error":11460,"ĠCH":11461,"ordon":11462,"TA":11463,"Ġgradu":11464,"rames":11465,"zzttqq":11466,"Ġholid":11467,"ori":11468,"Ġborrow":11469,"ditionally":11470,"Ġcontribution":11471,"unte":11472,"Ġcashier":11473,"Ġcontact":11474,"inets":11475,"tol":11476,"logs":11477,"Ġstrategy":11478,"Ġpasta":11479,"Ġcreates":11480,"Ġjackets":11481,"================":11482,"Ġpur":11483,"lab":11484,"uition":11485,"event":11486,"intenance":11487,"|}{|":11488,"mushrooms":11489,"Ġid":11490,"titor":11491,"Ġleaf":11492,"Ġfriday":11493,"ĠTaylor":11494,"Solutions":11495,"orch":11496,"icult":11497,"rationalized":11498,"issues":11499,"ĠJoseph":11500,"rollment":11501,"Ġcomputers":11502,"Ġcourt":11503,"oll":11504,"Ġquilt":11505,"due":11506,"they":11507,"Ms":11508,"ĠGrant":11509,"rings":11510,"IC":11511,"compose":11512,"WNW":11513,"config":11514,"arm":11515,"Ġ/=":11516,"spot":11517,"Ġradicals":11518,"cies":11519,"\\[-":11520,"Ġautoma":11521,"ala":11522,"exter":11523,"Ġ''.":11524,"Ġlying":11525,"acre":11526,"essie":11527,"Length":11528,"Ġnamed":11529,"ratios":11530,"Ġrecently":11531,"Ġgreat":11532,"Ġplanned":11533,"youn":11534,"Ġlangchain":11535,"vars":11536,"ĠpB":11537,"Ġcoinc":11538,"containers":11539,"hens":11540,"caled":11541,"')(":11542,"study":11543,"(\"'":11544,"Ġoblique":11545,"ediate":11546,"Ġsols":11547,"ching":11548,"replacement":11549,"Ġcooking":11550,"Ġcros":11551,"Ġ222":11552,"ĠMolly":11553,"carton":11554,"filtered":11555,"Ġpyplot":11556,"Ġthough":11557,"life":11558,"indsay":11559,"Ġintroduce":11560,"1212":11561,"orn":11562,"Ġbackwards":11563,"enus":11564,"Equation":11565,"physics":11566,"Ġsmo":11567,"Ġmall":11568,"'):":11569,"Ġreflecting":11570,"uth":11571,"Ġliquid":11572,"sts":11573,"Ġrealized":11574,"Ġthirteen":11575,"Ġmaps":11576,"Mac":11577,"507":11578,"Ġmagnitudes":11579,"407":11580,"runk":11581,"Ġissue":11582,"company":11583,"may":11584,"bouqu":11585,"Ġbott":11586,"eye":11587,"}}}{":11588,"Ġpacket":11589,"ĠNx":11590,"ĠBruno":11591,"Ġlisted":11592,"michael":11593,"Ġusual":11594,"rectangular":11595,"project":11596,"ĠMandy":11597,"cycl":11598,"pots":11599,"Ġhill":11600,"Ġrefuse":11601,"Ġgrandfather":11602,"cous":11603,"188":11604,"Ġfundraiser":11605,"399":11606,"009":11607,"}%":11608,")%":11609,"probabilities":11610,"Ġ));":11611,"athered":11612,"Ġ{$":11613,"lemons":11614,"Ġ1994":11615,"Ġtowards":11616,"Ġcurrentprojection":11617,"Ġwedding":11618,"Ġreduction":11619,"abab":11620,"ĠSamuel":11621,"Ġmanipulate":11622,"OF":11623,"Ġparametri":11624,"Ġspider":11625,"ĠBag":11626,"knives":11627,">$":11628,"Ġhire":11629,"Ġclubs":11630,"Ġsquirrel":11631,"iona":11632,"Ġpartitional":11633,"Ġgenerator":11634,"Ġrand":11635,"commission":11636,"Ġsnipp":11637,"Ġvinegar":11638,"ĠSusie":11639,"umb":11640,"Ġexchange":11641,"Ġcomics":11642,"Ġuncle":11643,"squiggly":11644,"joe":11645,"Ġlinestyle":11646,"ĠRosa":11647,"fat":11648,"Ġhidden":11649,"Ġrs":11650,"171":11651,"kitchen":11652,"Ġ'''":11653,"textsize":11654,"Ġfat":11655,")^(":11656,"reads":11657,"Ġunshaded":11658,"Ġassociated":11659,"Ġpunch":11660,"376":11661,"Ġcond":11662,"Ġkph":11663,"Ġcentre":11664,"dishes":11665,"ĠAmericans":11666,"semester":11667,"WW":11668,"nu":11669,"recurrence":11670,"uniform":11671,"228":11672,"weekdays":11673,"Ġclearly":11674,"Ġusually":11675,"lose":11676,"ĠJoshua":11677,"alent":11678,"2023":11679,"Ġmixture":11680,"Ġdeposited":11681,"izzes":11682,"290":11683,"231":11684,"ĠBA":11685,"ĠSome":11686,"akota":11687,"organ":11688,"changing":11689,"Ġlatter":11690,"ĠBrad":11691,"loan":11692,"ĠGrunt":11693,"lsa":11694,"Range":11695,"Ġexpressing":11696,"7000":11697,"bon":11698,"ĠTH":11699,"Dots":11700,"jay":11701,"ĠKate":11702,"birthday":11703,"Ġsilverware":11704,"street":11705,"followers":11706,"Tan":11707,"Ġ'(":11708,"bears":11709,"Ġcoconuts":11710,"tiny":11711,"Ġmagician":11712,"Ġnotices":11713,"Ġskirts":11714,")}$,":11715,"OH":11716,"1357":11717,"Ġ},":11718,"trials":11719,"Ġleash":11720,"heights":11721,"âĢĿ":11722,"Ġwhy":11723,"ĠBrianna":11724,"Ġmoon":11725,"ĠIntegral":11726,"ĠBrandon":11727,"Ġsymbolically":11728,"Ġ4096":11729,"wid":11730,"que":11731,"ï¿":11732,"Ġbasis":11733,"Ġstatue":11734,"phan":11735,"Ġinteresting":11736,"melets":11737,"Ġknit":11738,"Ġbees":11739,"iko":11740,"parsing":11741,"Ġcooks":11742,"gnant":11743,"Ġ')":11744,"................":11745,"301":11746,"Ġ|-":11747,"Ġ201":11748,"Ġrays":11749,"ickey":11750,"Ġdropping":11751,"ĠLeila":11752,"ĠFile":11753,"Ġbunch":11754,"Ġresearch":11755,"babys":11756,"sieve":11757,"Ġlaptop":11758,"Ġaunt":11759,"1050":11760,"Ġalgae":11761,"assets":11762,"ĠTogether":11763,"20000":11764,"bh":11765,"774":11766,"screen":11767,"Ġgiant":11768,"equence":11769,"ĠConverting":11770,"Ġoffering":11771,".</":11772,"Ġ2017":11773,"Ġnothing":11774,"307":11775,"aleb":11776,"lake":11777,"})(\\":11778,")]))":11779,"Ġcardinal":11780,"markers":11781,"Ġsweater":11782,"Ġsword":11783,"ĠBX":11784,"Ġ8000":11785,"ulated":11786,"Ġ2011":11787,"valued":11788,"Ġbranch":11789,"odles":11790,"give":11791,"best":11792,"families":11793,"Ġbouquets":11794,"debt":11795,"Ġiff":11796,"679":11797,"border":11798,"ĠPAB":11799,"elsey":11800,"Ġbows":11801,"ĠJoey":11802,"mesh":11803,"scal":11804,"dime":11805,"drop":11806,"Rem":11807,"lawn":11808,"Ġton":11809,"ĠĠĠĠĠĠĠĠĠĠĠĠĠĠĠĠĠĠĠĠĠ":11810,"quo":11811,"english":11812,"Ġ2020":11813,"gives":11814,"living":11815,"ĠJess":11816,"reward":11817,"Ġbarb":11818,"$</":11819,"umm":11820,"abit":11821,"Tri":11822,"Ġpriced":11823,"ĠCp":11824,"docs":11825,"Bo":11826,"spl":11827,"Option":11828,"Ġteaspoons":11829,"Pi":11830,"done":11831,"anks":11832,"lessons":11833,"Ġequivalently":11834,"Ġmilksh":11835,"Ġgrandchildren":11836,"Vert":11837,"jim":11838,"inoes":11839,"Ġremember":11840,"Ġsunglasses":11841,"rat":11842,"adding":11843,"ï¿½":11844,"Ġirises":11845,"drunk":11846,"Ġsage":11847,"6025":11848,"}'":11849,"ĠIm":11850,"mail":11851,"erome":11852,"Ġbuildings":11853,"Ġnewspapers":11854,"Ġpit":11855,"enve":11856,"163":11857,"riginal":11858,"Ġlegos":11859,"Ġ405":11860,"divided":11861,"Ġpill":11862,"Ġtrouble":11863,"ingre":11864,"Ġacre":11865,"Ġfans":11866,"Ġbead":11867,"Ġstays":11868,"Ġfluid":11869,"Ġoffered":11870,"Ġ${\\":11871,"ĠMah":11872,"Ġafford":11873,"wx":11874,"Ġdesk":11875,"ĠCBD":11876,"705":11877,"355":11878,"ĠBonnie":11879,"nows":11880,"$};":11881,"Ġquadruples":11882,"Ġtoaster":11883,"seat":11884,"Ġpress":11885,"rict":11886,"ĠBank":11887,"blank":11888,"Ġplotting":11889,"Ġinspe":11890,"656":11891,"^.":11892,"ĠPM":11893,"stage":11894,"8000":11895,"nickel":11896,"Ġtechnique":11897,"fishes":11898,"through":11899,"Ġtig":11900,"Ġpoll":11901,"Ġquadruple":11902,"Ġfed":11903,"980":11904,"ĠDifference":11905,"jorn":11906,"Ġearlier":11907,"ĠUp":11908,"ĠJackie":11909,"Ġcis":11910,"Ġcrt":11911,"prize":11912,"}}+":11913,"ĠSlope":11914,"Ġlottery":11915,"Ġstuffed":11916,"iraek":11917,"{}.":11918,"inu":11919,"342":11920,"Andy":11921,"brary":11922,"exer":11923,"ĠDylan":11924,"ĠCal":11925,"Ġreported":11926,"oreover":11927,"Ġtool":11928,"ĠFloor":11929,"Ġ124":11930,"ĠMargo":11931,"Ġay":11932,"useum":11933,"mount":11934,"mallest":11935,"snakes":11936,"ominator":11937,"ĠABP":11938,"hunt":11939,"Ġconcrete":11940,"adeline":11941,"flips":11942,"ĠADB":11943,"âĤ":11944,"alph":11945,"Ġbul":11946,"Ġstret":11947,"dest":11948,"2187":11949,"ĠHug":11950,"message":11951,"Ġwhoosits":11952,"bat":11953,"Ġsomeone":11954,"Ġhexagons":11955,"dc":11956,"Ġthursday":11957,",-\\":11958,"Ġparity":11959,"161":11960,"ucy":11961,"Ġtrays":11962,"Ġrubber":11963,"ĠBeatrice":11964,"users":11965,"ĠEduardo":11966,"pmf":11967,"Ġthirty":11968,"Ġmarathon":11969,"kw":11970,"absolute":11971,"Ġunpainted":11972,"Ġgluten":11973,"burned":11974,"Ġreser":11975,"ihu":11976,"Ġcse":11977,"Ġclay":11978,"Ġ141":11979,"variable":11980,"science":11981,"Ġtrunc":11982,"ĠBOC":11983,"Ġ'.":11984,"xs":11985,"pillars":11986,"ĠSara":11987,"Their":11988,"athy":11989,"Ġmanu":11990,"Ġrecorded":11991,"ihuah":11992,"217":11993,"ataset":11994,"Ġdoor":11995,"')]":11996,"Ġpartner":11997,"icole":11998,"ahedron":11999,"direct":12000,"398":12001,"Ġmike":12002,"457":12003,"pull":12004,"example":12005,"Ġsystems":12006,"ripe":12007,"Ġ167":12008,"Ġcoincide":12009,"Return":12010,"Â«":12011,"ston":12012,"Ġlaws":12013,"Ġlitter":12014,"Ġburns":12015,"Regular":12016,"Ġ((-":12017,"employee":12018,"ĠFurthermore":12019,"486":12020,"planation":12021,"music":12022,"Ġoctahedral":12023,"ĠMarika":12024,"cance":12025,"solver":12026,"Ġext":12027,"298":12028,")}\\\\":12029,"Ġoptimize":12030,"decrease":12031,"226":12032,"allowed":12033,"])))":12034,"june":12035,"Ġmanages":12036,"Ġchurch":12037,"ĠNovember":12038,"ĠPerimeter":12039,"opher":12040,"ĠSk":12041,"Ġyet":12042,"lena":12043,"Ġstrips":12044,"wing":12045,"ĠAQ":12046,"Ġstaff":12047,"Ġbracelet":12048,"teas":12049,"corner":12050,"pigs":12051,"Ġpointing":12052,"eting":12053,"BEC":12054,"Ñģ":12055,"*$":12056,"HD":12057,"Ġ333":12058,"Ġ576":12059,"overtime":12060,"pictures":12061,"Ġ1600":12062,"vations":12063,"}&\\":12064,"differences":12065,"based":12066,"ĠClass":12067,"Ġadjust":12068,"entially":12069,"copy":12070,"ĠRun":12071,"Ġcheap":12072,"ĠLeah":12073,"Ġgrouped":12074,"ĠMiddle":12075,"Ġbackpack":12076,"357":12077,"Ġinclusion":12078,"GE":12079,"Res":12080,"\\|\\":12081,"Ġterminate":12082,"Ġdonates":12083,"ĠPatrick":12084,"ĠHH":12085,"ĠKayla":12086,"Ġexams":12087,"ĠDivis":12088,"Any":12089,"Matt":12090,"rectangles":12091,"Ġdozens":12092,"!$,":12093,"Ġspades":12094,"Quad":12095,"allenge":12096,"Ġbenches":12097,"Ġoysters":12098,"Ġiterating":12099,"Ġenvelope":12100,"ĠBryce":12101,"lisa":12102,"hoebe":12103,"Ġattempted":12104,"ients":12105,"frequ":12106,"emily":12107,"Ġbirch":12108,"gumballs":12109,"ĠSH":12110,"(''.":12111,"ĠCre":12112,"Ġadmission":12113,"stay":12114,"april":12115,"ĠUnfortunately":12116,"sections":12117,"Ġtasks":12118,"Ġvers":12119,"Ġ\\[|":12120,"Ġtopping":12121,"window":12122,"ĠMars":12123,"cked":12124,"11111111111111111111111111111111":12125,"bles":12126,"297":12127,"abrina":12128,"leting":12129,"carl":12130,"arrival":12131,"rated":12132,"ĠBrend":12133,"ools":12134,"495":12135,")[::-":12136,"Ġking":12137,"Ġgeck":12138,"party":12139,"Ġsecretary":12140,"ĠFre":12141,"Ġefficient":12142,"Ġ$((":12143,"193":12144,"Ġdiamonds":12145,"ylinder":12146,"indices":12147,"579":12148,"ĠNumPy":12149,"Ġ\\[-":12150,"ĠMil":12151,"Ġrelevant":12152,"_\\":12153,"Ġdarts":12154,"ĠWinnie":12155,"Ġurn":12156,"Ġprizes":12157,"Ġbasement":12158,"bigail":12159,"UM":12160,"Ġplots":12161,"sticker":12162,"Mike":12163,"did":12164,"(\"-":12165,"}\\\\\\":12166,"Ġminimizes":12167,"cab":12168,"Ġpeter":12169,"Ġcommunity":12170,"EFG":12171,"pandas":12172,"entin":12173,"Ġbells":12174,"Ġrestriction":12175,"Ġluck":12176,"ĠPen":12177,"Ġtrials":12178,"Ġperspective":12179,"ĠJanice":12180,"Ġ\\{-":12181,"BL":12182,"packets":12183,"Draw":12184,"Ġomelet":12185,"Ġwebs":12186,"Found":12187,"276":12188,"RE":12189,"Ġspins":12190,"Ġimproper":12191,"251":12192,"[:-":12193,"orie":12194,"Ġmowing":12195,"never":12196,"Ġtransition":12197,"Ġmenu":12198,"alanced":12199,"assuming":12200,"prin":12201,"Ġsneakers":12202,"ĠIntersection":12203,"Ġ203":12204,"Ġadopted":12205,"oking":12206,"310":12207,"Ġ384":12208,"Ġdelegates":12209,"erasers":12210,"ettes":12211,"5555555555555555":12212,"Ġmonitor":12213,"Ġaveraged":12214,"BK":12215,"ĠCarol":12216,"ĠSa":12217,"undays":12218,"ĠEr":12219,"cholarship":12220,"Steve":12221,"Ġhealth":12222,"Ġpreced":12223,"Ġahead":12224,"vehicles":12225,"229":12226,"operation":12227,"Ġbarrels":12228,"until":12229,"Ġapplies":12230,"Ġzebra":12231,"reduction":12232,"Ġexperiment":12233,"erts":12234,"sta":12235,"Ġ127":12236,"elesco":12237,"olley":12238,"Ġcanonical":12239,"ormal":12240,"pumpkin":12241,"Graph":12242,"acres":12243,"Ġblow":12244,"phra":12245,"olleyball":12246,"('-":12247,"summary":12248,"Ġblond":12249,"uman":12250,"mpet":12251,"Ġstrip":12252,"718":12253,"Ġthickness":12254,"see":12255,"Round":12256,"asag":12257,"Longrightarrow":12258,"ĠCes":12259,"magaz":12260,"rst":12261,"Ġallerg":12262,"ili":12263,"beginning":12264,"bal":12265,"Ġstacks":12266,"imaginary":12267,"seen":12268,"Ġstacked":12269,"vowels":12270,"ĠSto":12271,"esto":12272,"??":12273,"salt":12274,"ffes":12275,"Ġperiodic":12276,"ural":12277,"Ġtransistors":12278,"Ġsoil":12279,"apply":12280,"rotation":12281,"Am":12282,"Ġsquat":12283,"Ġproceed":12284,"567":12285,"combinatorics":12286,"131":12287,"Ġconsistent":12288,"$\"":12289,"})}$.":12290,"Ġassist":12291,"patients":12292,"Ġtransformed":12293,"ysical":12294,"Ġ299":12295,"uchy":12296,"RP":12297,"bacon":12298,"}=-":12299,"sey":12300,"'d":12301,"Ġgrey":12302,"mari":12303,"876":12304,"Ġpars":12305,"ography":12306,"Ġcopper":12307,"pture":12308,"Product":12309,"rh":12310,"coupon":12311,"ridget":12312,"Ġsnippet":12313,"roduction":12314,"ryl":12315,"ĠUnit":12316,"teeth":12317,"ipment":12318,"Ġgs":12319,"2345":12320,"gus":12321,"Comparing":12322,"Ġbarn":12323,"Ġdescribe":12324,"]}{[":12325,"ĠPp":12326,"ESE":12327,"Ġ342":12328,"ĠCarlo":12329,"Ġconsumption":12330,"Ġadjo":12331,"Ġpr":12332,"Ġproj":12333,"Ġmarried":12334,"460":12335,"Ġchorus":12336,"mowing":12337,"bing":12338,"232":12339,"Ġforeign":12340,":&":12341,"425":12342,"=$":12343,"resid":12344,"violi":12345,"guess":12346,"Ġentering":12347,"Circles":12348,"stuff":12349,"Ġdisco":12350,"Ġminerals":12351,"tracts":12352,"Ġpulling":12353,"issant":12354,"ev":12355,"755":12356,"ĠOb":12357,"Ġrecogn":12358,"ĠUpdate":12359,"Ġpaired":12360,"Ġbattery":12361,"Ġcq":12362,"Ġsufficient":12363,"odle":12364,"&(":12365,"usercontent":12366,"Jan":12367,"paul":12368,"basic":12369,"Ġ196":12370,"Ġpersonal":12371,"ffic":12372,"408":12373,"ĠLuna":12374,"counted":12375,"Ġtrade":12376,"Ġcrab":12377,"Gwire":12378,"))--(-":12379,"Ġattraction":12380,"rens":12381,"Ġrevers":12382,"Ġfeathers":12383,"Ġforks":12384,"Ġrecipes":12385,"chip":12386,"Ġhardcover":12387,"Frame":12388,"ĠRPQ":12389,"generate":12390,"Ġhypot":12391,"ennis":12392,")},":12393,"Ġalone":12394,"),(-":12395,"Ġ2012":12396,"Ġseatings":12397,"Ġapartments":12398,"onica":12399,"hands":12400,"Ġtrailing":12401,"Ġarg":12402,"Ġcerti":12403,"Ġmultinomial":12404,")`":12405,"ĠLewis":12406,"Ġfertil":12407,"273":12408,"Ġ233":12409,"Josh":12410,"Ġusage":12411,"tils":12412,"Ġgates":12413,"actual":12414,"Ġrotten":12415,"Ġobvious":12416,"\"></":12417,"itude":12418,"uffin":12419,"ĠGian":12420,"Ġorthographic":12421,"Ġrelative":12422,"Bp":12423,"Ġzucchin":12424,"Ġresidents":12425,"1700":12426,"178":12427,"diamond":12428,"identity":12429,"ĠRaj":12430,"CT":12431,"Ġmilliliters":12432,"ĠKendra":12433,"BH":12434,"drawings":12435,"Ġgoods":12436,"Ġlogo":12437,"Ġfarthest":12438,"calculate":12439,"$')":12440,"multiplier":12441,"ĠTerry":12442,"ienced":12443,"antasy":12444,"sweetened":12445,"ĠDawn":12446,"library":12447,"ĠCharles":12448,"Ġrasp":12449,"Ġhop":12450,"Ġlevels":12451,"Ġcurr":12452,"Ġ173":12453,")))$.":12454,"649":12455,"ĠSingles":12456,"Ġlatest":12457,"''$\",(":12458,"arpen":12459,"Ġguppies":12460,"Ġinsects":12461,"ĠAN":12462,"ĠMag":12463,"partitions":12464,"Ġ159":12465,"ĠConstraint":12466,"ĠTime":12467,"arms":12468,"Ġ234":12469,"Ġ\"$\\":12470,"lowest":12471,"Ġdefinitions":12472,"rol":12473,"ĠStock":12474,"ĠKat":12475,"Ġrequests":12476,"racie":12477,"object":12478,"ĠPaula":12479,"Ġcousin":12480,"Ġcotton":12481,"1723":12482,"Ġunicorn":12483,"banana":12484,"ĠOctober":12485,"tape":12486,"2847":12487,"flags":12488,"taining":12489,"Ġparabolic":12490,"Ġgained":12491,"Integers":12492,"gcf":12493,"his":12494,"pentagon":12495,"blueberries":12496,"ĠDB":12497,"captains":12498,"inclusive":12499,"ĠAO":12500,"fg":12501,"ĠCla":12502,"664":12503,"noalign":12504,"\\}\\":12505,"unific":12506,"Ġchannels":12507,"979":12508,"Ġtalk":12509,"ĠNOT":12510,",\\,$":12511,"Ġperfectly":12512,"MNO":12513,"orothy":12514,"Ġconsumes":12515,"compl":12516,"Ġ259":12517,"trigsimp":12518,"jane":12519,"thousand":12520,"Ġboards":12521,"flakes":12522,"Ġstatues":12523,"))])":12524,"Ġdifficult":12525,"jake":12526,"Ġllam":12527,"1492":12528,"hits":12529,"lot":12530,"Ġmistake":12531,"Ġstructure":12532,"Ġaccidentally":12533,"!)^":12534,"~\\":12535,"Value":12536,"Ġmanager":12537,"Ġpuzzles":12538,"Prime":12539,"finite":12540,"Ġ*Â«":12541,"Ġsew":12542,"=(-.":12543,"enevie":12544,"gate":12545,"unificence":12546,"UnFill":12547,"Carolyn":12548,"$-$":12549,"Ġjul":12550,"Ġshade":12551,"Ġ780":12552,"ĠPatricia":12553,"coal":12554,"Ġappetiz":12555,"soil":12556,"umph":12557,"ORT":12558,"Ġpictured":12559,"ĠAngeles":12560,"ĠRoark":12561,"yen":12562,"Ġgather":12563,"Macros":12564,"Ġpublic":12565,"ĠOption":12566,"Ġropes":12567,"Ġgridsize":12568,",(-(-":12569,"supplies":12570,"ĠTrigMacros":12571,"icken":12572,"Ġcattle":12573,"oris":12574,"grape":12575,"Ġindicates":12576,"}<":12577,"signs":12578,"braham":12579,"honey":12580,"ĠCenter":12581,"tub":12582,"prim":12583,"sweaters":12584,"susan":12585,"atistics":12586,"ĠChatGPT":12587,"cqcqcq":12588,"lightcolor":12589,"ĠXZ":12590,"Ġdoubling":12591,"LEM":12592,"Ġcqcqcq":12593,"Ġshoelace":12594,"taxes":12595,"reverse":12596,"Ġ[(-":12597,"Ġtranspose":12598,"Ġ499":12599,"Ġpoles":12600,"QT":12601,"uv":12602,"218":12603,"Lisa":12604,"Ġ251":12605,"flight":12606,"tran":12607,"inea":12608,"zi":12609,"Ġjersey":12610,"acd":12611,"Ġpipe":12612,"otherwise":12613,"Ġsenior":12614,"Ġforth":12615,"ABF":12616,"ucas":12617,"enevieve":12618,"211":12619,"ĠCED":12620,"1997":12621,"Ġflying":12622,"Ġ\",(":12623,"3250":12624,"vamp":12625,"Ġmaster":12626,"'_":12627,"figures":12628,"337":12629,"ĠCelsius":12630,"cycling":12631,"chant":12632,"Ġhandsh":12633,"githubusercontent":12634,"igible":12635,"ĠLos":12636,"1996":12637,"harvested":12638,"ĠCombinations":12639,"Reminder":12640,"ĠBra":12641,"Ġcategory":12642,"pocket":12643,"ĠJose":12644,"arbage":12645,"Ġrealize":12646,"Ġexamine":12647,"task":12648,"Ġjog":12649,"Ġfeeding":12650,"seasons":12651,"aut":12652,"tulips":12653,"jugates":12654,"mass":12655,"prices":12656,"ĠAlgebra":12657,"doughnuts":12658,"readmill":12659,"Ġfireworks":12660,"Ġobservation":12661,"Med":12662,"Ġrearrangements":12663,"Ġ151":12664,"climbed":12665,"Ġunderwater":12666,"215":12667,"Ġinf":12668,"earrings":12669,"Ġgasoline":12670,"Ġperpendic":12671,"Ġbroke":12672,"Ġdecreases":12673,"ysis":12674,"Ġconnects":12675,"Ġ$$-":12676,"Ġbushels":12677,")|$":12678,"Ġexponentiation":12679,"\\[=":12680,"heightC":12681,"Side":12682,"Ġyen":12683,"ĠEri":12684,"Ġoccurring":12685,"istic":12686,"pas":12687,"Ġ195":12688,"776":12689,"Ġarticles":12690,"HE":12691,"ĠPD":12692,"rence":12693,"Ġfrisbee":12694,"Ġ00":12695,"Ġmagnets":12696,"reversed":12697,"314":12698,"diophantine":12699,"Daniel":12700,"ĠStudents":12701,"ĠDAC":12702,"odney":12703,"redits":12704,"QS":12705,"tz":12706,"ĠDiana":12707,"dom":12708,"ffees":12709,"aging":12710,"ĠExample":12711,"ĠDakota":12712,"Ġsamples":12713,"\").":12714,"kwargs":12715,"Ġoutfit":12716,"highest":12717,"Ġtiger":12718,"urines":12719,"dium":12720,"666666666666667":12721,"Ġconvin":12722,"Ġ\\[(\\":12723,"Ġtrains":12724,"congruence":12725,"hmed":12726,"))(":12727,"Ġmini":12728,"except":12729,"leaders":12730,"{'":12731,"Ġguitars":12732,"colored":12733,"tergent":12734,"details":12735,"Ġaccept":12736,"OBLEM":12737,"calculator":12738,"ĠGrunters":12739,"Harry":12740,"Ġtriplet":12741,"EH":12742,"ddar":12743,"Ġspiral":12744,"served":12745,"Pat":12746,"Andrew":12747,"Ġmedal":12748,"packet":12749,"Ġlocations":12750,"itha":12751,"Ġupon":12752,"Ġfurniture":12753,"212":12754,"ĠĠĠĠĠĠĠĠĠĠĠĠĠĠĠĠĠĠĠĠĠĠ":12755,"1900":12756,"daisies":12757,"ĈĈĈĈĈĈĈĈ":12758,"Hannah":12759,"overall":12760,"relation":12761,"Ġmaths":12762,"Ġmeasurements":12763,"Ġoccurrences":12764,"Ġ325":12765,"Peter":12766,"mango":12767,"Ġspeak":12768,"Ġdips":12769,"))).":12770,"111111":12771,"onde":12772,"ĠSuper":12773,"Ġhighlighters":12774,"peanuts":12775,"bits":12776,"viron":12777,"Ġrelate":12778,"Ġcommand":12779,"eu":12780,"ĠOpenAI":12781,"ĠIP":12782,"parse":12783,"President":12784,"Ġfried":12785,"bly":12786,"Ġhops":12787,"keley":12788,"&=&":12789,"Emily":12790,"Ġshook":12791,"lery":12792,"ĠTam":12793,"olver":12794,"Ġ229":12795,"BDC":12796,"lept":12797,"though":12798,"doub":12799,"Figure":12800,"flat":12801,"bracelet":12802,"seashells":12803,"345":12804,"drawing":12805,"Ġmistakes":12806,"Ġscenarios":12807,"Ġwhales":12808,",))":12809,"fre":12810,")|=|":12811,"modular":12812,"866025":12813,"Ġgoalies":12814,"ĠChristine":12815,"ffle":12816,"440":12817,"Ġparab":12818,")**(-":12819,"Ġ&>":12820,"ĠVal":12821,"hod":12822,"alnuts":12823,"Ġ$[\\":12824,"potato":12825,"penny":12826,"\\}.$":12827,"ĠKaz":12828,"ĠPossible":12829,"Ġbaker":12830,"Ġelectricity":12831,"ĠMis":12832,"Ġhost":12833,"238":12834,"ĠPar":12835,"Ġmegabytes":12836,"ĠTaking":12837,"achi":12838,"Problem":12839,"Ġdominoes":12840,"Ġ990":12841,"-')":12842,"Ġbuilds":12843,"playing":12844,"')))":12845,"520":12846,"Ġthinks":12847,"Ġtrading":12848,"ĠLaTeX":12849,"Ġexec":12850,"Ġfiles":12851,"arante":12852,"horse":12853,"Ġillust":12854,"Ġripe":12855,"Ġsketch":12856,"yarn":12857,"Nine":12858,"ĠRh":12859,"Ġtouching":12860,"ĠParam":12861,"ĠLaura":12862,"sumptions":12863,"Ġtried":12864,"Ġhockey":12865,"Ġsteel":12866,"296296":12867,"ĠLimit":12868,"Karen":12869,"Ġfinishing":12870,"pg":12871,"757":12872,"Ġfiber":12873,"lash":12874,"thew":12875,"Ġbranches":12876,"betty":12877,"Ġhumans":12878,"alb":12879,"titches":12880,"ĠMargaret":12881,"favor":12882,"abundant":12883,"bie":12884,"Ġbid":12885,"inia":12886,"Ġhighway":12887,"Ġhappening":12888,"tour":12889,"fs":12890,"Ġsubstituted":12891,"------------":12892,"Ġkilos":12893,"topping":12894,"phews":12895,"})\")":12896,"elican":12897,"Ġassumptions":12898,"Ġdrama":12899,"Ġpowerful":12900,"tray":12901,"ials":12902,"Ġeliminated":12903,"types":12904,"iteSet":12905,"ssibly":12906,"warz":12907,"ĠTrevor":12908,"eqnarray":12909,"ĠMultiplying":12910,"Ġsource":12911,"aspect":12912,"ĠED":12913,"Ġpeach":12914,"}&=":12915,"»¿":12916,"Ġpenalty":12917,"Ġrole":12918,"Ġstroke":12919,"ĠEliz":12920,"rus":12921,"Ġfifteen":12922,"Among":12923,"'}$":12924,"ï»¿":12925,"Ġwine":12926,"Ġhexagonal":12927,"Ġfeeds":12928,"legos":12929,"orld":12930,"masks":12931,"avers":12932,"Ġ${(":12933,"ĠLakers":12934,"Ġ182":12935,"ging":12936,"Ġsaturday":12937,"Ġ198":12938,"newsp":12939,"Ace":12940,"tify":12941,"chwarz":12942,"ructions":12943,"Ġtemplate":12944,"Ġunderstanding":12945,"ĠMad":12946,"Maria":12947,"Ġmasks":12948,"ĠBoth":12949,"Ġconjugates":12950,"yond":12951,"0000000000":12952,"Ġ12000":12953,"calc":12954,"ĠLopez":12955,")/(-":12956,"Ġcurves":12957,"Ġdragon":12958,"Ġfingers":12959,"Ġdeb":12960,"287":12961,"Ġpumps":12962,"shot":12963,"366":12964,"nsimplify":12965,"ĠTiffany":12966,"Ġweighted":12967,"ĠYan":12968,"Ġweighing":12969,"935":12970,"ears":12971,"Ġkick":12972,"prian":12973,"Ġperforming":12974,"ĠAT":12975,"sea":12976,"704":12977,"Ġbeyond":12978,"Ġdoors":12979,"wz":12980,"episode":12981,"ĠAndrea":12982,"delions":12983,"ĠMichelle":12984,"sicles":12985,"combs":12986,"Ġimply":12987,"Ġpatch":12988,"Ġ3240":12989,"BXC":12990,"Ġdisk":12991,"hambur":12992,"ĠNancy":12993,")}^":12994,"ĠIIII":12995,"ood":12996,"Ġguarante":12997,"ristine":12998,"Ġconditional":12999,"Ġ2700":13000,"Ġsimplicity":13001,"craft":13002,"chord":13003,"ĠAlexa":13004,"Ġfan":13005,"ĠKh":13006,"ĠDarren":13007,"864":13008,"api":13009,"ĠCBE":13010,"Ġwaiter":13011,"Ġdanced":13012,"ĠPenelope":13013,"Ġdocument":13014,"ĠLinear":13015,"arccot":13016,"ĠSphere":13017,"36363636":13018,"CBA":13019,"minist":13020,"stone":13021,"aye":13022,"iri":13023,"ermediate":13024,"Ġmoms":13025,"Ġiniti":13026,"1986":13027,"Ġ289":13028,"Ġraw":13029,"Ġmathematician":13030,"Ġ134":13031,"Ġsplitting":13032,"Ġ189":13033,"Cl":13034,"Ġ255":13035,"Ð»":13036,"rock":13037,"1992":13038,"ĠCO":13039,"244":13040,"Ġupward":13041,"Ġenchil":13042,"Ġpetals":13043,"ĠAbraham":13044,"Ġkernels":13045,"Ġcaused":13046,"Ġposters":13047,"Ġsubstant":13048,"Ġnear":13049,"lb":13050,"Ġcontributes":13051,"attended":13052,"Ġ/*":13053,",),":13054,"329":13055,"Ġshowed":13056,"finished":13057,"itter":13058,"plain":13059,"Ġspotted":13060,"ID":13061,"guit":13062,"ently":13063,"mpty":13064,"Ġstationary":13065,"Not":13066,"mos":13067,"Ġguides":13068,"conson":13069,"âĪļ":13070,"Ġconfirm":13071,"master":13072,"dig":13073,"Ġstayed":13074,".{":13075,"ache":13076,"mileage":13077,"Ġarms":13078,"Ġdescending":13079,"zart":13080,"Ġcara":13081,"386":13082,"Ġinternet":13083,"ĠImport":13084,"Ġuphill":13085,"atts":13086,"485":13087,"partic":13088,"Ġfinals":13089,"Ġmeatballs":13090,"Ġ|(":13091,"Ġinser":13092,"popcorn":13093,"cine":13094,"zil":13095,"295":13096,"travelled":13097,"brush":13098,"ĠLouise":13099,"jill":13100,"Ġclient":13101,"Ġgolden":13102,"000000000":13103,"Ġnap":13104,"349":13105,"786":13106,"arant":13107,"}}}$":13108,"lemonade":13109,"puzzle":13110,"bble":13111,"Ġtotient":13112,"vacation":13113,"Ġtractor":13114,"Ġdads":13115,"Monday":13116,"Ġjumping":13117,"405":13118,"lectric":13119,"Ġspecies":13120,"Ġtelesco":13121,"Ġmileage":13122,"Ġdesigned":13123,"Ġbedrooms":13124,")))))":13125,"Ġ181":13126,"snack":13127,"yield":13128,"\\%}":13129,"Ġlayers":13130,"coat":13131,"Ġcrow":13132,"********":13133,"ĠWorld":13134,"bones":13135,"Ġsus":13136,"Ġsubtracts":13137,"Ġindicate":13138,"ritos":13139,"bcd":13140,"ĠJes":13141,"cott":13142,"Ġbatter":13143,"427":13144,"Ġpiano":13145,"island":13146,"Ġmuseum":13147,"Ġclimbs":13148,"principal":13149,"NM":13150,"uston":13151,"Ġcoats":13152,"strawberry":13153,"1476":13154,"Ġba":13155,"Ġsiding":13156,"Ġkings":13157,"ĠGary":13158,"Ġpolice":13159,"udy":13160,"ivers":13161,"Ġupwards":13162,"Ġpermute":13163,"bathroom":13164,"Ġlucky":13165,"nights":13166,"osters":13167,"qr":13168,"ĠBig":13169,"369":13170,"Ġpreviously":13171,"Ġcontestants":13172,"Ġfunctional":13173,"Henry":13174,"mg":13175,"coaster":13176,"ĠnC":13177,"Ġreward":13178,"Ob":13179,"Ġ1960":13180,"Ġfare":13181,"cons":13182,"Ġdise":13183,"ĠBCE":13184,"Ġcum":13185,"ĠBB":13186,"Ġscalars":13187,"525":13188,"rachel":13189,"Ġorientation":13190,"walks":13191,"contains":13192,"Ġjoins":13193,"Ġhiked":13194,"abeth":13195,"Ġalmond":13196,"ĠKylie":13197,"Ġtire":13198,"sland":13199,"Ġwave":13200,"rabbits":13201,"Ġnested":13202,"Ġvolleyball":13203,"ĠNathan":13204,"Ġsurpr":13205,"vspace":13206,"ĠBQ":13207,"Ġhaircut":13208,"388":13209,"ĠPower":13210,"indergarten":13211,"\\[\\|\\":13212,"ĠWalker":13213,"Ġgmpy":13214,"ĠFinal":13215,"257":13216,"Ġbasketballs":13217,"Ġsunflowers":13218,"227":13219,"Ġgroom":13220,"Ġpotential":13221,"Ġ}{":13222,"osa":13223,"Ġcycles":13224,"Ġbolt":13225,"=>":13226,"Ġcheesecake":13227,"ĠBEC":13228,"aa":13229,"Ġwings":13230,"Ġwish":13231,"Equilateral":13232,"ĠAPD":13233,"Ġmows":13234,"ĠTra":13235,"Ġflights":13236,"Ġmanufact":13237,"camp":13238,"Ġcompetitor":13239,"Ġ\\\\\\":13240,"ĠPrompt":13241,"Ġcarriage":13242,"atima":13243,"Ġhanded":13244,"jacob":13245,">=":13246,"174":13247,"odds":13248,"Ġtins":13249,"ĠMersenne":13250,"ĠSydney":13251,"Ġmathematically":13252,".\",":13253,"Ver":13254,"Ġmarching":13255,"Ġplanting":13256,"spends":13257,"Ġwages":13258,"vitational":13259,"Ġpascal":13260,"Ġcommercial":13261,"ĠCost":13262,"nal":13263,"ĠStore":13264,"ĠCesaro":13265,"oters":13266,"Ġbelong":13267,"hers":13268,"ĠOlymp":13269,"ĠVanessa":13270,"ogi":13271,"-|":13272,"sauce":13273,"Ġsoon":13274,"DBC":13275,"Ġaddresses":13276,"LN":13277,"%.*":13278,"ĠAPC":13279,"ĠMalcolm":13280,"Ġchapters":13281,"338":13282,"\\}}$":13283,"unknown":13284,"Ġpairings":13285,"Ġsessions":13286,"ĠIsland":13287,"Ġvelocity":13288,"Ġsandbox":13289,"ĠVariables":13290,"Ġwrens":13291,"ythagoras":13292,"reflection":13293,"Ġsupplier":13294,"]]))":13295,"ĠLouie":13296,"Ġfisherman":13297,"ĠCont":13298,"Ġworms":13299,"ĠXavier":13300,"Ġlip":13301,"ĠCauchy":13302,"ĠAccording":13303,"eigen":13304,"Ġ1250":13305,"Ġstream":13306,"Ġcontributed":13307,"wks":13308,"6543":13309,"4142":13310,"ĠAOC":13311,"3210":13312,"sisters":13313,"subtract":13314,"43210":13315,"Red":13316,"what":13317,"$\".":13318,"FI":13319,"723":13320,"1023":13321,"amera":13322,"484":13323,"ĠDist":13324,"agle":13325,"ĠGabri":13326,"Ġscienti":13327,"zx":13328,"ĠDBE":13329,"Ġshovel":13330,":%.*":13331,"+(.":13332,"Ġaz":13333,"<-":13334,"letion":13335,"paragus":13336,"Ġ9000":13337,"symmet":13338,"Ġappend":13339,"Der":13340,"ious":13341,"\\|^":13342,"})+\\":13343,"Ġdotted":13344,"Ġscalene":13345,"ĠEither":13346,"aes":13347,"_,":13348,"Ġclues":13349,"Frank":13350,"Ġgover":13351,"Ġguide":13352,"Ġmacarons":13353,"bowls":13354,"Ġmathematicians":13355,"abitable":13356,"Triangles":13357,"Har":13358,"marshmallows":13359,"Ġ30000":13360,"prints":13361,"Ġpathpen":13362,"Ġfibonacci":13363,"theorem":13364,"Ġtricks":13365,"Maximum":13366,"ĠSubtracting":13367,"ingredients":13368,"ĠĠĠĠĠĠĠĠčĊ":13369,"Ġ888":13370,"windows":13371,"soccer":13372,"tips":13373,"ĠPick":13374,"Ġ164":13375,"Carla":13376,"owed":13377,"279":13378,"ondon":13379,"Ġsharing":13380,"lorine":13381,"{(-\\":13382,"feb":13383,"ij":13384,"animal":13385,"patches":13386,"ĠCx":13387,"Ġapplication":13388,"endor":13389,"Quadrilateral":13390,"CAD":13391,"Ġflow":13392,"Ġpastries":13393,"ĠStarting":13394,"<\\":13395,"Ġ=',":13396,"gym":13397,"Ġcold":13398,"Ġobservations":13399,"gained":13400,"tis":13401,"1296":13402,"1920":13403,"Ġ998":13404,"Ġ01":13405,"99999999999999":13406,"|-|":13407,"Ġtag":13408,"Ġdolphins":13409,"Ġbilly":13410,"haircut":13411,"offic":13412,"Ġ3250":13413,"!!":13414,"|.":13415,"enate":13416,"ĠGC":13417,"Ġtrapezoids":13418,"substitution":13419,"mu":13420,"Without":13421,"ĠGener":13422,"Ġellip":13423,")((":13424,"outcome":13425,"ĠAustral":13426,"Ġpirate":13427,"ĠPF":13428,"Ġsafe":13429,"chestra":13430,"ĠBuild":13431,"Ġdecor":13432,"dark":13433,"206":13434,"Ġmanaged":13435,"Ġfrench":13436,"ĠSp":13437,"thrown":13438,"HI":13439,"Ġrearranged":13440,"iver":13441,"Ġprompts":13442,"cancel":13443,"Ġtv":13444,"eyed":13445,"algebra":13446,"chores":13447,"Ġwatermelons":13448,"Ġmunificence":13449,"Ġregister":13450,"Ġindividually":13451,"Cor":13452,"RT":13453,"VW":13454,"ĠDEC":13455,"stery":13456,"ĠBrown":13457,"&=-":13458,"462":13459,"ribbon":13460,"frequency":13461,"ulars":13462,"situps":13463,"Ġ212":13464,"deficient":13465,"2800":13466,"Ġdecompose":13467,"letely":13468,"Ġagree":13469,"commod":13470,"rangian":13471,")]])":13472,"bigHexagon":13473,"angs":13474,"cape":13475,"visits":13476,"allowbreak":13477,"ĠRichard":13478,"Ġaren":13479,"ĠBern":13480,"Ġanalysis":13481,"Ġhamburgers":13482,"agrangian":13483,"tshirts":13484,"Ġadjoining":13485,"^^(":13486,"Ġcoal":13487,"Ġtransformations":13488,"statement":13489,"itations":13490,"snake":13491,"Ġ$=":13492,"Ġcanvas":13493,"]=":13494,"(-.":13495,"ushroom":13496,"elephants":13497,"Ġkangaroos":13498,"665":13499,"arrangement":13500,"Ġdiscus":13501,"laid":13502,"Ġcbrt":13503,"cluded":13504,"Ġdefines":13505,"Ġbrush":13506,"Ġimprove":13507,"LL":13508,"cg":13509,"husband":13510,"ĠiPh":13511,"buses":13512,"Ġtubs":13513,"Ġtries":13514,"ĠBach":13515,"triplets":13516,"Ġest":13517,"Ġsomewhere":13518,"cline":13519,"Ġlined":13520,"moved":13521,"Ġvegetable":13522,"Ġ385":13523,"ĠAlberto":13524,"icated":13525,"efficient":13526,")}}$.":13527,"+$":13528,"670":13529,"_(":13530,"ĠElla":13531,"ķ±":13532,"Ġsky":13533,"Ġparent":13534,"1003":13535,"inners":13536,"ĠLauren":13537,"orial":13538,"âĶĢâĶĢâĶĢâĶĢâĶĢâĶĢâĶĢâĶĢâĶĢâĶĢâĶĢâĶĢâĶĢâĶĢâĶĢâĶĢ":13539,"sally":13540,"Ġangled":13541,"assump":13542,"Ġtickmarks":13543,")))/":13544,"romotion":13545,"ĠVenus":13546,"divide":13547,"ĠAugust":13548,"baseball":13549,"*((":13550,"Ġgri":13551,"AED":13552,"Ġjobs":13553,"mpmath":13554,"Amy":13555,"inatorial":13556,"frustum":13557,"grades":13558,"retty":13559,"ĠNatalie":13560,"esserts":13561,"Ġ236":13562,"Ġessay":13563,">\\":13564,"expensive":13565,"Jenna":13566,"conom":13567,"guppies":13568,"Ġxytext":13569,"Eight":13570,"428":13571,"Î¸":13572,"ĠÃĹ":13573,")*-":13574,"ÃĤ":13575,"erleaders":13576,"Ġroutes":13577,"Ġquizzes":13578,"En":13579,"3125":13580,"Ġcrease":13581,"Ġ;":13582,"token":13583,"nbsp":13584,"Ġ275":13585,"ĠEli":13586,"orthographic":13587,"riots":13588,"$\",\"$":13589,"Ġadoption":13590,"chell":13591,"ĠBefore":13592,"older":13593,"sys":13594,"course":13595,"449":13596,"Ġpowder":13597,"weights":13598,"RA":13599,"IH":13600,"..{":13601,"converted":13602,"Ġbottling":13603,"Ġhose":13604,"nox":13605,"ACH":13606,"ĠTT":13607,"spotted":13608,"Ġbalanced":13609,"Ġrob":13610,"339":13611,"started":13612,"Ġcalen":13613,"GP":13614,"}|^":13615,"inations":13616,"Ġpaw":13617,"488":13618,"Ġpreceding":13619,"Ġrewriting":13620,"exchange":13621,"reshold":13622,"loaf":13623,"Ġ183":13624,"ĠCory":13625,"ĠMatrixSymbol":13626,"ĠQuentin":13627,"ĠPy":13628,"watching":13629,"Ġbelie":13630,"sheet":13631,"Ġphysical":13632,"Ġgrandsons":13633,"Ġcotangent":13634,"Ġ312":13635,"\\].":13636,"Ġ231":13637,"retchen":13638,"Ġlearning":13639,"Ġknocks":13640,"ĠClare":13641,"counting":13642,"adas":13643,"*}\\]":13644,"Ġencounter":13645,"ataFrame":13646,"Ġ2025":13647,"Ġcolour":13648,"Ġcarnations":13649,"Ġtransfer":13650,"novels":13651,"Ġpractices":13652,"ĠDot":13653,"ĠAnne":13654,"scalar":13655,"divs":13656,"apped":13657,"Ġâī":13658,"jason":13659,"Ġnsimplify":13660,"arby":13661,"measured":13662,"Ġcoloring":13663,"ige":13664,"Ġ'$":13665,"Ġ1986":13666,"Ġimplementation":13667,"Ġdre":13668,"ĠSundays":13669,"Ġrat":13670,"Carl":13671,"cla":13672,"Ġpigeons":13673,"ĠRPS":13674,"Ġrightanglemark":13675,"ĠABO":13676,"Ġpanels":13677,"Ġinfo":13678,"Ġsquig":13679,"!,":13680,"Ġlion":13681,"Ġdaps":13682,"Ġmerchant":13683,"560":13684,"ĠExactly":13685,"ladder":13686,"404":13687,"Ġraft":13688,"Ġ163":13689,"ranola":13690,"Minimum":13691,"Ġ149":13692,"velvet":13693,"################################":13694,"lec":13695,"}\",(-":13696,"ĠChecking":13697,"Ġsyrup":13698,"recipe":13699,"Ġ475":13700,"Ġnonagon":13701,"Start":13702,"rotated":13703,")}$$":13704,"ĠSqu":13705,"ĠNormal":13706,"ĠComplete":13707,"Ġsearching":13708,"1356":13709,"Schwarz":13710,"Jimmy":13711,"inton":13712,"scher":13713,"inkles":13714,"Ġencountered":13715,"Ġyahs":13716,"feathers":13717,"Ġpopsicle":13718,"anes":13719,"enumer":13720,"Ġdevelo":13721,"mmy":13722,"ising":13723,"uncy":13724,"weeds":13725,"Ġserves":13726,"ĠTer":13727,"Ġpolyhedron":13728,"haired":13729,"Ġmowed":13730,"lyssa":13731,"Ġwilling":13732,"shop":13733,"ĠAnother":13734,"ĠOl":13735,"oms":13736,"pain":13737,"essor":13738,"linsolve":13739,"perc":13740,")^^(-":13741,"berly":13742,"Ġgravitational":13743,"ĠThird":13744,"alia":13745,"Ġsarah":13746,"ficate":13747,"presents":13748,"Ġstudies":13749,"Ġlasag":13750,"Ġimagine":13751,"---|":13752,"property":13753,"ĠĠĠĠĠĠĠĠĠĠĠĠĠĠĠĠĠĠĠĠĠĠĠĠĠĠĠĠĠĠĠ":13754,"Remember":13755,"Ġaside":13756,"Ġsuitable":13757,"armer":13758,"')),":13759,"992":13760,"latest":13761,"Ġoverlapping":13762,"ondas":13763,"consist":13764,"ĠAlicia":13765,"degenerate":13766,"Ġamoeba":13767,"ĠDorothy":13768,"Ġylim":13769,"Ġsof":13770,"Ġmanipulations":13771,"agu":13772,"('(":13773,"Ġgathered":13774,"Ġcubs":13775,"Ġki":13776,"lettuce":13777,"Ġwebsite":13778,"Sally":13779,"ky":13780,"vina":13781,"ĠdrawSquares":13782,"sible":13783,"homes":13784,"angleE":13785,"2600":13786,"Omit":13787,"ĠRearrange":13788,"Ġmins":13789,"Ġexpense":13790,"cb":13791,"respective":13792,"Ġfn":13793,"$\\\\\\":13794,",\\,\\,\\,\\,\\,\\,\\":13795,"hemisphere":13796,"ĠDanie":13797,"Ġos":13798,"roof":13799,"437":13800,"ĠCylinder":13801,"Complex":13802,"Ġprepared":13803,"character":13804,"Ġinitials":13805,"Ġprofessional":13806,"Ġwore":13807,"ailed":13808,"Ġreturning":13809,"butterflies":13810,"GA":13811,"ifes":13812,"ĠDiego":13813,"ĠNina":13814,"356":13815,"GC":13816,"Ġattained":13817,"meshgrid":13818,"Lambda":13819,"Ġwashes":13820,"Twenty":13821,"assis":13822,"ĠBird":13823,"ĠMozart":13824,"ĠLy":13825,"excluding":13826,"spherical":13827,"Ġ12345":13828,"Ġinvests":13829,"ĠMathematics":13830,"subplot":13831,"learn":13832,"Ġraining":13833,"Ġchop":13834,"Ġclassmates":13835,"subbed":13836,"}},\\,\\,\\,\\,\\,\\,\\":13837,"ĠComplex":13838,"Ġstationery":13839,"347":13840,"Ġslot":13841,".\\,$":13842,"Ġskate":13843,"riet":13844,"nonumber":13845,"VD":13846,"others":13847,"aker":13848,"Ġsitups":13849,"Ġenjo":13850,"967":13851,"ĠMoh":13852,"Ġtallest":13853,"french":13854,"Ġmotorcycles":13855,"PAB":13856,"$(\\":13857,"601":13858,"Ġelementary":13859,"unties":13860,"appear":13861,"Ġframes":13862,"ĠGP":13863,"),\\":13864,"ĠIR":13865,"noxville":13866,"470":13867,"Ġsd":13868,"outside":13869,"ĠPretty":13870,"irty":13871,"Ġmaxima":13872,"lesson":13873,"468":13874,"Ġtoast":13875,")))*":13876,"])*(":13877,"ĠTheresa":13878,"Ġ456":13879,"&$\\$":13880,"Ġlesson":13881,"usages":13882,"ĠMiss":13883,"1520":13884,"Completely":13885,"Ġperpendiculars":13886,"466":13887,"Cp":13888,"Tuesday":13889,"ĠaddDots":13890,"887":13891,"watermelon":13892,"script":13893,"exclusion":13894,"Ġleak":13895,"built":13896,"ĠTrunc":13897,"SA":13898,"Ġlassis":13899,"Do":13900,"Ġlogarithmic":13901,"Ġsuggests":13902,"Ġlecture":13903,"envelopes":13904,"ja":13905,"Ġplat":13906,"5040":13907,"Ali":13908,"widgets":13909,"Ġnoticed":13910,"cloth":13911,"SD":13912,"ĠAld":13913,"utch":13914,"Ġdownhill":13915,"478":13916,"centers":13917,"Ġsafely":13918,"Ġprojects":13919,"Px":13920,"oster":13921,"Ġthirds":13922,"Ġdisjoint":13923,"ĠJoel":13924,"longest":13925,"Ġdelegate":13926,"GB":13927,"ĠMiles":13928,"winner":13929,"soap":13930,"ĠRepe":13931,"Ġbon":13932,"268":13933,"ĠSean":13934,"football":13935,"509":13936,"Ġqr":13937,"enters":13938,"ĠFatima":13939,"335":13940,"Ġlabor":13941,"Ġshooting":13942,"ĠHeidi":13943,"675":13944,"ĠCollect":13945,"Ġunsweetened":13946,"generator":13947,"Ġmultiplies":13948,"Ġneighboring":13949,"Ġresidues":13950,"hicle":13951,".}$":13952,"309":13953,"uffs":13954,"Ġfib":13955,"payas":13956,"Ġracers":13957,"Ġvolunte":13958,"XB":13959,"Ġcaffeine":13960,"ĠVictoria":13961,"db":13962,"lifting":13963,"Ġcher":13964,"Will":13965,"Ġtraded":13966,"Ġbirdhouse":13967,"ĠPermutation":13968,"tzels":13969,"Half":13970,"ĠÂ":13971,"ACE":13972,"rop":13973,"grad":13974,"ability":13975,"passes":13976,"Ġhalves":13977,"likes":13978,"Ġvampire":13979,"Ġcoincides":13980,"Green":13981,"Ġelevation":13982,"Ġmedical":13983,"Ġdops":13984,"ANT":13985,"Ġpint":13986,"1875":13987,"iah":13988,"Ġissued":13989,"Jackson":13990,"ĠBH":13991,"Ġloose":13992,"Ġsweetened":13993,"Ġcomplicated":13994,"ĠEBC":13995,"ĠNa":13996,"ĠBart":13997,"Ġcrew":13998,"Ġnetwork":13999,"ÂłÂł":14000,"record":14001,"suits":14002,"Ġsunday":14003,"])),":14004,"columns":14005,"Ġbroccoli":14006,"pancakes":14007,"Bobby":14008,"Ġauto":14009,"Ġeuclidean":14010,"ustard":14011,"sweater":14012,"pons":14013,"ilson":14014,"evens":14015,"vans":14016,"drawn":14017,"Ġraising":14018,"Ġrepetitions":14019,"enumerate":14020,"Ġfudge":14021,"Plot":14022,")//":14023,"Ġapiece":14024,"ĠDie":14025,"argh":14026,"Ġparrot":14027,"Positive":14028,"ulas":14029,"ĠCM":14030,"Ġnarrow":14031,"Ġinsert":14032,"uffle":14033,"vanilla":14034,"Ġclimbing":14035,"!-":14036,"try":14037,"alley":14038,"ĠBAE":14039,"Ġspiders":14040,"ĠEugene":14041,"Ġcontract":14042,"duled":14043,"191":14044,"Ġhotdogs":14045,"Ġknicks":14046,"3434":14047,"Ġmodules":14048,"Ġerrors":14049,"{.":14050,"ĠBow":14051,"669":14052,"Ġjumped":14053,"Possible":14054,"glo":14055,"once":14056,"AAA":14057,"Den":14058,"uer":14059,"ilot":14060,"293":14061,"elyn":14062,"Ġbreath":14063,"Ġexercises":14064,"cohol":14065,"ĠMadeline":14066,"ĠNiraek":14067,"ources":14068,"ĠPlay":14069,"Ġcertificate":14070,"Ġpurse":14071,"Ġpins":14072,"Ġnoting":14073,"Ġborrows":14074,"elementary":14075,"payments":14076,"visible":14077,"super":14078,"worm":14079,"linkums":14080,"\\).":14081,"Ġ484":14082,"Ġfloats":14083,"ĠBelinda":14084,"ĠĠĠĠĠĠĠĠĠĠĠĠĠĠĠĠĠĠĠĠĠĠĠĠ":14085,"ĠCasey":14086,"odot":14087,"grass":14088,"parrots":14089,"Ġclassic":14090,"}{\\|\\":14091,"experience":14092,"Jeremy":14093,"create":14094,"Height":14095,"810":14096,"nan":14097,"ĠSlinkums":14098,"multicolumn":14099,"Ġfont":14100,"ardy":14101,"Ġ\\}$":14102,")}}":14103,"ĠStre":14104,"Ġspoon":14105,"Ġgenerality":14106,"button":14107,"apartments":14108,"865":14109,"biscuits":14110,"NO":14111,"sentence":14112,"rals":14113,"Ġmary":14114,"Ġalphabe":14115,"bias":14116,"nap":14117,"Ġshot":14118,"ĠZachary":14119,"90909090":14120,"Ġallergies":14121,"40378":14122,"923076923076":14123,"rocks":14124,"Jill":14125,"Rob":14126,"abd":14127,"eggy":14128,"Ġknowing":14129,"ĠInter":14130,"ĠJayden":14131,")))$":14132,"uge":14133,"ĠCDB":14134,"ĠMalvina":14135,"Ġguitar":14136,"hew":14137,"ĠGar":14138,".\\\\":14139,"ĠEscher":14140,"Ġdriven":14141,"hy":14142,"2424":14143,"ĠBerkeley":14144,"ĠAmi":14145,"Remainder":14146,"cooking":14147,"brian":14148,"Ġpaycheck":14149,"cols":14150,"Ġstolen":14151,"ynam":14152,"Ġhelpful":14153,"Ġmichael":14154,"Ġwears":14155,"ĠChad":14156,"calculus":14157,"ĠAz":14158,"Ġpeak":14159,"Ġmaterials":14160,"Ġpickles":14161,"Dar":14162,"Ġterminates":14163,"videos":14164,"mix":14165,"Ġdependent":14166,"ĠDiane":14167,"Ġautomatically":14168,"969":14169,"Ġemplo":14170,"Ġsalaries":14171,"598":14172,"Only":14173,"shortest":14174,"45454545":14175,"Ġcrabs":14176,"Ġlady":14177,"CN":14178,"Gamma":14179,"269":14180,"Ġ197":14181,"Ġ176":14182,"Ġmistaken":14183,"Ġrecycling":14184,"papers":14185,"Ġ&=&":14186,"ĠStates":14187,"matically":14188,"ĠDevin":14189,"Ġbookshel":14190,"reciprocal":14191,"Ġarranges":14192,"tikzpicture":14193,"Ġsnail":14194,"rink":14195,"ĠUnion":14196,"Ġ202":14197,"apor":14198,"innerBall":14199,"Before":14200,"Ġvampires":14201,"Mel":14202,"json":14203,"longs":14204,"Ġmessage":14205,"ĠHarris":14206,"primable":14207,"ponses":14208,"Ġdump":14209,"material":14210,"ĠACP":14211,")|$.":14212,"Jon":14213,"coverage":14214,"Ġforty":14215,"ITY":14216,"ĠUnited":14217,"fully":14218,"fred":14219,"shipping":14220,"490":14221,"406":14222,"tiss":14223,"enails":14224,"Ġprimerange":14225,"ĠArthur":14226,"285714285714":14227,"sage":14228,"Ġrecognize":14229,"Ġrack":14230,"Ġperms":14231,"Ġwrench":14232,"shrimp":14233,"Ġmoment":14234,"residue":14235,"ĠCone":14236,"azel":14237,"Ġconnections":14238,"Ġtricky":14239,"Ġessentially":14240,"edition":14241,"opp":14242,"newline":14243,"Ġ\\(\\":14244,"rief":14245,"ĠCEB":14246,"CG":14247,"Ġcargo":14248,"dress":14249,"Ġnt":14250,"Ġconclusion":14251,"ĠOriginal":14252,"403":14253,"ĠFrance":14254,"marble":14255,"Ġ441":14256,"Ġhelps":14257,"Ġblankets":14258,"Ġhung":14259,"Ġappoint":14260,"Ġpasture":14261,"Ġdeduct":14262,"ĠTanya":14263,"Ġduck":14264,"181":14265,"Ġyogurt":14266,"-`":14267,">-":14268,"Ġoak":14269,"Martha":14270,"ĠGreen":14271,"breaks":14272,"Ġzucchinis":14273,"Ġnational":14274,"Ġdiag":14275,"ĠTamika":14276,"ummies":14277,"Jake":14278,"chan":14279,"delion":14280,"lang":14281,"oy":14282,"ipper":14283,"Ġpersons":14284,"wants":14285,"(\"+":14286,"190476":14287,"iring":14288,"peach":14289,"Ġswitching":14290,"Kevin":14291,"Ġthick":14292,"ationWarning":14293,"KE":14294,"Ġbelongs":14295,"Ġcupboard":14296,"culpture":14297,"Ġvisiting":14298,"orey":14299,"\\\\\\\\":14300,"Ġknacks":14301,"parent":14302,"Ġrepresentations":14303,"Ġ\"\")":14304,"FA":14305,"amental":14306,"QQ":14307,"Ġsettings":14308,"Ġorchard":14309,"Ġ```":14310,"ido":14311,"Ġminimizing":14312,"Ġenrollment":14313,"Ġoccupy":14314,"ightly":14315,"ĠBlake":14316,"EAB":14317,"Ġbehav":14318,"spring":14319,"ĠOur":14320,"Ġoven":14321,"Ġ224":14322,"$},":14323,"Ġwinter":14324,"gca":14325,"Ġtadpoles":14326,"Ġsibling":14327,"Ġmaximizes":14328,"Ġ137":14329,"ĠApplying":14330,"Ġdryer":14331,"splargh":14332,"Ġcoef":14333,"Ġexplore":14334,"Ġsalon":14335,"pD":14336,"prop":14337,"borough":14338,"Ġpainters":14339,"Ġbean":14340,"pile":14341,"ĠDanny":14342,"Ġprinter":14343,"mountain":14344,"Ġtools":14345,"Ġmatt":14346,"ĠEA":14347,"Ġ\"-":14348,"Ġcarries":14349,"overlapping":14350,"239":14351,"Ġscheduled":14352,"Ġtruncated":14353,"sat":14354,"BOC":14355,"strum":14356,"enger":14357,"}),$":14358,"tians":14359,"Ġmul":14360,"into":14361,"ĠRectangle":14362,"5625":14363,"ĠJasmine":14364,"osevel":14365,"367":14366,"ĠKenneth":14367,"town":14368,"Ġ235":14369,"loria":14370,"centroid":14371,"Ġinferior":14372,"janet":14373,"omelet":14374,"IPython":14375,"Ġpregnant":14376,"ĠSammy":14377,"Ġproportions":14378,"txt":14379,"succes":14380,"Looking":14381,"Ġ284":14382,"Ġloops":14383,"&=(":14384,"ĠBar":14385,"Ġrequested":14386,
[...]
